<s>
<pad>
</s>
<unk>
,
.
▁
s
-
a
▁de
▁a
e
:
i
▁(
)
▁i
t
o
’
▁-
▁in
u
▁la
n
'
▁na
?
▁en
。
▁e
▁the
▁to
...
!
en
▁o
▁на
、
m
▁se
y
▁di
▁I
▁и
▁A
▁–
▁of
r
的
▁je
▁que
▁and
▁da
▁“
;
▁"
▁u
▁в
▁un
▁sa
▁و
/
er
а
”
▁is
"
▁_
▁do
،
d
▁for
▁on
▁og
an
и
е
▁y
▁l
▁S
▁1
▁le
▁d
▁el
▁s
k
es
▁за
te
▁v
▁si
▁et
▁at
in
▁ja
▁er
▁ne
▁2
▁za
na
▁die
▁no
у
▁«
▁ka
▁не
ne
ی
▁du
▁3
re
▁be
▁у
h
▁su
▁te
ti
▁z
(
▁M
▁per
▁me
l
ta
▁del
▁да
▁E
▁:
ni
da
▁an
▁på
de
▁van
▁с
▁...
の
▁der
ing
▁P
▁para
▁/
la
▁ya
▁O
as
▁al
▁C
le
▁yang
▁T
▁dan
ه
▁that
▁n
▁as
»
­
▁B
ka
▁K
▁w
ar
▁som
et
“
▁ki
▁по
▁til
▁med
li
▁und
▁5
▁„
َ
▁ni
▁και
▁4
▁con
g
z
▁po
▁به
é
ja
।
▁it
▁les
▁det
b
▁се
3
os
▁à
ed
在
A
▁om
я
▁در
c
▁ku
м
▁pa
▁you
▁ma
▁m
▁10
▁den
S
▁і
了
▁des
ы
).
_
▁‘
is
і
]
▁ha
▁so
ma
▁L
ي
▁#
si
о
p
on
no
▁N
▁La
▁by
▁ta
▁od
▁V
em
us
▁D
▁U
2
▁të
▁ve
▁ir
▁kan
▁es
se
▁il
om
▁una
com
▁was
▁av
▁are
▁por
▁har
al
j
▁k
ul
▁'
和
▁De
を
▁wa
▁The
to
▁з
ra
▁от
í
▁ar
が
),
의
▁with
▁—
▁H
it
▁ال
に
▁och
1
▁az
▁ke
을
х
f
▁és
ا
▁G
at
▁mi
▁het
は
▁[
▁pe
ς
▁6
je
▁ko
▁op
й
mi
▁c
▁nu
▁از
▁ה
▁من
ch
▁af
▁tu
▁um
ve
人
▁ti
▁this
un
大
是
▁che
▁your
▁του
▁or
▁في
▁до
▁los
x
▁&
▁mu
▁F
ny
▁το
▁în
▁να
▁ba
am
▁cu
▁د
不
D
▁vi
▁In
▁Na
I
▁کے
v
▁R
C
▁li
▁var
▁а
▁7
▁een
ă
nya
ku
me
▁bi
M
▁my
do
um
á
ga
▁man
▁par
ke
م
▁nga
▁ng
▁20
一
中
▁we
有
▁ca
на
▁din
上
ом
ki
ci
▁have
▁В
▁att
ko
이
▁em
▁8
▁»
ة
ek
▁t
▁کی
▁के
▁nie
▁της
va
▁b
lo
▁va
▁En
ce
w
ن
▁W
ą
▁е
ِ
st
ia
▁re
▁12
▁την
▁am
▁lo
▁p
年
▁not
ya
▁ב
il
B
▁g
에
▁2018
▁С
▁15
т
▁ce
▁।
▁для
T
▁bir
で
▁2017
▁No
ó
▁com
K
O
E
та
4
ba
▁Z
&
ን
ie
▁El
▁all
▁he
▁mai
▁*
▁را
▁می
ai
ت
sa
▁bu
di
▁9
kan
▁iz
▁è
▁mit
▁J
▁ny
▁که
ly
ri
▁با
▁met
im
5
▁å
▁Le
▁میں
▁ang
ю
▁zu
▁ל
▁για
▁Se
▁ب
▁non
▁can
be
N
▁men
▁με
▁ho
P
▁0
▁në
ca
▁У
▁from
U
н
▁las
▁é
ha
▁је
▁та
ни
我
▁18
▁©
▁bo
▁во
ų
ir
▁است
▁م
wa
▁pour
▁из
el
▁11
tu
▁To
▁her
▁А
▁при
▁და
و
▁að
ُ
가
▁das
▁о
▁von
▁ei
▁este
но
▁but
▁á
▁care
▁tak
ho
日
nu
ات
ur
▁pas
▁30
▁Y
▁ga
ju
ов
은
ng
는
ка
▁pro
mo
▁dengan
▁που
G
▁är
▁από
L
▁så
▁est
▁fi
▁में
▁ist
▁au
到
ل
ä
▁од
H
▁go
ْ
▁untuk
▁է
▁şi
出
地
man
▁í
▁•
▁1.
▁ikke
za
と
▁pre
6
▁im
+
ë
▁over
▁16
▁Vi
ה
▁yn
▁14
ou
▁sur
를
▁för
▁os
▁ini
▁się
▁13
F
▁2016
▁qui
▁ou
▁mo
ს
▁fra
den
id
▁है
为
▁sem
को
▁f
ov
.”
est
▁2019
or
▁+
то
月
ी
ите
те
▁và
も
▁more
子
▁کا
等
」
▁17
▁nem
co
한
à
ge
ak
ten
▁como
▁will
▁η
▁ser
▁có
▁ў
▁این
▁של
▁)
小
▁You
会
▁की
7
α
д
▁của
mu
▁ver
R
▁h
▁اور
lar
▁к
▁ge
▁up
▁ra
▁የ
▁dhe
▁،
下
ት
ro
ê
▁für
▁ad
▁hogy
「
ի
·
8
मा
ā
9
▁ein
▁что
q
▁Re
▁Si
▁со
ji
▁dat
▁수
▁ت
用
▁meg
://
ى
не
你
ли
▁про
V
ye
▁Die
▁auf
▁dia
▁את
▁са
ok
да
▁pentru
▁على
л
pa
▁سے
▁ut
jo
ú
ий
è
▁ي
▁voor
▁Di
th
▁24
@
с
고
▁25
对
ого
▁one
▁là
▁τα
▁že
▁На
ը
▁کو
▁מ
их
”,
▁out
ки
就
ze
ان
▁او
▁x
ም
手
▁Det
=
▁dans
他
▁une
好
▁?
▁about
▁să
▁2.
▁پر
新
ים
▁co
sta
ana
▁they
家
ر
га
ь
▁pri
г
▁или
ів
▁son
▁ale
▁və
ის
▁has
▁për
로
ih
ik
ና
от
ת
ა
▁های
0
▁jo
도
也
要
▁jag
▁r
nt
▁2015
▁σε
go
ти
天
▁yo
分
ina
▁mga
▁Al
▁oo
▁των
▁als
د
▁Bu
▁aan
高
▁It
▁21
▁cho
▁eller
▁له
▁19
性
以
▁ye
▁Du
*
▁Ma
ً
▁mais
▁Be
与
▁ber
в
▁X
▁jeg
▁को
心
▁fa
▁Po
▁ay
▁И
被
к
ले
ndo
▁blog
▁በ
ла
▁Ka
▁online
▁had
ο
▁50
▁!
▁ل
ban
ที่
▁till
ен
▁dalam
dan
▁sin
▁Ne
▁का
▁their
ہ
▁data
▁Ja
ой
io
▁से
▁han
J
生
▁An
▁100
▁uma
▁ich
▁dem
▁είναι
▁στο
▁his
▁22
▁Sie
多
vi
水
ment
▁Un
之
".
ę
▁alle
▁що
▁kwa
▁К
▁like
▁په
ler
▁time
are
ý
▁2014
ж
▁della
É
ru
▁So
▁Il
▁dos
ം
▁dari
▁Za
du
Y
ů
▁nicht
▁just
▁new
Z
な
▁Da
ele
▁min
ك
▁ali
▁ci
▁2013
▁што
지
▁ο
▁sau
ben
▁ہے
▁ا
▁>
着
行
zi
nin
▁Sa
ima
ها
ej
▁koji
▁más
▁ter
gi
과
▁על
hi
▁We
▁itu
W
ата
后
▁tidak
▁то
”.
ი
▁О
▁Je
▁છે
▁không
▁ו
▁·
▁Facebook
ll
力
ului
▁вы
▁și
▁email
▁He
▁sy
[
▁dit
▁amb
▁Per
fi
ad
기
ب
市
ш
▁23
者
au
ή
yo
ми
▁ze
▁@
10
本
ter
▁plus
▁ما
▁су
▁За
",
에서
化
▁các
▁sex
▁For
▁DE
▁This
ol
▁이
им
▁what
po
▁Do
ð
lik
리
而
可
X
▁pod
▁3.
▁egy
tab
や
▁М
η
前
▁как
将
▁mas
pe
都
ा
▁não
ش
="
▁sich
▁ak
ant
ות
▁uz
▁2012
î
lu
ية
▁if
道
ów
ين
▁ها
▁ako
▁wat
▁τον
三
▁tai
▁site
得
nie
ot
▁στην
ах
का
р
▁hi
来
▁Ke
▁но
事
▁θα
▁لە
æ
so
ung
С
š
ní
^
ky
ами
ò
▁ai
ά
▁П
kin
▁who
▁kad
ada
▁aku
所
▁я
ig
▁j
س
ı
▁اس
▁được
入
▁see
名
ile
▁па
金
▁our
▁eine
–
▁using
▁pada
ку
▁get
og
▁inte
õ
ene
ã
▁ש
及
>
部
인
▁<
▁Д
п
▁qu
▁akan
▁τους
▁nos
▁Log
bo
▁Ko
he
说
▁account
né
▁post
▁եւ
ում
▁Me
▁vous
▁40
ssa
▁sobre
ของ
▁לא
▁trong
▁Б
nak
时
▁और
▁أن
から
ste
ers
ть
Ê
▁Google
外
ට
▁По
い
能
▁via
we
面
▁video
!!
回
ር
这
▁Out
▁một
看
vo
▁ji
su
▁ان
▁would
▁ob
ach
pi
▁أ
ts
▁there
▁Ha
・
▁auch
▁kun
ό
ем
다
؟
▁jest
▁र
▁els
▁نے
法
ма
▁bei
ّ
▁पर
ista
▁alla
ын
▁As
▁ن
sen
▁́
▁под
ty
▁dar
▁nan
▁come
▁(1)
ver
ስ
去
▁Az
美
▁Ki
«
▁cookies
ون
ны
bi
▁τη
ii
der
点
▁vil
que
ning
▁ف
े
ат
▁when
▁may
▁Les
hu
ć
成
色
▁г
▁mal
وں
▁Er
ut
▁chi
ных
።
~
▁Pa
ے
▁Η
自
し
▁që
▁برای
י
▁=
▁kas
▁how
▁без
▁sam
ใน
▁aus
▁Co
일
▁hai
ል
▁which
ç
▁them
发
ang
mos
‘
ami
으로
▁Men
ε
ita
▁አ
▁2011
ado
`
bu
》
▁एक
des
Ó
▁us
▁been
合
▁си
▁some
፡
ն
▁ri
▁were
▁film
▁bez
▁kao
Ë
▁skal
».
▁avec
▁З
想
▁Es
▁Mi
▁zijn
▁آن
▁ik
▁don
▁entre
▁ده
▁với
▁لا
物
men
ч
▁use
她
▁26
于
▁Q
ـ
です
▁28
▁fel
www
fa
▁kita
▁Te
▁Pro
▁she
และ
ah
ske
ні
와
▁ኣብ
han
ей
文
▁Change
lla
tar
Q
▁Tu
▁від
ې
▁ada
uri
ая
ì
▁Ku
by
ez
▁ili
《
▁4.
cu
്
最
但
ال
▁27
ው
ών
国
明
打
▁mis
方
▁vy
▁δεν
न
â
山
▁eu
▁Ta
▁km
র
ž
内
▁ju
÷
向
全
ei
時
▁ви
▁web
ного
."
▁раз
ata
會
▁Der
▁छ
uje
▁people
ama
▁kar
▁under
ৰ
፣
▁بر
▁الله
▁як
ες
区
б
ska
nek
ks
▁هم
스
▁commenting
▁tot
▁uit
▁And
▁οι
▁τις
ala
▁një
ine
▁mar
▁because
长
▁..
或
ñ
▁Не
▁Ar
▁Li
▁vor
ок
▁wo
▁era
车
क
▁also
▁iš
▁oli
▁2010
ini
▁mer
▁vir
▁www
ам
▁người
从
▁sie
▁об
▁Т
▁için
tan
ে
可以
り
ع
»,
▁į
▁tra
▁ਦੇ
▁â
▁că
▁here
ry
nih
시
口
น
度
▁все
—
▁saya
해
▁ved
ές
海
net
ere
wo
▁Dr
oj
▁так
ş
重
▁ac
lah
▁On
▁pi
▁any
하는
▁New
ite
▁Nu
ක්
ə
▁gratis
定
▁By
lle
▁ah
▁niet
лар
▁oder
ו
▁aj
▁کہ
ť
中国
نا
ô
dir
▁wie
ной
▁into
ные
同
ся
▁كه
ları
▁تو
▁”
го
开
Á
ය
▁gi
▁će
‬
▁Man
nde
▁60
情
▁ته
ě
ι
ରେ
▁sind
▁website
正
工作
ü
bar
▁http
▁تا
公司
▁کر
▁iti
▁Α
後
▁Ba
為
▁нь
▁ኣ
▁ap
자
主
起
▁jak
▁juga
▁sono
ди
▁:)
身
▁other
▁это
▁vai
▁way
ம்
ین
期
lt
▁than
か
дан
位
ේ
▁ने
어
ድ
▁że
▁sig
▁už
光
ton
再
▁29
放
特
▁war
▁što
▁hat
ali
把
无
花
▁ook
sk
ం
▁ከ
▁Ο
▁ر
▁وال
사
ได้
▁My
网
來
ù
▁መ
és
▁San
里
▁Ver
▁All
▁zo
20
く
我们
▁го
体
min
▁Ni
û
▁الم
▁atau
ski
感
▁free
▁parte
▁adalah
▁%
▁ett
女
ق
▁sunt
ին
sz
▁know
?”
▁Su
ate
安
▁più
比
zu
Ã
做
那
▁ex
▁આ
mail
更
mp
】
当
하고
ist
▁ab
與
ं
ک
che
▁most
自己
les
▁fan
rea
त
▁ی
▁عن
र
▁seu
▁และ
ሉ
先
商
▁những
▁dag
°
ων
....
个
ों
ção
▁Copyright
▁ao
#
▁werden
理
▁إلى
ने
ої
К
▁че
the
▁oku
▁Я
利
yi
ken
老
!!!
▁Et
sin
▁TV
▁lu
▁bet
zo
kar
▁Home
▁¿
對
▁نه
ม
san
yan
する
ою
▁dating
ran
Í
nia
▁ብ
▁Twitter
▁også
ais
お
▁Online
▁हैं
▁make
▁että
30
路
ды
ani
▁ten
ет
头
▁Ε
una
▁може
ili
ila
ל
ari
per
دا
▁only
å
ના
dos
▁iyo
▁Mar
ud
▁2009
西
ની
َّ
学
era
▁ile
又
▁یا
▁lui
▁sus
gu
▁mereka
▁ще
其
iti
son
▁_--
sti
民
▁بە
▁Г
▁مع
▁nas
my
jen
▁få
▁pot
ab
相
▁God
▁ای
ap
▁nach
▁år
▁II
chi
▁dei
▁đã
量
▁û
▁және
▁हो
▁pou
▁tam
▁Á
ale
▁Video
ել
▁Mo
ම
ный
通
很
È
▁При
▁bij
ная
ში
ят
品
12
▁س
▁ότι
માં
▁5.
das
一个
ation
▁ee
▁kom
ف
▁Para
▁ek
过
▁để
▁31
ス
ic
▁nak
▁200
白
ረ
ز
著
tor
tur
ло
▁koje
▁good
▁esta
서
信
ire
▁cha
▁Con
▁orang
▁thể
▁Π
▁مي
▁mag
org
神
局
án
走
ï
▁made
ላ
▁Х
ದ
nda
▁forma
▁program
▁sua
▁tem
Ú
公
▁Den
▁بۆ
▁وه
▁خود
加
аў
dar
за
tas
▁samo
▁جو
机
并
▁အ
ке
作
них
▁nel
▁maar
▁ਦੀ
ко
▁back
▁Download
up
▁even
器
ме
▁ва
▁Allah
▁[...]
▁now
할
▁Email
lor
val
▁bien
▁sen
長
▁ani
ва
수
lan
▁nou
▁Pe
А
mente
ний
ción
▁eta
▁ago
▁fer
▁auto
原
장
une
▁그
▁ය
▁him
uar
南
▁Go
▁전
대
▁much
▁Ge
ού
斯
▁لل
▁internet
లు
ren
▁plan
ের
动
ende
▁godine
王
च
nom
る
▁At
gen
ın
land
də
▁tan
▁;
▁më
▁está
▁Ya
▁này
▁day
ker
▁dell
ná
▁part
▁само
▁dal
▁very
して
ent
▁anda
ў
▁first
iem
wi
년
▁شده
▁են
Г
स
▁ك
▁far
ner
dy
able
ත්
▁pred
▁door
Â
▁WordPress
▁Mu
cha
nd
ก
▁amin
平
清
leri
▁tri
数
ö
ता
还
ם
▁ud
ых
▁við
▁bạn
Р
č
▁би
▁think
nik
▁nad
した
iz
▁über
uk
▁2008
って
ן
ア
店
het
▁sont
▁ж
▁ug
▁Nam
▁News
▁یک
ይ
▁want
ብ
▁μας
已
▁naj
▁Her
▁ми
%
▁công
ει
ую
▁Р
立
▁Ho
▁sve
保
▁अ
ી
!”
▁gan
▁dass
М
Т
▁være
▁pun
11
元
▁But
太
流
▁best
̣
ル
▁же
管理
▁hier
▁он
意
▁आ
解
ati
ну
▁Por
各
▁شود
▁Ti
$
ně
ส
▁سال
ға
二
Д
ия
ያ
ค
ї
▁class
機
ର
無
▁dig
tes
▁oleh
▁ਹੈ
▁said
▁Ce
▁bisa
万
▁mig
드
▁بعد
▁Е
▁kepada
城
át
▁wird
▁hay
交
▁ez
▁bar
▁ይ
ан
nes
▁mere
Û
▁Ali
▁$
▁пере
Ô
ጋ
만
ria
tel
如
說
pu
▁super
▁LA
代
®
▁//
▁més
ح
使用
次
▁never
kom
nim
▁І
▁न
▁let
▁sama
เป็น
ens
ż
車
▁Hotel
▁upp
省
▁yi
▁lang
asi
av
▁St
sel
送
▁их
周
▁его
气
台
ج
▁pero
and
工
▁અને
ट
▁delle
라
▁т
▁Σ
▁deg
▁Το
▁ole
▁Post
ند
ፍ
▁tin
......
line

म
▁dapat
В
▁нас
성
ন
▁Das
ø
▁vel
▁അ
▁€
▁është
ger
ዕ
ийн
▁Om
▁nous
由
▁tout
):
▁về
房
ە
aj
▁kur
▁(2)
¿
sh
mm
▁tre
▁cum
ies
▁find
▁מה
▁Par
▁sub
▁love
ɛ
▁σας
‡
就是
▁khi
▁denne
15
▁де
▁کې
구
▁ID
▁आहे
▁ہیں
▁lagi
։
þ
收
电
▁ben
elle
ου
▁public
ական
▁NA
▁work
快
nen
де
▁kon
▁kako
▁ag
▁Dan
ને
tra
▁Jo
▁Pre
受
取
▁foto
▁Am
아
၊
▁ਨੂੰ
ay
空
開
ला
▁could
▁apa
▁như
mer
▁well
มา
▁kr
▁ama
▁대
制
▁lebih
▁Bo
ย
▁sal
▁If
▁life
లో
▁लिए
▁wir
П
การ
▁Bi
ė
if
લ
▁או
Б
ให้
ሕ
接
给
▁ع
▁nog
▁ch
き
od
ቱ
▁пре
▁ska
國
▁6.
▁gli
▁Jeg
लाई
▁Κ
▁vo
▁भी
▁social
▁need
建
▁nuk
▁sta
集
div
服务
。”
▁500
tak
▁Н
▁really
让
nog
场
ј
ски
ሪ
片
▁inn
▁ли
ด
ona
▁(1
주
▁कर
▁Ra
▁mot
ac
超
ß
▁bra
qa
▁Anda
О
▁Ж
▁دا
À
企业
}
len
▁Od
▁put
ber
лі
▁որ
▁then
▁maka
▁זה
▁Har
▁35
▁ste
▁gu
ге
▁kui
▁air
拉
ns
▁anche
▁cm
ster
▁fost
▁Het
這
정
ᑦ
▁seg
▁casa
nan
教
က
ting
▁بن
▁får
▁bila
▁face
▁б
ω
ion
▁mana
▁ч
นี้
提供
ો
▁yra
ራ
两
▁many
وا
з
▁olan
ц
▁nije
ida
▁Lo
見
▁years
▁ایک
tion
ena
▁بھی
အ
▁these
▁कि
상
▁end
▁net
cie
▁עם
▁ዝ
▁Um
ν
▁ප්
▁einen
火
▁Μ
▁80
▁file
▁мен
▁kommer
ŋ
马
ando
▁ን
▁ro
林
线
▁pra
動
van
▁Internet
vu
ný
บ
▁या
▁dette
式
ለ
四
La
号
ነ
▁hun
▁noch
▁Is
ika
ato
af
进
ão
▁ó
▁دو
克
▁tako
isi
▁му
▁say
▁kann
▁word
ira
ታ
使
▁nur
▁ở
▁É
リ
ক
百
트
▁ur
ዋ
▁دی
▁kot
ity
▁سه
▁agus
ých
▁ни
ना
▁đến
mar
▁two
ū
▁ons
zione
▁sẽ
▁{
门
▁tur
▁làm
ай
lig
▁TripAdvisor
▁არ
真
▁nam
▁ተ
▁სა
▁kami
res
笑
ego
);
μ
▁ima
Ò
▁oma
▁kā
▁پ
▁א
ый
▁تر
至
▁כל
ই
▁Tak
소
Ž
▁bio
ven
ega
́
▁top
мо
▁및
ल
ని
ych
Ü
▁its
▁کار
ሩ
let
▁prin
var
▁dla
ত
▁media
ო
▁koja
ቡ
▁sit
▁Jan
ți
目
sha
▁ئه
▁які
▁「
发展
▁todo
Ì
ũ
व
▁있는
愛
గా
▁ఆ
▁ed
場
ով
mas
ง
才
反
▁too
▁__
▁zum
▁wy
▁tại
▁στη
版
sko
ara
ዳ
▁dels
▁May
▁̈
章
ጥ
{
▁long
ци
▁це
gt
演
▁vagy
過
报
tam
▁real
▁або
Х
▁voi
ţi
▁did
ကို
▁70
▁000
nja
▁solo
型
▁რომ
ade
전
▁те
Ç
ව
ł
fe
ным
▁volt
gan
▁Но
▁tudi
▁أو
nej
ว่า
指
ling
op
▁Ab
fu
\
мен
▁cũng
▁pag
ela
▁votre
ната
此
one
ée
게
德
吃
五
▁efter
မ
科
▁hàng
▁pat
▁м
50
▁jou
ја
には
화
imi
▁aux
The
ሳ
▁naar
▁place
▁aby
言
▁aba
▁هر
ב
▁last
ਚ
ר
면
ар
ās
▁pu
▁vida
▁ilə
▁tik
▁הוא
tta
日本
부
▁Los
ee
ไป
▁ή
▁ty
nte
▁Да
▁satu
▁being
▁tr
▁^
▁take
▁soo
▁ແລະ
มี
没有
▁ένα
나
▁með
18
▁있습니다
ën
му
▁2007
ым
ить
▁ги
食
ille
Î
▁kat
▁90
gar
▁Wa
▁where
住
▁uu
▁بال
“,
▁45
eni
ő
▁Hi
▁Song
თ
rum
早
ram
▁PDF
ните
จาก
▁ад
▁Ber
▁telah
於
▁στα
精
▁נ
▁бол
▁quan
書
▁چې
▁god
ද
▁한
▁meer
ੀ
▁Op
▁7.
กับ
何
▁‫
kat
ym
▁từ
▁einer
▁todos
▁Yesu
нинг
处
ා
ű
▁contra
▁car
▁lại
▁What
▁ق
▁هذا
▁haben
aa
首
wan
ът
▁तो
▁má
적
▁شد
▁mon
▁주
▁aber
士
є
た
ча
ار
▁نہیں
원
▁through
▁should
▁Or
▁bara
▁пра
ે
點
±
▁foi
▁She
▁etc
cia
ava
▁after
▁мы
防
▁Ca
▁mp
▁ለ
shi
ці
▁هو
ής
▁כ
配
▁off
ね
▁32
ому
del
▁Ang
ουν
▁جي
nos
客
跟
▁jako
▁μια
▁hari
ron
总
ು
修
▁ning
ino
风
ክ
▁bin
吧
vad
级
▁control
▁hotel
nın
ong
▁anti
▁də
▁mange
星
nje
球
▁biti
应
▁જ
▁vào
ле
ते
▁Free
▁→
ਲ
ante
件
inen
▁التي
进行
▁인
iya
ები
ു
ova
menu
▁från
inn
▁got
aan
▁mata
rat
ー
▁ఈ
ካ
ๆ
ilor
▁Ek
▁있다
只
▁Ci
▁dy
▁problem
▁mes
▁pr
▁cada
ების
▁hvor
ové
▁України
У
age
Š
▁hin
▁سی
▁still
Å
න්
▁hem
▁::
ਮ
ጽ
ზე
ên
实
▁לה
未
▁بو
for
ล
lı
书
mat
▁masa
▁nhà
24
▁those
▁Jag
战
▁ਦਾ
▁ද
少
▁einem
▁Ein
▁már
▁ክ
▁እና
ੇ
ማ
管
ano
▁Mas
▁deze
illa
ica
▁menjadi
▁bli
▁ble
頭
kon
▁Os
▁same
ise
ര്
▁kaj
▁lain
近
世界
▁ќе
ક
ÿ
▁म
▁Đ
▁trên
▁Van
▁đầu
▁Em
▁mà
▁năm
ली
▁bon
需要
▁nhiều
▁fu
tal
院
чи
▁dis
▁ok
这个
▁300
▁під
個
യ
՝
א
▁daha
▁bude
ган
ների
ска
尔
area
dor
న
▁mat
ህ
▁Ga
▁vez
石
强
▁Windows
▁̧
でも
par
ไม่
▁මේ
▁short
图
rin
▁ہے۔
▁hal
▁nye
▁01
ше
ій
ら
▁world
प
▁fyrir
▁можно
▁når
▁động
ag
imo
將
З
社
ete
های
▁down
br
ল
Ù
▁8.
ía
ið
යි
▁Hai
▁ایران
▁Ak
▁opp
▁ಆ
▁EU
助
ff
▁только
▁नहीं
lər
ده
ਨ
ಯ
ቅ
▁Â
پ
低
▁Han
▁ја
▁המ
▁sou
さ
▁mil
ді
ության
▁کرد
خ
华
tik
▁като
ሊ
▁Posted
常
▁mir
mis
▁right
ī
▁csak
▁link
▁има
พ
هم
▁przy
▁year
ura
pan
信息
요
イ
▁selv
▁sul
包
ರ
ግ
▁કે
ты
▁things
▁mm
ния
▁oss
病
ito
url
vat
▁bị
ే
▁q
▁ब
▁help
▁fin
▁ആ
▁smo
ተ
ป
Õ
▁Sex
▁Ш
教育
vel
州
▁आणि
學
ном
▁blir
▁یہ
表
という
▁sú
▁ഒരു
▁raz
tek
؛
▁sempre
景
ዝ
▁dụng
▁home
sal
aba
ње
ン
▁نظر
卡
款
深
东
眼
▁Pri
▁going
ure
▁boleh
▁ru
▁great
▁Ф
▁Dar
Ï
pl
转
▁bil
ét
ന്
▁є
▁sebagai
▁много
▁ናይ
▁moment
音
ció
cy
или
▁እ
▁ही
张
▁व
▁test
lin
▁시
кі
tie
▁nhất
az
▁final
▁before
進
▁pan
▁అ
▁유
▁kala
表示
▁Как
ин
sten
aka
▁olarak
▁andre
中心
Ö
コ
您
直
▁gran
ία
▁байна
▁보
北
▁како
히
▁roz
▁gen
vis
보
業
▁کیا
▁full
▁such
称
sse
爱
格
እ
▁arī
ня
▁Cu
mak
發
tin
▁Ve
▁【
tt
▁alt
۔
網
知
赛
▁saat
ै
▁questo
▁Top
足
安全
▁ہو
ሰ
▁anak
са
引
▁sistema
▁log
▁shi
.....
▁tempo
▁main
치
▁Alle
▁가
▁Kan
▁Va
實
▁Web
▁제
▁Э
▁mod
▁بود
他们
ご
း
비
▁ش
▁vol
▁san
▁cel
非
案
ē
▁هه
▁най
wang
▁tar
▁사
ës
니
落
国家
ць
▁bis
半
像
▁sự
מ
▁đó
eg
▁chính
">
isa
▁Δ
▁ekki
米
つ
▁YA
味
已经
▁Việt
ib
▁kell
▁ayaa
▁ken
단
lang
率
夜
▁bit
▁ج
▁sha
▁przez
Ă
ක
▁chỉ
ደ
tti
▁Val
▁који
▁Your
তে
单
え
▁bilo
▁36
死
▁hand
▁info
▁पनि
达
nga
သ
节
▁share
ች
▁ও
▁និង
黑
16
▁וה
కు
▁helt
▁pie
▁지
ның
enie
신
ник
初
▁tema
ته
▁comme
▁person
▁mehr
issa
ца
။
體
kk
では
▁부
カ
▁باشد
任
害
କୁ
▁kuwa
▁roku
▁comment
▁33
▁Bar
种
▁اين
便
见
υ
ими
▁над
ную
▁start
▁nebo
▁̃
én
▁Ser
世
ड
▁lot
set
▁п
▁tal
▁jy
ser
▁ላይ
▁Ro
▁Ji
ити
▁بی
站
▁Mit
形
ज
▁số
он
▁오
古
yn
▁kada
ś
▁ඒ
▁bare
巴
▁나
▁hiện
▁۽
ḥ
ÉÉ
▁või
▁prima
▁स
▁myös
ల్
ble
▁sé
▁pm
▁было
▁še
▁Med
▁phải
▁inter
生活
pas
请
▁ọ
ados
▁worden
진
tis
▁Вы
con
13
met
▁tas
це
▁zur
ec
fl
14
▁비
ท
市场
▁thành
▁beste
血
los
业
▁Ben
▁бар
▁Bir
▁Lu
す
▁alebo
▁set
▁One
▁Ny
▁Og
▁sudah
Ä
▁HD
▁Nie
▁dr
세
ो
▁пред
▁posts
ன்
▁vara
▁durch
▁download
num
▁До
▁ਨੇ
러
กัน
▁muy
▁Blog
▁oraz
▁Про
▁им
▁ont
マ
▁آ
▁того
▁إ
ide
chu
산
▁tahun
ꞌ
ից
▁й
▁9.
▁können
▁više
展
▁form
▁~
▁એ
▁här
油
▁час
▁są
ী
都是
▁στον
▁Mai
iga
越
▁hy
军
因
nud
▁service
▁дека
▁شما
rd
▁роз
▁little
ውን
▁Of
活
った
▁DI
ра
▁نا
ého
:“
除
▁права
ás
▁Ad
ช
▁seperti
我們
還
cz
提
ша
▁book
▁tuo
¡
ος
된
▁There
тай
quot
▁học
ით
ነት
▁nước
▁again
▁ngày
▁üçün
装
▁iki
▁Ri
یان
ев
料
ev
▁lub
▁own
▁کي
ま
▁100%
▁كان
▁Sam
▁bagi
ket
▁something
17
›
▁zi
▁त
技术
玩
cm
▁Dit
си
했다
▁lahko
▁tym
jan
கள்
kal
ła
▁Ik
▁base
▁আ
tos
▁grande
ige
▁việc
▁information
መ
風
▁ու
ರು
▁Cookies
▁comments
▁nav
▁ses
▁ara
და
ման
▁dé
▁중
▁года
切
村
ые
▁banyak
它
αν
▁Indonesia
▁fe
▁Ö
ef
100
▁محمد
แล้ว
40
▁ind
▁még
25
问题
▁ñ
み
▁Com
of
▁бир
▁Í
ד
▁Im
tha
▁cette
ൻ
选
▁Ch
명
ное
Ý
▁https
rs
ил
ذ
然
▁uno
▁150
▁út
용
▁chat
以及
李
▁(3)
ту
▁oko
iva
zy
نے
▁απο
▁sein
▁live
dal
▁read
▁tha
कर
▁vid
▁رو
▁고
nosti
所以
কে
▁كل
??
带
▁Android
bel
ดี
▁së
▁κ
ቀ
热
ют
素
ime
ቃ
ሽ
į
ታት
የ
▁2006
▁ovat
▁چ
▁mutta
ว
▁Ç
▁look
▁tersebut
間
마
ात
sub
▁sol
მა
▁2000
nis
ሮ
う
ရ
▁کند
可能
▁ප
▁desde
ons
ret
▁jos
በ
จะ
ి
▁personal
ቢ
▁etter
ፈ
her
▁έχει
▁αλλά
▁oyo
Se
照
如果
▁αν
▁Art
ui
▁प
ित
اء
ії
▁mint
建设
kor
▁д
▁י
▁nya
‚
ული
▁casino
▁quando
්
▁Β
员
強
▁week
▁cara
肉
算
▁ሓ
och
座
查
▁They
▁Chi
電
ane
eri
▁uns
관
▁στις
či
▁check
oni
▁fait
▁baru
红
▁ಅ
ను
▁kana
یم
程
য়
▁yon
ју
▁click
fo
▁bad
لا
▁você
▁around
▁giá
▁इस
标
▁ea
▁çok
▁art
¤
步
▁few
▁Jesus
сан
፡፡
य
sam
求
▁qua
男
sch
gel
제
▁đi
▁Des
▁jer
▁cap
▁try
千
kas
ਾਂ
文化
enia
rá
▁při
ice
▁34
▁point
ların
▁City
▁prze
▁pela
nost
Ø
Na
item
ación
ero
▁gia
该
Е
Ф
નો
፤
월
▁kung
Я
微
ቕ
▁John
▁Ó
െ
その
▁გა
미
ys
gal
▁sản
內
http
队
ባ
▁That
だ
େ
▁Media
ua
té
مان
▁yr
ck
In
▁아
▁может
ак
▁Mal
▁وي
nych
▁Î
▁sangat
布
owe
vin
▁Film
記
约
ጠ
ться
▁Š
ሙ
је
現
ᑕ
▁기
通过
▁අ
하
改
▁அ
▁نام
ija
▁pode
ова
▁които
یه
▁faire
ور
nika
▁uku
▁tôi
若
ф
干
ги
▁nhân
No
▁forum
传
න
ల
▁година
ված
▁მო
平台
▁ele
▁nei
▁יש
би
▁nge
股
동
ად
▁nag
▁മ
ним
▁fram
har
▁tom
变
▁used
レ
적인
▁sun
▁wel
ᓂ
▁ዘ
car
▁motor
ām
▁پاکستان
内容
ਕ
▁kata
▁já
▁یه
▁kl
▁але
ných
▁]
▁kes
▁등
ম
ห
ella
江
▁Kar
ก็
ጣ
▁Pi
▁katika
服
че
▁Policy
▁savo
▁wenn
▁ර
野
▁신
ດ
ex
▁side
▁ré
द
▁това
▁ወ
ບ
ert
▁일
ງ
▁Ц
奇
友
▁model
▁גם
ийг
▁سر
▁noi
但是
يد
久
ᒃ
వ
▁sme
十
ovi
▁α
师
ウ
失
▁แต่
▁game
▁የሚ
တ
▁Fa
재
dır
tum
▁siis
阿
▁IN
γ
din
▁Este
ft
▁Ich
ப்
Ч
▁veel
무
产品
TM
▁Л
▁§
▁소
時間
▁mba
從
Н
▁його
▁essere
pen
▁Для
▁αυτό
▁37
▁бы
▁nr
▁Mp
▁02
ст
ties
ん
hat
ਣ
ismo
▁р
ksi
ि
ие
?"
ón
▁Dia
▁tid
선
▁tro
香
也是
ຍ
▁Mac
▁38
ŵ
▁три
по
▁land
‪
▁kaip
ቲ
▁general
党
Ж
▁ዓ
▁tek
▁Mae
ori
▁mundo
▁ham
▁len
ク
ете
【
▁pelo
mine
▁Azərbaycan
▁hele
сы
▁Star
க்
▁Та
ः
▁định
▁cui
ะ
‹
മ
ring
▁يا
▁Super
▁будет
▁اگر
时间
▁ಈ
NG
ս
થી
▁sistem
▁thông
却
ха
ія
실
ба
▁În
▁poate
▁fun
▁može
▁mare
ប
An
ਾ
▁thì
ต
zen
て
។
▁Una
▁الأ
ός
第
校
▁það
ação
aga
tele
▁sport
龙
大学
▁dah
▁April
▁না
▁Islam
ید
▁ase
国际
mba
视
この
木
یت
أ
▁jaar
▁כי
▁Ze
ਤ
në
▁내
ал
kel
▁Ter
▁hos
ները
las
▁kali
▁tsy
že
gr
▁design
▁system
thi
室
لی
▁när
▁hon
▁공
▁USA
mme
▁neu
ロ
▁nella
ર
私
青
字
第一
lé
排
▁юм
조
ɨ
ኣ
ici
rar
▁ح
De
če
ley
▁caso
ras
има
▁чи
大家
研究
И
給
置
iv
së
▁Var
ото
▁semua
▁thế
amente
out
▁kuma
底
▁ба
ется
fr
▁Las
▁edhe
经
하여
ሚ
▁kam
▁US
▁এ
▁skulle
め
ർ
▁уже
▁local
위
▁бу
▁yg
权
▁ç
ក
的人
▁પણ
▁خ
話
tre
kov
▁vad
▁må
cho
ස්
fer
လ
get
“.
art
nar
▁Can
ey
▁л
▁48
▁ነው
▁More
dur
▁ת
▁xa
思
田
▁kod
▁III
声
▁svoje
▁بیر
vy
21
基
unk
гүй
ore
▁porque
▁mor
์
야
▁пры
့
門
▁hoe
ዛ
▁после
投
▁они
▁bol
лик
▁či
▁том
chen
mus
▁euro
ตัว
▁while
ما
uz
ব
ቶ
▁Casino
ora
▁لم
讓
▁telefon
ط
ص
leg
▁How
mana
amp
▁parti
▁ban
ኑ
이다
▁hơn
하게
▁går
ᖅ
▁Γ
▁Park
ラ
▁gr
观
▁вас
注
sia
ted
maan
▁08
不能
呢
▁10.
nem
共
Đ
▁55
uma
▁Ա
當
条
▁jau
tus
ог
限
ୀ
회
▁David
▁heeft
day
▁δια
タ
pro
ນ
政府
▁От
▁կ
▁lagu
▁자
▁always
red
▁sonra
▁aga
qui
tem
τε
rt
▁Հ
▁Non
rà
▁чтобы
hin
▁pay
』
春
望
▁π
તા
▁دارد
▁val
Re
▁если
▁ana
▁Ви
差
钱
▁vas
oo
县
▁قرار
식
kur
依
什么
ල
elor
▁moet
19
eta
▁name
ono
ер
ті
▁MP
推
▁Full
▁são
▁وہ
▁ket
▁mới
▁هاي
▁problema
eren
വ
▁World
ola
rik
▁प्र
彩
波
▁ಬ
八
dra
▁col
▁Apple
キ
ков
ມ
▁hanya
別
▁तर
lat
▁Ok
▁jam
erne
ства
線
ด้วย
▁অ
▁время
▁every
ена
▁03
▁lai
▁번역
▁បាន
其他
项目
自己的
▁radi
▁iPhone
ती
活动
eve
ін
影
▁Τ
▁دي
▁ካብ
jar
▁မ
ト
▁lite
yu
▁क
▁stor
選
ਸ
bal
공
ನ
非常
차
يه
▁SA
ё
▁ამ
▁Auto
uu
체
▁bua
ња
▁ການ
▁마
▁rad
▁06
▁must
板
▁🙂
¬
22
న్
계
▁μου
£
▁mang
沒有
bit
war
▁bal
▁mobil
▁پی
▁هذه
▁2005
ወ
▁big
没
▁OK
如何
▁nama
▁جا
▁Son
▁39
▁ná
▁app
נו
nica
end
Α
ost
▁сам
▁Yo
ර
bet
短
員
▁blev
▁article
▁នៅ
▁res
ਰ
间
▁water
▁себе
付
▁استفاده
▁hợp
▁ко
ु
▁normal
▁Во
今
mal
Ε
<
▁Jak
▁Οι
酒
▁jsem
▁Foto
▁meu
து
▁muito
▁Ju
ገ
▁다
▁hierdie
▁niin
▁nes
▁Af
ण
▁nuo
支
▁Maria
▁fo
▁kama
チ
▁ami
ներ
ും
拍
▁као
▁show
ង
▁̆
tte
▁1)
▁September
ሃ
▁War
sku
密
ит
▁id
학
▁mind
吗
ول
▁below
Л
▁tapi
▁Forum
▁Ü
ല്
ɔ
▁کە
ett
І
▁cookie
қа
证
▁ý
▁including
ede
▁dva
انی
▁old
▁بين
TV
ும்
朝
bat
オ
тэй
▁important
िक
▁partner
▁400
達
▁seus
▁EN
ून
nas
▁jsou
▁نو
連
▁cao
考
ో
▁vos
ля
▁אני
▁(2
ח
સ
ris
▁mult
▁vis
不是
ٹ
▁kai
▁kay
ри
şi
▁pak
▁کرنے
Ш
ени
▁પર
▁list
▁Don
운
命
▁massage
啊
エ
▁Մ
ጻ
▁kuin
▁total
六
▁page
tă
▁лет
▁kontakt
美国
▁უ
破
▁επι
▁trường
ല
假
▁которые
請
ന
▁À
▁05
區
具
kwa
▁disse
60
idad
ام
ใจ
▁oor
ዩ
©
▁Ala
▁puede
nou
don
复
▁cơ
▁Mr
ዊ
▁vet
మ
▁مو
あ
▁Iz
نه
▁sent
any
土
ային
▁Ut
ден
预
▁store
ებს
▁Kon
▁sinh
▁లో
ການ
▁것
ית
▁Ye
ор
당
ĩ
▁give
希望
ନ
经济
▁време
▁hur
ң
려
並
因为
ros
▁description
تی
ip
▁WA
▁due
ர்
ש
ኒ
▁Che
社会
▁42
有限公司
▁York
tä
▁бо
▁vie
▁gaan
即
一個
use
▁Notify
ová
▁상
▁mình
ब
▁کنید
▁Pas
▁შე
往
̱
▁£
▁sans
▁Av
▁temps
▁better
nti
nut
▁11.
▁baik
季
问
▁есть
▁Vor
aren
▁pdf
վել
හ
▁09
▁Vis
▁sto
▁الذي
▁שה
▁PC
源
▁ص
ách
▁bat
ità
▁red
方法
▁être
▁diri
▁Ч
▁kor
▁joka
整
▁ᐊ
ыг
Ÿ
iko
▁bus
ство
▁روز
▁аб
▁два
ך
▁lý
▁ano
段
▁onder
界
▁geen
like
ത്
ções
▁ҳам
ፋ
▁dann
宝
▁Real
产
▁आप
▁просто
▁cas
ಗೆ
シ
vet
▁gali
dən
～
合作
几
▁ଅ
▁aka
果
ಗಳು
▁2)
▁fast
調
▁Sur
نی
mon
ech
च्या
gang
▁Not
気
▁sed
pis
▁days
skih
存
模
സ്
▁très
kt
berg
▁Из
▁ग
ல்
ους
級
▁qe
▁1000
▁hard
ศ
ກ
▁gir
స్
▁προ
▁bw
▁عليه
క
కి
▁ήταν
▁czy
▁Met
治
毛
▁does
거
Ð
せ
▁ça
▁ज
▁Min
▁andere
të
▁Tri
運
圖
▁માટે
tul
▁Sport
▁tau
▁aki
▁также
▁sure
ಕ
▁Red
▁wordt
cat
vas
▁extra
▁она
要求
▁조
▁ప
博
тер
商品
▁Was
▁정
Η
价
▁ime
▁buat
▁համար
▁bak
eur
تا
ડ
▁hu
යේ
▁ਅਤੇ
▁buna
ୁ
ዎ
这些
▁čo
Le
▁kamu
ix
▁साथ
ande
▁habe
иб
▁там
婚
▁Air
යක්
▁details
×
ဝ
▁چه
به
''
▁него
▁آپ
▁unter
ʋ
▁kap
цы
!"
▁date
ست
▁acest
til
▁پیش
hen
મ
▁cele
关
某
难
▁momento
▁Europa
約
ทาง
▁cách
联
ної
물
副
▁ker
▁pel
▁même
▁خان
ዲ
คน
冷
ை
▁modo
▁peut
μα
▁Read
など
居
▁mund
▁через
osti
lis
▁ምስ
▁sana
所有
▁04
합니다
▁uw
▁another
▁godt
▁Euro
▁thu
▁Со
▁mua
双
试
juk
int
zioni
▁대한
必
▁75
▁ned
▁st
مه
▁Č
▁idea
▁вам
▁>>
▁été
▁Ì
Ц
▁años
taan
完
け
개
gh
▁SE
▁Yang
游戏
▁says
▁ക
▁더
ኛ
ją
NA
نگ
▁suka
르
▁primer
입니다
ሎ
政
▁olla
▁điều
▁minden
▁билан
▁tua
▁која
bb
歌
▁bor
ా
▁còn
ott
▁story
▁быть
▁aussi
▁mest
▁Ale
anti
▁DA
mann
▁November
ير
ep
▁next
▁స
专
Ŭ
开始
▁Kas
列
ร
▁því
▁nên
▁thing
tro
anda
▁ти
ES
▁secara
▁durante
ई
▁Nem
▁treba
▁їх
تر
▁xe
يم
找
▁Tr
ग
▁each
ое
组
还是
까지
▁قبل
▁Sin
亚
▁gar
ও
କ
类
우
ન
▁Бу
▁When
ᒥ
念
▁dom
▁feel
ins
▁క
▁연
套
します
방
osa
εί
ează
九
iri
▁azt
待
2018
യും
▁thời
务
тар
▁İ
출
▁nói
▁tv
▁despre
温
氣
во
▁apie
ness
ळ
ு
sson
知道
▁לי
▁buvo
▁Ob
ál
연
ซ
発
ք
23
▁đồng
ική
▁07
▁એક
▁പ
▁yeni
qu
▁thực
実
▁different
post
ido
▁Wir
▁ት
▁gibi
▁무
ған
▁ora
▁غ
▁bank
ciones
▁hebben
ض
▁اي
yen
eli
▁haar
▁siden
なら
▁Cookie
oje
▁immer
▁Så
owych
▁autor
▁tipo
ms
ೆ
▁family
ವ
ጸ
pat
ू
ム
急
我的
▁باید
며
sı
▁ह
▁можна
들이
▁مورد
▁અ
▁jeho
▁tutti
▁ktoré
退
まで
▁tim
ही
ism
每
▁jej
টি
▁2004
ούς
造
cs
成为
nice
ស
π
сти
ሲ
▁hình
▁سو
▁ಕ
ď
नी
數
▁х
ης
▁På
▁gang
▁DO
游
▁both
▁vom
▁काम
ovať
rit
ሞ
ým
pre
▁rok
群
▁65
ман
▁case
▁zaman
nye
▁היא
▁dir
▁करने
夏
▁programa
▁cấp
▁Sen
ob
质
▁lan
▁PM
▁ég
パ
▁Gi
▁Til
▁vers
▁jadi
▁aur
▁fue
વા
ves
网络
bil
▁sai
하기
ף
ኻ
ад
zer
▁õ
▁Car
▁εκ
ミ
科技
ian
質
▁очень
iu
ese
ło
ham
富
導
▁ଓ
27
▁Nga
▁nun
▁Movie
目前
▁॥
far
▁(4)
▁nke
ලා
lak
▁اما
▁nå
eng
οι
bus
▁waar
여
sar
▁Bank
▁već
▁Din
па
ᖓ
ನ್
▁الت
ած
▁estas
▁flere
„
ೂ
▁ᐱ
▁12.
▁schon
▁song
皮
ray
别
▁تم
ਬ
ג
▁તે
बाट
衣
▁phát
iť
▁Як
ného
▁සහ
射
系
警
系统
▁sí
▁vita
▁trans
lit
▁모
▁الا
کی
药
▁із
▁karena
▁wurde
▁Ban
利用
一些
▁Cha
▁över
▁Trump
▁nagy
over
nn
andi
承
▁च
▁κατά
现在
DE
▁მე
▁maa
▁tanto
洗
▁право
dia
▁anni
ži
▁jó
ዎች
php
▁Paris
دی
▁sehr
ば
材
▁masih
▁එක
▁Au
▁rất
▁vin
牌
▁without
İ
▁Plan
している
ии
▁school
▁atas
▁Day
nta
uta
asa
tri
ትን
ија
2017
▁आज
נה
▁leur
穿
▁Isi
sto
っ
호
▁kg
▁Vol
办
ಕ್ಕೆ
ŝ
▁●
än
স
ish
▁kind
can
▁might
▁IT
este
сь
▁agree
▁AM
▁સ
▁sang
▁sp
lag
Ma
視頻
▁icon
ド
hy
▁ger
▁44
▁AL
班
にも
ह
det
▁Wie
mel
תי
ಗಳ
rii
ס
東
ини
▁재
▁÷
▁안
aca
ナ
▁구
▁सा
▁leg
▁ಮತ್ತು
▁VI
ndi
way
▁também
▁этом
ি
▁කර
xa
连
▁Wi
ier
部分
優
▁جن
▁স
ẹ
儿
致
▁ක
方式
▁ये
运
▁didn
▁hasta
▁See
▁France
له
ਦ
ça
ಮ
CE
오
안
工程
福
ዮ
▁ал
ෝ
Ա
维
云
Σ
▁nje
▁э
ത
▁cả
▁Па
▁2020
cer
een
adi
▁sekä
лари
▁también
師
▁MA
▁Cara
張
▁ଆ
▁మ
▁dok
सी
▁जा
▁mid
imin
cc
▁ক
▁sử
視
¢
▁usa
わ
kh
▁Que
夫
ουμε
▁ک
网站
▁bod
▁kale
▁poder
熱
▁alles
?!
▁кои
▁çox
vor
▁original
▁તો
jas
▁وت
Ñ
iste
mento
มาก
tay
▁vam
▁pris
费
ගේ
ase
▁þ
▁Privacy
▁Ex
وه
ím
urile
▁mam
報
до
领
▁både
▁hor
▁किया
代表
ල්
stä
變
▁found
拿
▁Som
▁text
们
▁ces
城市
均
▁도
ности
적으로
▁ការ
tr
▁قال
▁KA
jes
▁NO
边
▁kya
▁August
ര
лық
▁heb
▁120
▁اند
▁Radio
▁però
ការ
▁दिन
▁iar
▁bé
▁Pour
ക
▁weer
▁भएको
▁pen
ləri
tud
▁xwe
▁tiene
▁--
话
▁té
▁stop
▁불
▁kunne
▁där
▁Pod
Ի
▁why
-1
por
兩
裡
看到
▁vill
▁250
▁ስ
▁godina
容
▁mari
ania
▁viên
▁star
▁אם
▁away
▁ہی
▁Eu
ሻ
Ɛ
▁ме
ɣ
び
▁صورت
▁선
▁goed
相关
▁2003
易
▁ક
క్
▁하
作为
よ
▁Next
Ka
▁Plus
▁které
bor
Æ
pur
▁року
▁̄
▁сайт
▁ეს
▁Malaysia
ings
▁vụ
▁malo
80
ој
ген
ено
aus
gas
▁వ
ದಲ್ಲಿ
端
能力
▁Tan
ပါ
▁የተ
ਟ
論
들
ئ
ilo
買
▁March
▁nada
οί
▁hit
ance
▁Ú
wu
tori
ע
NE
▁नि
▁pl
ám
من
▁ма
▁यह
ዱ
ዚ
▁σ
▁მ
▁Hindi
▁mine
▁thi
▁ukuthi
▁daar
▁Так
iro
威
ونو
Ja
ాలు
▁importante
▁Pan
Þ
▁वि
በት
گی
▁Ê
lega
電影
ούν
▁tego
બ
曲
草
黄
ኡ
▁open
ges
▁još
▁Hy
dam
馬
▁था
▁diese
▁akka
▁loo
না
28
▁high
SA
委
▁Τα
▁41
れ
▁sia
นั้น
ዶ
put
▁할
ovat
菜
▁때
▁nào
▁אל
▁dire
▁ያ
ника
يا
dem
한다
▁Ap
▁wi
▁Aku
▁ע
▁eru
▁cuando
tim
▁อ
▁amet
▁ପ
▁нам
▁וב
餐
效
nega
▁ز
მ
粉
乐
ც
ich
▁리뷰
apa
▁gün
ន
▁Barcelona
调
all
▁lei
▁č
▁ໃນ
▁ಹ
anna
▁dolor
▁ਤੋਂ
ೇ
▁yer
▁badan
▁Microsoft
▁gör
▁ه
種
ሱ
▁То
▁Если
생
ติ
▁''
ité
sid
▁미
يت
amo
▁Best
26
▁mah
▁Ako
▁digital
▁standard
▁persona
rak
品牌
▁hindi
▁Все
రు
▁ማ
▁jā
▁Aus
▁kwe
官
ება
题
節
ونه
dı
含
守
ني
▁nova
▁nghiệp
▁Ez
▁ሲ
▁uso
哥
atu
ard
වා
▁question
ša
▁भ
90
ком
▁barn
▁nii
ικό
▁ol
养
▁Å
▁ከም
lich
▁Live
pp
以上
유
anga
ర్
痛
值
▁ре
▁кон
▁НА
pal
▁Een
aria
▁asi
Al
▁सु
試
▁wieder
▁bas
endo
▁ì
내
ָ
▁between
▁କ
ña
▁ville
던
ín
健康
▁Ei
▁kal
ыя
导
学生
▁sendiri
▁وجود
jem
例
▁ingen
ᓯ
英
▁hành
ετε
职
▁해
▁gå
▁¡
▁말
ء
olo
usi
河
ល
▁след
人的
ában
▁biết
▁ανα
에는
印
叫
而且
▁kwi
▁až
중
志
lige
▁tsa
▁ഈ
▁Ru
ሓ
El
గ
▁հետ
อยู่
ive
▁partir
▁ਵਿੱਚ
એ
▁kimi
▁भारत
▁anos
▁kadar
포
iert
▁nó
▁Oo
غ
▁Auf
▁մի
ฟ
▁material
▁since
增
мі
▁ಮ
▁এই
owa
rah
▁tres
語
ове
▁ም
sis
户
問題
▁مه
▁ως
▁Wat
▁Φ
▁байгаа
▁team
控
▁tế
▁гэта
苦
ய
tir
ਤੇ
追
▁kau
▁zona
他的
ቆ
倒
▁бор
▁43
▁लागि
ដ
▁degli
▁lugar
▁album
▁bili
ary
ait
▁Ş
หน้า
▁יותר
ەوە
ث
▁συν
ּ
票
▁हे
▁University
持
▁nhưng
▁tư
▁ಸ
紧
ין
▁če
եց
▁trebuie
ブ
sem
中的
▁ආ
__
▁장
▁ஒரு
▁Zo
▁இ
▁نمی
ées
▁تک
▁mwa
▁tous
买
▁گ
թ
ଲ
▁raha
▁saja
cio
ування
▁xuất
▁trình
▁Fill
се
学校
Li
▁той
▁kort
arna
▁akkor
ell
ль
ას
형
ieren
▁waa
행
▁cùng
sy
ić
經
医
▁هي
ე
▁yu
ใหม่
에게
inin
▁rumah
▁radio
迷
七
ering
ສ
▁سره
hang
发现
育
Ş
▁Kor
晚
疑
▁ସ
문
▁مت
▁fare
▁fine
▁более
全国
女性
▁Ко
▁sito
▁Khan
直接
▁contact
▁към
€
▁ш
极
▁mein
ու
ᓕ
nni
▁หรือ
nju
▁Black
tet
▁AS
▁mogu
500
曾
jú
‰
▁gibt
则
計
▁рас
▁Vy
▁EL
▁Untuk
win
력
ኝ
orum
▁lehet
су
▁vý
▁Test
ius
▁հ
ું
▁General
ジ
▁mich
▁bem
▁PA
▁È
ып
▁wedi
less
『
hr
TE
▁тут
ր
isme
ᑎ
크
▁Comments
med
eme
user
▁1-
▁ê
バ
യുടെ
ува
▁ਨਾਲ
阳
▁besar
政策
▁meng
okat
登
▁hacer
▁tā
▁tiek
▁Land
▁será
ં
▁еще
▁۔
վում
▁ම
▁buhok
ši
▁notre
200
听
분
▁won
ünk
▁Dios
ага
▁Ս
▁ће
▁National
kala
▁동
stra
ൽ
mit
▁business
▁ਕਿ
ák
श
lam
▁ஆ
ques
▁ਤੇ
eke
រ
Π
▁mula
▁ግን
ర
▁Fi
远
•
aku
創
▁بل
lon
▁`
▁nyt
▁нај
▁ਸ
▁суд
க்க
結
▁harus
▁바
▁đang
▁Bet
▁ᐃ
▁meget
▁ሕ
▁íà
▁mama
▁13.
ዓ
elo
▁ты
ными
▁ਲਈ
ях
余
ጎ
组织
一次
ු
▁saj
▁hulle
▁ස
▁มี
雨
ળ
انه
aya
ます
记
▁حال
ový
금
iden
▁hvis
支持
▁Ana
▁سي
▁ala
อ
兒
નું
▁सं
ᕐ
▁noen
▁då
ful
ող
영
▁mora
▁frá
she
▁Und
▁năng
▁done
▁cosa
tii
▁عمل
ே
留
應
▁них
দ
▁ее
▁2-
▁বা
eva
dom
بر
▁был
▁ที่
▁Vo
▁khác
▁ਆ
▁гэж
として
aha
派
time
沒
▁India
设计
评
oso
တာ
今年
ൂ
▁можете
▁App
学习
법
▁۾
skog
রা
▁जो
▁Χ
jon
ọ
heid
ps
dat
log
▁seorang
vit
χ
▁CD
lə
▁kerana
▁saa
▁Ini
▁نہ
▁kang
▁wil
ಿ
SE
▁Але
▁janë
▁theo
စ
ট
▁cam
▁popular
ပ
ק
▁kunnen
▁kinh
▁mesmo
ča
▁тому
тан
▁ທີ່
▁đây
يل
дар
▁ሰ
▁день
▁cần
enda
̀
▁Ə
▁үшін
▁Mat
▁ndi
േ
▁vores
▁गर्न
▁pasi
▁projekt
프
inu
▁Ir
▁thought
▁२
▁eri
手机
gun
업
デ
到了
간
▁prie
lerin
eze
▁Sy
▁گه
▁где
▁review
▁Mon
角
▁shumë
▁ante
hal
▁With
oi
▁00
▁Israel
▁chúng
▁እቲ
▁ever
த்
pad
ಹ
ły
很多
ելու
री
▁gal
box
▁zbog
▁które
▁Club
▁laga
▁UN
vid
▁support
erna
只是
川
▁pol
pt
▁деп
自然
▁khách
▁ئەو
▁پس
屋
▁Gratis
▁وقت
了解
止
▁मा
To
Э
ଣ
▁Это
▁ඇති
▁bag
터
▁sense
▁ε
▁natural
▁mala
▁Sha
▁ବି
nici
▁mens
▁छन्
税
▁BE
▁ZA
▁todas
▁Ten
▁før
母
▁special
▁Sun
▁dalla
▁tej
親
yon
▁proces
ката
孩子
▁Santa
ast
▁Dil
ische
ので
尼
จ
▁BA
zel
ಾ
dik
ټ
list
作品
ssä
▁run
▁세
ux
ְ
တဲ့
難
▁BBC
ූ
喜
▁وی
isti
▁br
ลง
▁ml
ከ
ต่อ
▁fie
投资
▁tylko
▁Play
▁maak
minen
▁siya
境
mek
larının
▁mun
▁ہیں۔
▁modern
ಲ್
▁години
▁BiH
▁بین
rang
武
▁کم
iki
ń
▁bay
你的
larını
▁Click
▁dana
▁εν
Ś
▁46
任何
服務
▁lên
团
▁iş
ビ
现
ив
Me
▁fara
▁ذلك
的是
▁bukan
יה
க்கு
चा
kun
եր
▁طرح
մ
ила
▁когда
ความ
激
ˆ
▁só
via
写
▁phẩm
核
▁może
አ
▁треба
یر
▁ഇ
▁उ
创
▁samt
eu
หรือ
▁molt
▁hati
чу
▁deux
最新
hoz
레
画
航
ック
sie
తో
▁há
sim
▁mg
审
▁mae
▁Como
▁ore
▁Program
▁دست
雪
▁bine
Ő
▁Ñ
▁ev
ват
▁play
ությունը
處
▁onze
▁سایت
Sa
ガ
▁14.
▁Tai
▁mano
cin
▁manera
Be
ml
完成
▁máy
▁ג
▁49
▁Pen
▁Ž
ви
ാ
▁Об
ente
tok
▁ia
ো
▁Zu
▁성
▁Martin
aire
休
▁إن
充
ını
ίας
▁Als
▁ove
แบบ
ٍ
모
▁possible
▁Love
ingen
질
lama
ଙ୍କ
▁ומ
lara
▁бір
▁თუ
lv
▁Pu
▁día
ない
cal
▁menos
沙
▁Inc
▁nhận
▁keep
乳
▁15.
▁ක්
ตา
北京
消
▁reading
▁64
▁तथा
主要
招
ທີ່
注意
ному
▁multe
ံ
▁እንደ
še
თა
owy
▁China
▁uses
Ե
cher
▁3-
ια
▁bwa
Address
▁past
▁ô
dr
▁jika
▁mini
iin
▁gre
包括
▁lor
批
▁Cho
сон
ੂ
▁ത
奖
II
▁Ur
▁single
▁Kun
▁pur
će
▁prema
из
▁ඇ
taa
▁suo
▁αυτή
▁Music
ँ
▁str
چ
▁tips
ち
裝
vik
停
▁ਸਿੰਘ
▁isang
牛
▁스
pun
▁거
▁Ai
ు
же
售
▁Tre
行业
ᐅ
▁kis
양
ams
▁어
▁علي
▁nej
inių
▁Hal
▁സ
▁تمام
▁Tor
人员
▁ide
жа
ರ್
tura
▁Με
街
น้ํา
▁fall
▁hội
pin
▁Sant
▁Nyasaye
▁første
▁loro
70
▁senza
awa
▁change
▁έχουν
返
▁number
▁tip
こ
қ
alla
華
問
azione
xi
▁자동
idade
▁deur
kah
¥
pri
ям
▁news
▁год
施
▁онлайн
∞
▁dua
▁ਅ
GB
▁views
▁перед
▁hij
▁Kur
▁gut
普
▁Če
oli
ત
▁elle
▁though
務
势
เลย
▁بار
▁ngu
▁esse
▁Social
▁Anna
ዘ
▁fè
급
▁até
届
rez
象
ෙ
不要
ทํา
▁trước
ɩ
職
▁mert
▁600
лы
▁ਬ
ຂອງ
वर
▁이용
э
▁grad
▁jih
▁June
▁Up
▁yet
▁Ram
ట్
兴
티
▁ते
̃
▁ky
▁была
yar
▁JA
▁ukuba
▁меня
RE
▁Ah
创新
hed
▁Са
MP
ություն
▁mobile
▁2018.
▁lista
▁Tur
▁Ng
dis
供
▁hot
サ
zan
Ğ
bra
amento
▁välja
jet
경
ré
ຣ
▁beberapa
dd
美女
上的
▁Eesti
tia
▁olyan
▁ជា
▁Del
▁وا
دار
▁원
▁CO
▁idi
▁eo
की
ungen
▁type
▁vår
ೋ
▁January
▁حکومت
▁bộ
▁හා
▁Oh
▁anu
▁Ä
爆
▁ljudi
ボ
組
า
▁simple
▁गर्ने
ニ
▁maj
cí
rio
रा
▁էր
ování
py
罗
▁വി
Ba
dk
া
▁mijn
▁perlu
▁один
▁hvordan
▁course
语
thu
▁nás
▁tự
▁ans
king
同时
▁anh
▁aquest
▁Roma
ида
▁ન
най
▁país
飞
увати
▁کشور
▁การ
fin
▁three
园
ről
km
▁šo
▁tad
ዉ
▁š
pet
朋友
▁ohne
tag
▁esi
▁daripada
▁όπως
▁új
▁Design
kou
▁mycket
ા
ᒋ
ಸ್
▁후
اد
▁serta
▁단
입
▁please
▁ఎ
ถึง
ดู
売
▁حقوق
rem
▁tay
▁19.
▁ngo
ями
ových
▁algo
eti
樂
த்த
▁Fe
▁વ
▁dân
US
វ
ון
▁Nord
▁ใน
ave
sak
ಲ
eket
▁իր
判
യില്
▁Mor
。」
ру
▁က
ување
▁před
▁실
ప
▁Paul
▁47
▁ወደ
▁Wy
▁52
!)
Ө
वा
ᐃ
ló
▁fact
茶
▁мне
اب
▁IV
▁sammen
ම්
▁دیگر
▁porta
参加
▁gì
▁timp
▁করে
▁ம
一直
▁Now
oko
▁ዝተ
さん
示
دي
stand
▁Mark
▁Sol
॥
ハ
剧
▁minutes
▁против
റ
幾
分析
港
dh
▁Brasil
▁ስለ
▁lượng
yang
▁hann
兰
▁пад
▁чем
ോ
环境
▁rasa
부터
ement
xe
یں
tina
根
SI
全球
ೀ
kka
確
ա
▁반
▁എന്ന
▁isso
ból
▁state
dag
▁2002
▁toate
▁ਇਸ
▁රී
▁її
▁hanno
争
▁nok
ኖ
चे
香港
лись
▁ره
▁today
ᒪ
▁Ι
▁ᐅ
ду
▁bảo
uju
▁Comment
▁już
syon
▁також
モ
▁све
▁этого
▁اول
▁eye
2016
▁dobro
▁marketing
ટ
▁Dis
rie
或者
ID
不同
▁개
had
▁več
▁\
ario
Fi
▁én
hle
▁එ
▁osa
ön
מה
々
wy
▁ବ
專
▁tij
▁način
▁kara
▁బ
▁ול
▁Srbije
▁International
ien
▁πολύ
▁ст
层
ub
類
อย่าง
▁۲
ας
▁51
▁West
ود
▁line
hez
,“
记者
ਗ
▁在
ість
▁جس
▁น
mor
▁نیز
▁movie
▁bonus
▁σου
▁Tags
▁سن
▁β
IN
一般
ώ
▁Mais
▁keine
tun
tje
ula
▁seda
▁tác
▁plasing
第二
用户
▁chủ
ум
ët
▁nap
লে
ــ
adas
க
ako
重要
imit
keun
▁Tag
nam
”。
▁estar
借
据
ণ
▁ту
mur
▁mask
權
▁Reply
▁enn
▁Kim
ces
ින්
讲
结
bon
▁ი
Ы
▁він
inta
1⁄2
▁ა
wr
▁werk
oc
▁강
▁બ
▁October
▁Oromoo
▁Page
दा
ッ
mg
ツ
ထ
とか
▁allt
▁donde
單
در
ன
救
ଳ
▁sila
maa
细
▁food
종
帶
▁merupakan
but
▁Ol
幕
kami
▁igen
ij
йте
sion
မှာ
▁през
▁Sau
▁Kom
▁July
ị
▁Կ
▁TO
伤
哪
▁ఒక
▁enough
ී
ម
怎么
Ə
だけ
▁dieser
ικά
▁ס
ске
카
zon
ጅ
▁RE
▁több
ది
▁tentang
ట
ils
ネ
▁Madrid
ować
令
ṛ
▁nego
Ů
inde
▁pop
互
▁bed
noj
amos
▁کرده
ใช้
完全
Ŷ
的时候
▁call
▁kul
▁lá
▁IP
ᕕ
▁(5)
જ
▁Just
▁wu
info
▁اپنے
ไทย
Ha
속
一下
▁tiempo
권
lh
اس
▁December
▁order
ஸ்
▁Sub
aṃ
▁toàn
▁গ
idi
...”
чы
▁ដែល
▁global
plan
port
▁jog
ST
▁él
▁17.
中央
통
เพื่อ
▁배
KA
▁Leu
MA
▁bằng
▁spre
纪
▁đ
人民
ibus
▁United
▁MB
▁ona
▁mejor
ဖ
ច
▁nema
▁gebruik
▁bot
ator
ute
其中
▁rest
ची
▁Bur
具有
产业
ሌ
▁Он
▁Dette
כ
リー
▁đối
视频
玉
▁위해
▁proti
ŭ
▁baba
▁яго
▁°
▁job
▁multi
▁fri
eb
ቂ
од
より
лік
▁membuat
వి
满
▁život
▁ipsum
ख
ğ
生产
▁kalau
▁mee
▁अपने
лер
ян
lim
▁Mer
▁کنند
▁tras
總
▁hiệu
▁gian
▁dagiti
타
▁novo
▁شهر
Ƶ
คุณ
离
专业
ног
▁경우
▁김
▁Life
按
圖片
▁16.
প
▁Esta
்
▁win
▁ха
ады
nk
ମ
ME
▁came
esc
ถ
ቁ
tí
ਪ
▁لی
▁প
スト
▁pet
▁Une
31
▁taj
▁lama
いた
▁pole
stad
01
▁address
▁Jos
ról
하지
▁His
লা
ίες
▁át
вер
▁unui
▁Address
▁Peter
LE
▁тем
▁नाही
টা
▁salah
En
▁ise
aacute
ରୁ
規
▁tutto
▁gode
▁أي
▁Nacional
mes
лю
存在
▁Main
२
吉
usta
ీ
▁tag
inės
ното
▁power
▁niya
对于
जी
▁kol
▁Ма
ୟ
lem
nä
▁Inter
▁ደ
istä
▁године
rk
▁foarte
▁ساتھ
pit
ской
▁molto
ulu
ؤ
▁така
▁Qu
▁Қазақстан
参
▁add
stu
▁second
▁actually
ט
▁hans
ฺ
иш
▁Ama
▁LE
▁ezi
▁vì
▁bản
ᑭ
▁seva
bur
▁kết
лан
▁mail
▁bola
独
降
▁PS
eno
速
tų
▁54
▁body
▁Over
▁night
-2
妹
ප
▁Ò
▁English
▁kim
▁第
ttu
▁porno
▁буде
▁questa
▁Türkiye
kaan
래
▁firma
jos
▁между
冰
▁వి
OS
▁Де
អ
žu
▁tun
精神
itu
fra
งาน
ico
▁sulla
်
▁Ay
▁kanssa
ય
لو
bl
anta
tari
sat
నే
▁February
sp
▁ditt
ຂ
▁vain
ጡ
่
▁pře
セ
▁PER
сі
▁היה
▁अब
gg
تے
▁mem
▁Hu
▁doing
陈
ení
▁सरकार
ია
▁даже
ador
▁3)
▁ని
երի
纳
raz
oma
▁Kontakt
lek
▁Қ
ፅ
29
นา
▁hade
Ne
ੋ
方面
버
star
▁Service
▁туралы
▁legal
▁בין
▁фото
▁אבל
▁خبر
选择
دان
▁money
▁bhi
良
▁litt
para
▁sampai
Ο
▁Wo
兵
▁bur
▁Jehova
ත
出来
త
▁nda
▁বি
▁hva
▁small
▁شرکت
▁എ
45
루
▁ຂອງ
required
▁hadde
▁Let
pol
▁2017.
AL
Υ
▁dine
nji
လာ
▁finns
ár
▁России
▁vse
test
▁روی
▁μ
▁ry
ous
▁också
یب
▁escort
▁hope
များ
▁điểm
▁Tom
???
▁ïî
▁Samsung
▁Quốc
zar
货
ਰੀ
ಲು
ются
镇
สําหรับ
▁რა
▁Michael
▁manual
▁Here
▁غير
ਜ
实现
▁घर
▁Norge
▁ол
永
dim
▁උ
▁dha
ەی
Κ
▁ব
▁head
▁πιο
ٰ
से
▁vs
▁gel
zia
ᔭ
▁ਕਰ
lia
ौ
ük
▁2001
▁Qui
能够
▁گفت
ంగా
gy
llä
▁Hà
Ta
▁grup
या
mai
▁آنها
ᐊ
▁گل
▁jedan
рт
vol
က္
▁elit
▁music
wal
▁여
▁тоа
▁હ
ኸ
▁taip
▁later
▁Hier
▁اللہ
▁pār
▁having
▁Come
▁भने
tat
▁sala
वि
断
tter
▁mei
▁قد
分享
ಡ
gmail
▁doar
при
跑
▁tiếp
म्
▁jen
▁times
▁follow
ි
金融
gon
গ
▁tie
▁sok
换
背
▁hafa
▁điện
▁mau
▁mono
pra
ės
▁த
只有
▁plat
▁mặt
هاي
▁believe
察
گ
松
▁LLC
▁serie
▁awọn
tai
關
▁Yehova
▁دە
▁room
▁ihr
sche
▁bardzo
kii
▁ainda
击
uj
ગ
▁ਮ
盛
▁който
▁teh
▁hag
▁kus
▁peu
▁Casa
▁así
▁Vous
ved
▁thai
ସ
гийн
遇
35
聯
▁sido
▁آهي
更多
▁پا
▁antes
ată
功能
▁left
营
ครับ
usa
rán
▁ông
厂
▁ल
▁AR
机构
滿
▁giới
▁এক
▁በመ
ove
設
ယ
▁Max
▁ven
▁გამო
nl
▁لیے
▁personas
ፊ
楼
sur
▁pret
▁sz
Si
项
lum
▁tahu
随
▁wana
戰
۲
▁Գ
ில்
Mo
▁сайта
ڻ
▁بد
▁который
▁Kal
む
감
▁ጥ
Ě
▁dintre
▁historia
怕
▁ក្នុង
因此
ਹ
▁tse
ojnë
▁пера
广
dro
CH
▁μπορεί
▁version
提高
旅游
码
Vi
▁tele
ź
⁄
یا
၏
ହ
因為
JE
▁tốt
ᑯ
وم
▁Hot
▁quả
▁centro
▁бойынша
bas
ule
nun
▁ست
국
반
▁tell
▁ਜ
ବ
tv
ವನ್ನು
ско
bes
▁ih
监
Γ
▁क्या
▁sitten
需
▁Ger
▁Sir
फ
▁Мы
ници
nj
▁thị
皇
jte
予
pak
rad
บ้าน
▁تھا
ivo
्
▁okwa
▁futhi
活動
ique
ണ
ထား
▁went
Bu
▁thiết
তা
▁nostra
▁ପାଇଁ
▁চ
▁London
▁মা
▁عنوان
토
▁ए
▁ነ
宁
run
lay
▁nahi
▁발
産
▁ere
▁pare
тың
▁남
ா
점
▁ख
▁suis
▁ugu
ീ
▁THE
ské
抗
kus
▁我
▁Tha
▁transport
▁chất
▁Gu
▁thấy
ました
▁Sar
κ
uka
▁against
▁fet
교
iza
NO
▁មាន
▁អ
▁Mag
毒
▁న
ผู้
▁sine
▁모든
▁مردم
决
▁गरेको
▁ସେ
bh
ээр
▁یو
یی
▁ග
那么
▁VE
▁ولا
owej
ская
▁53
▁szerint
പ്പ
息
३
▁ideal
ಗಳನ್ನು
jam
压
GE
ရေး
▁loc
non
ения
aux
箱
▁ring
▁độ
正在
▁ਨ
▁देश
▁bata
情况
テ
▁nám
▁Us
வ
▁rol
ॅ
jal
▁SI
mise
dha
▁کسی
PS
▁прав
▁Kwa
▁leh
▁experience
▁20.
гі
stvo
▁Zeit
▁انجام
▁svoj
▁Site
cion
计
▁tính
ať
购
00
▁wan
يات
▁ktorý
▁gas
ence
聚
聲
nú
300
▁kde
▁دور
一起
則
魔
ville
这种
▁group
▁हा
▁Sp
▁tình
▁گیا
▁امام
移
▁frem
्या
▁ውስጥ
skom
▁한국
▁Lietuvos
也不
ाई
▁process
sol
▁›
▁gw
▁බව
ną
રી
name
ᓱ
іп
▁veya
▁House
iau
▁ซึ่ง
лась
▁Tra
▁నా
mbi
▁nakon
▁호텔
呼
▁fog
ill
▁افغانستان
▁طرف
լ
ând
▁કરી
适
류
▁ന
кой
ови
ေ
這個
▁Website
uda
ının
園
сэн
ሁ
島
▁grand
▁cat
散
kr
▁color
▁memang
assa
▁onde
yə
▁โดย
▁tempat
elt
▁continuing
▁کان
sins
WE
▁így
▁كار
▁mia
▁tạo
luk
▁Blogger
ตาม
▁위
▁ary
▁које
ví
▁moi
ալ
▁khu
▁ח
ຊ
▁Tel
▁bro
ре
▁ä
wn
▁eða
▁لئے
ská
▁ד
▁ovo
▁خو
▁Ми
▁gra
ങ്ങള്
▁noe
▁alta
▁വ
피
▁ilk
▁Sal
んだ
kam
▁doesn
▁stato
ᓗ
▁svar
萬
ეს
告
▁श
がある
▁وأ
ဂ
▁doanh
▁tâm
ַ
▁Create
▁pedig
▁Festival
▁dina
▁ಪ
▁людей
▁Ал
▁живот
議
डी
çi
▁others
▁Ã
▁លោក
▁تی
▁απ
备
▁menggunakan
▁ໄດ້
▁American
ként
▁iga
석
합
▁bana
发生
પ
▁ন
gur
▁ম
▁πρέπει
ियों
▁народ
bile
▁ப
▁ਕੇ
▁women
▁분
邊
▁án
▁dunia
▁Big
▁moun
交易
▁pois
▁שמ
今天
▁ան
▁غیر
บน
▁Cum
▁!!
▁nin
傳
mata
το
▁беше
轉
▁kir
还有
谈
へ
▁children
▁tới
▁poco
▁tho
▁Denne
这样
▁Italia
▁Saint
esi
ED
▁работы
bir
https
様
sini
ノ
▁î
较
▁hệ
补
▁この
▁מו
▁gara
ση
index
▁18.
ney
▁Bei
▁गया
เ
▁180
▁няма
▁همه
천
▁रहे
ţii
▁Kristo
IT
▁able
ony
▁empresa
৮
ستان
▁format
▁није
▁Afrika
▁folk
▁ple
之后
▁doen
▁bilder
▁looking
▁Bor
▁Anti
▁bán
▁nay
▁බ
bare
ве
▁κι
▁нужно
▁ው
သော
▁spa
▁دیا
▁진
▁داد
▁đề
▁baka
京
▁után
PC
▁га
ପ
hla
PE
▁someone
▁triển
▁గ
▁част
εται
▁една
露
▁profil
ace
▁ប
▁करें
▁house
▁হ
▁сте
ಣ
▁بي
酒店
▁56
嗎
vir
▁until
വും
▁فى
anie
——
▁باز
▁cannot
▁principal
▁არა
▁viel
ፉ
グ
▁UK
ug
fan
▁។
▁From
nce
▁මම
▁Previous
▁liv
▁fazer
升
▁저
વ
▁lalu
▁شو
side
▁tài
▁راه
適
шы
▁rá
架
▁eng
辦
▁מי
▁qo
ност
▁vám
▁нема
奥
似
▁Nous
▁ድማ
甚至
gue
ság
▁Amazon
ಸ
▁può
▁dus
MI
认为
▁مختلف
▁qual
គ
essa
▁stand
▁دانلود
ା
▁Fu
ře
ezi
▁пов
nden
▁aja
സ
▁Bay
▁AB
全面
▁κατα
▁нет
▁Բ
▁वर्ष
๊
title
ында
▁בה
▁เป็น
尽
습니다
▁Inn
▁iyi
лся
とは
杀
sun
יים
▁human
ოს
심
သူ
टी
▁För
▁th
miş
sky
▁Send
zie
nego
ᓇ
▁makan
▁Tar
▁Ada
▁deres
▁Në
▁який
▁кој
▁учун
▁paar
▁anmeldelser
成功
▁ہم
▁سب
▁بخش
ости
▁koko
脸
ぶ
▁ese
改革
sit
ır
翻
ň
eh
▁អ្នក
▁እዚ
盘
液
▁getting
▁amor
▁obra
▁pár
▁muka
▁Ed
ਤਾ
▁maken
mb
▁Instagram
▁window
fel
▁것이
▁pala
tare
격
▁Bal
్
IP
價
orang
vil
部门
τα
ина
▁twee
xo
▁chiar
▁Cor
▁უნდა
ette
▁pari
জ
itat
▁Tas
چی
▁Trung
網站
提升
нд
news
că
ڪ
▁hum
▁phòng
▁student
▁bene
Ю
▁quanto
▁agar
▁работа
ચ
▁Cymru
湖
더
▁уз
را
▁թե
▁ಪ್ರ
亲
▁99
▁Dalam
آ
▁MU
ᕋ
▁friends
▁deve
cos
県
了一
▁otro
약
▁hours
▁Ø
ቦ
▁tao
▁ran
html
▁zá
fall
▁щоб
Ү
liga
ቐ
▁dulu
▁ME
▁svi
▁প্র
ets
▁մ
Éä
▁sale
aꞌ
uf
▁sh
TO
ந்த
▁두
插
▁እን
চ
▁ๆ
▁ನ
▁πως
小說
▁Bad
▁size
▁ബ
▁mondo
▁매
▁poi
▁mali
▁වි
▁علی
▁Shi
▁което
▁produk
▁(3
ず
rom
属
开展
bol
증
▁primera
▁két
▁wala
▁causa
▁memiliki
nym
ଟି
▁ö
▁থেকে
▁görə
وي
▁least
হ
ური
umi
ස
▁valor
▁këtë
ാണ്
▁LED
▁zna
▁phần
ind
▁اسلام
学院
임
▁dai
▁план
▁Part
০
oz
▁જે
hon
▁Group
▁oblasti
计划
亮
▁syn
堂
▁ගැන
थ
ség
nge
▁cầu
32
▁waktu
▁κάθε
▁زمان
▁sous
ää
Co
▁pal
▁ting
፥
▁कम
▁který
▁nivel
▁(0)
▁Grand
▁making
▁ES
▁hace
▁Far
ngu
ット
▁during
▁კი
家庭
▁حق
▁toe
▁만
他們
▁було
ium
現在
▁ந
▁sil
ί
▁Hand
▁ગ
▁Book
▁ò
ത്തെ
▁jeden
▁dzi
long
▁fond
ੜ
刘
科学
maq
som
▁hefur
▁fit
யில்
且
▁dị
▁ಎಂದು
ළ
▁andra
▁magyar
▁видео
床
그
▁ਹਨ
▁ndị
▁حل
ણ
eau
ફ
▁62
电影
▁කළ
▁protiv
▁self
dhi
Č
bank
された
▁عام
မှု
শ
▁ናብ
▁bang
ích
mir
▁loại
სა
৩
占
上海
ls
▁artikel
▁72
▁úgy
▁‪
LJ
▁vị
轻
▁ras
تان
린
▁Kr
لار
▁KO
uh
有些
▁pang
▁teu
できる
▁сме
▁nich
▁ကို
▁gente
▁čas
หา
▁sera
link
处理
▁यो
[/
▁baş
ral
️
nh
▁γ
攻
agi
▁कहा
しい
▁کل
肌
▁pernah
▁కూడా
▁dove
kker
藏
not
ப்ப
pos
فر
▁ị
だった
Do
OK
lje
岁
เรา
kg
▁Nr
kki
দের
hus
▁jis
film
▁ਵਿਚ
รับ
▁Els
▁Oslo
qi
▁Maar
▁노
uli
ూ
амі
gin
▁58
▁Ө
▁dėl
وت
▁tant
▁예
und
▁chức
▁mbi
িক
▁Naj
▁pus
zio
owego
aja
▁طور
DA
企業
雷
anak
▁tale
▁Net
▁Tam
ਦਾ
▁toho
奶
ių
▁când
▁گا
義
▁други
▁NY
app
介
لر
▁pháp
▁Rad
▁setiap
醫
▁себя
เงิน
ō
▁sei
ము
▁براي
พระ
▁Công
▁bona
▁band
▁ori
ld
▁started
▁سیاسی
▁Ker
设备
▁57
这是
▁mé
▁પ
▁South
▁kế
峰
ιο
ára
ព
▁چی
▁бути
itate
▁año
tic
pot
▁facebook
▁danas
▁jedno
测
不断
mah
▁KE
ુ
▁terus
▁;)
▁rin
抓
残
ጊ
▁παρα
▁Mil
▁জ
ជា
▁software
▁Sh
▁със
isten
ール
▁duke
先生
▁bahwa
aq
лу
▁වන
▁‚
ئی
▁ova
▁چند
▁gy
▁թ
▁شي
▁עד
▁Ty
eko
卖
▁toga
▁Jun
ต้อง
tom
▁다른
▁sites
いて
군
▁volta
▁Те
▁dùng
▁pla
▁ತ
▁favor
යට
▁ketika
▁لو
ઝ
▁Gr
ють
▁sad
தி
ኽ
▁MI
led
ขึ้น
▁מת
book
ек
از
▁차
▁menu
读
数据
ာ
▁서
▁preko
▁jan
้
▁един
▁clear
▁Pra
▁gay
零
▁방
汽车
▁trị
▁services
開始
uni
unda
ಟ್
▁ప్ర
▁ပ
▁Ved
▁ก
دن
▁sir
дың
▁bun
▁forex
▁selle
šu
▁nde
フ
▁እዩ
▁க
2015
ныя
▁sch
න්න
ije
▁دل
ائی
▁fr
ໃນ
财
jat
jer
▁الإ
▁нэг
▁Ю
ਜ਼
養
۴
ある
觀
▁통해
wen
▁Gar
▁svo
ക്ക
kha
ща
▁sebuah
▁quá
▁sada
▁Nội
▁być
▁tetapi
▁Bon
▁Gy
▁Ρ
ጉ
zem
ሬ
▁كما
▁politik
▁KU
▁będzie
▁잘
▁ሊ
Қ
▁đường
ሸ
▁cialis
灵
ats
▁PR
▁ام
▁فقط
يب
▁μόνο
▁افراد
▁59
▁μετά
获
ец
▁Get
▁nhiên
▁hoặc
▁black
Ū
ında
新闻
▁đại
▁ЗА
▁handel
▁Bio
▁front
▁!!!
▁chu
ding
▁bile
▁закон
▁harga
▁ogni
伊
נ
ቻ
ligt
▁eerste
σε
▁является
ப்பு
MB
▁nang
▁pos
交通
bak
론
集团
▁gol
โดย
▁hver
▁тур
▁ಇ
▁21.
▁aqui
▁ቀ
▁saw
资
佛
남
▁Center
▁ଗ
▁तक
▁även
ow
▁Þ
▁800
ില്
ി
▁দ
▁myself
کار
stva
▁după
▁사용
ère
异
规
▁writing
▁Egy
▁līdz
▁PO
▁Autor
KE
rek
2019
lie
form
ଦ
紅
၀
▁také
▁начин
▁toda
lom
▁información
▁kop
ame
▁content
▁izay
離
▁anything
дер
스트
▁pad
▁lah
▁unei
▁sebe
▁Vai
ี
免
▁tháng
▁وزیر
▁majd
ۍ
▁али
্য
▁οποία
ense
ста
▁Pred
тен
▁85
건
托
نده
িত
▁Berlin
ି
▁dopo
族
ਡ
しています
Δ
ری
ості
材料
ទ
▁الل
۰
▁እዩ።
▁არის
▁cre
秀
isk
▁Asia
ээ
▁sér
▁τ
డు
တ္
uoti
ᖃ
mbo
一定
lf
▁naman
▁Ре
▁ці
▁ఏ
▁Business
进入
▁once
kke
▁всех
▁bersama
▁väl
▁també
▁آب
▁After
ኪ
▁civil
ér
می
iran
▁saber
▁months
▁הת
▁Não
▁Це
▁než
▁Ọ
TT
▁však
▁roman
ኮ
个人
▁turn
▁см
▁Hay
६
ᓐ
▁Saya
▁ingin
蛋
ข
یش
▁bụ
▁turi

▁yan
▁якія
▁într
静
▁ក
铁
alo
▁Rights
▁pin
kol
tā
▁στους
تي
die
ਲਾ
▁EUR
▁Commons
ões
cas
ына
▁Pero
itas
мер
డి
▁اب
ayo
নি
ଗ
▁thường
▁eh
rus
Ku
lap
▁þar
国内
▁नेपाल
▁Game
▁logo
▁alte
▁경
靠
▁Name
▁hoy
▁Dé
^^
▁makes
▁Creative
gol
▁ئە
TS
地区
▁Ë
探
▁वा
雅
ピ
सा
är
절
▁negara
эр
▁ਪ
ans
▁ihe
▁nisu
▁paling
▁lớn
▁وب
▁aya
ont
▁marca
▁öz
▁bulan
▁1999
Mu
义
▁მი
니다
ז
折
วัน
▁Daniel
▁Ка
▁kw
지만
▁Wenn
▁dil
키
▁obu
典
▁جان
hor
▁ଏହି
esti
ən
설
อีก
▁cerca
lari
▁ireo
▁mak
ért
ผม
▁ảnh
▁ăn
▁Neu
▁sehingga
▁дома
nir
▁Pol
▁fire
osi
▁υπο
▁kini
ение
ының
în
ъ
▁ã
硬
air
法律
▁Voor
▁mismo
bin
ació
▁две
▁Мо
션
ants
isha
▁drugi
▁YouTube
jin
征
isen
▁tog
▁बाद
▁antara
▁ਕ
▁prvi
▁lag
▁trí
益
Pro
▁बा
aw
んで
▁sort
မွာ
▁পা
▁εξ
▁giúp
▁twa
▁ati
▁במ
ül
议
▁இந்த
▁bl
系列
nka
ए
之前
▁samme
▁omu
ەکانی
ර්
ᓂᒃ
բ
▁ኢ
▁Enter
GA
▁בו
▁द
▁ਸੀ
TA
▁زندگی
▁School
ート
pon
中國
▁Jean
ல
nyt
▁status
▁Gal
shop
禁
ី
▁neki
θ
隊
▁برنامه
siz
▁dá
▁بعض
▁direct
▁ata
ëve
ဘ
▁אחד
▁కా
简
▁eftir
раз
Μ
延
igh
▁هستند
坐
▁այդ
▁ری
▁Hvis
▁pana
▁wax
టి
2.
▁Kui
▁teen
fen
შ
ел
▁؟
ኢ
控制
yer
발
▁ня
▁Под
睡
ана
▁already
▁רק
lık
Ra
ですが
▁bom
▁mungkin
ရာ
ост
▁arasında
▁Од
gor
larda
jak
▁году
封
▁sud
▁ка
▁کردن
▁бе
▁mars
▁չ
▁mara
▁الى
wine
НА
yam
▁fins
▁Office
▁thức
vé
cija
众
ḍ
▁Kako
०
论
資
▁tăng
▁вид
▁direkt
▁gegen
▁Mis
isch
娱乐
▁giải
▁poli
EN
▁seks
ઓ
▁company
က်
ike
ža
▁park
nsa
alt
起来
ване
LA
▁dve
▁могут
ێکی
吸
▁vera
ਵ
CA
▁Br
Te
▁место
丝
Œ
▁glad
▁rast
즈
▁encore
▁Ра
▁Λ
额
▁Data
lwa
▁دولت
影响
▁본
टा
▁pula
▁cô
ик
lü
¶
▁Dat
▁kuri
▁kup
功
lí
末
▁ना
▁project
▁strane
Da
未来
▁ezt
ával
ίου
ota
▁donne
▁Раз
▁fest
ಗ
umu
ഴ
▁Û
▁Gel
ує
▁working
▁central
▁ಸಂ
▁bao
sex
ան
▁kum
else
ケ
▁cor
idh
▁Tim
ním
ڈ
▁libro
یل
▁(6)
▁omo
▁aos
▁לו
ति
故
▁mye
刻
čka
tz
ರೆ
▁Forex
▁մասին
资源
▁Монгол
ေန
▁Yu
נות
▁prava
site
skim
評
ത്തില്
▁చ
imas
민
eaza
▁ਭ
ズ
omis
ନା
租
▁وسلم
▁ár
▁eget
▁Nov
▁baie
ира
台灣
▁üle
So
しました
▁کتاب
▁nti
інің
領
▁اليوم
館
ෙන්
▁begin
dit
▁pēc
▁موضوع
▁MO
తి
除了
▁Watch
▁ön
▁સાથે
▁lesz
ച്ച
▁úr
▁első
▁Dengan
▁파
네
▁olduğu
▁Long
▁Paulo
▁2015.
вы
یک
BA
▁baby
增加
ದು
▁together
SP
じ
נים
▁quod
哈
▁ነው፡፡
、「
▁donc
▁ጸ
гу
ခ
▁рад
▁Open
oro
..."
卻
tive
▁ملک
苏
ust
▁(19
adh
ி
We
态
▁সা
לה
▁ўз
▁વિ
▁ради
ره
▁James
▁موقع
mini
sho
mad
▁nome
▁everything
▁כמו
▁ئەم
청
▁xxx
▁Hari
▁Good
这一
▁шу
▁Th
▁కు
▁Christian
▁2016.
лася
:「
▁ገ
▁Pada
ann
▁called
▁всего
के
бу
▁μην
დი
她的
zet
▁Robert
သား
舞
ига
nat
YA
ダ
不过
虽然
▁कारण
▁tekst
▁جدید
igen
▁happy
▁ماه
▁Hum
ರಿ
မ်ား
▁ነገር
ಿಗೆ
护
▁hore
▁apo
▁jî
ischen
▁trang
▁قانون
互联网
▁kanë
▁dog
▁TE
掉
fal
дир
ാന്
細
▁출
ningen
▁major
зи
BE
寶
▁bệnh
ének
▁anderen
▁nom
▁SP
asta
nal
▁Thanks
▁Cel
ጭ
ారు
▁झ
▁නම්
ሶ
ٽ
标准
▁мо
▁кам
不会
▁waren
nings
ав
协
▁Ara
շ
▁often
kla
▁muss
డ
ৱ
വി
陽
▁زیر
wiki
issä
▁болон
PA
▁työ
ವಿ
▁tum
란
kola
▁råd
នេះ
ਨੀ
Ć
麻
▁buy
avo
▁मन
ඩ
▁tập
ಂ
▁light
bot
▁Αν
ских
▁하는
Mi
興
ják
ੀਆਂ
▁каб
▁level
▁خواهد
▁मु
▁festival
▁fordi
יות
▁semana
▁ச
coop
▁تن
▁sim
ಿನ
戦
▁שי
ራት
▁Mobile
▁bağlı
▁өз
▁တ
დ
举
▁sitä
▁الس
▁Artikel
Ar
地方
メ
▁свою
▁cuenta
▁Time
▁больше
uti
秋
▁sva
▁있
▁Tapi
ោ
女人
bad
▁Fra
▁Læs
TI
▁oh
даги
င
ios
ення
▁ለመ
▁سەر
ंड
워
▁dự
ƀ
ເປັນ
ულ
nic
Ն
▁ካ
was
집
▁eines
单位
oval
pr
ඳ
iska
出现
▁nec
▁Muhammad
▁sebab
是否
▁របស់
▁einfach
ines
료
▁коли
▁области
いい
建立
▁receive
▁ఇ
▁amo
▁Ли
▁било
▁daga
ץ
▁koju
▁พ
▁centre
▁ame
▁هل
owanie
ihin
▁mí
§
esta
▁än
▁হয়
hl
▁sao
ры
hol
▁hora
▁oslo
کو
gl
▁България
ള
코
会议
iyo
▁norsk
▁sor
▁heart
lərin
owania
▁Band
▁Link
叶
ör
▁become
ẽ
▁통
्य
▁63
කට
ポ
▁eli
ణ
▁cảm
▁Македонија
▁System
比较
ត
wala
开发
เรื่อง
گه
▁dagen
ኩ
▁ពី
▁sedan
Ko
▁ਤ
lere
▁مثل
▁Amerika
骨
На
▁Most
▁ግ
▁avant
坚
ppa
研
▁Lisätiedot
▁Би
ంలో
AS
tit
립
ати
▁pessoas
梦
▁tanpa
▁bija
制度
▁함께
▁ann
潮
▁الن
▁cái
္
▁bütün
▁4-
▁ку
▁JavaScript
dio
▁Street
มัน
▁quốc
▁اسلامی
普通
▁zich
▁خلال
▁dh
▁iya
▁Thomas
認
▁kuna
▁fil
策
保护
▁took
달
որ
▁Για
▁Road
▁rada
▁दे
▁іх
▁ନ
ké
ева
▁isi
▁naše
▁Power
cima
शी
▁Ла
▁Für
목
▁ව
▁Õ
▁생
▁бас
▁95
▁massa
த்தில்
▁server
파
dz
ປ
▁Kay
▁ጊዜ
say
با
▁NE
nə
▁която
▁monde
են
▁nagyon
签
▁broj
бор
认
由于
▁þá
▁پێ
▁لي
▁Sul
▁Songs
▁tá
录
▁energi
▁ਵੀ
▁utan
▁Catalunya
▁66
康
的小
디
胜
號
ეთ
▁DVD
▁സ്
许
▁Cal
▁Nzambi
▁Todos
blog
▁Kinder
ക്ക്
ვა
▁কি
▁country
lja
▁ren
▁위한
▁פ
▁Kung
▁būti
▁ú
vara
ቸው
enza
▁tiền
▁Fan
▁enda
iso
▁nett
▁male
始
may
▁mene
▁kunt
▁USB
nza
է
▁báo
岛
▁dont
даг
▁olen
ial
▁cá
負
amu
▁opera
▁jedna
▁என்று
▁ស
▁muốn
ઈ
ką
▁කරන
关系
库
ਨਾ
uan
▁où
rai
▁És
દ
▁Nach
▁69
zza
怪
▁Projekt
▁הם
ভ
酸
vr
▁nici
▁presidente
▁ના
Ż
冲
pil
video
▁CA
暗
▁Ô
care
▁zal
▁Col
▁کہا
真的
cca
▁dentro
▁්
▁DOC
▁ner
▁නිසා
▁iba
▁ଏ
८
HD
▁সে
▁எ
为了
▁OS
▁Chat
yl
▁dur
ाने
▁ই
▁informatie
▁cea
▁mukaan
▁brand
ҳ
▁Ihre
イン
ім
▁50%
▁DEL
▁цього
न्
▁grupo
▁dall
ժ
ības
遠
▁Ελλάδα
▁Pal
▁dịch
▁Δεν
email
▁포
▁AK
▁yake
律
▁actual
바
▁має
oka
ਿਆ
▁خط
▁Bas
▁הא
仍
共同
▁دې
បាន
▁ũ
▁law
ford
▁words
kut
▁ibu
ໄດ້
▁kultur
▁bai
ավ
ř
لة
▁obo
acha
▁Dal
▁പ്ര
▁61
cker
배
ਸ਼
ër
eks
そう
▁cer
▁Green
لي
▁yêu
တ်
กว่า
ց
▁thống
현
价格
史
▁punto
▁ligger
▁olur
▁съ
▁ekonomi
▁FOR
▁топ
▁vielä
▁cal
ವು
▁fois
▁qué
谷
back
▁whole
▁보기
▁Port
रे
নে
▁код
▁เพราะ
lika
▁sociale
▁ot
yin
▁slik
mist
ାଇ
模式
నా
▁insan
▁dacă
▁sier
▁περισσότερα
lá
▁ነው።
ուն
下载
客户
Po
600
품
▁friend
اق
ün
▁건
ppe
▁הנ
ٌ
▁individual
nel
۱
ทุก
ades
HE
ние
▁kre
▁vậy
nus
ño
sil
ának
▁można
oja
块
▁fakt
iai
оў
▁우
ತ
ijo
▁tener
rë
▁rom
▁Hur
▁انسان
τ
▁최
▁были
sus
▁kia
▁↑
▁Տ
▁دن
答
kra
uko
стан
ður
交流
▁egen
態
ши
ume
必须
▁beim
娘
▁thương
NI
Ι
船
▁ପ୍ର
ပြီး
▁الع
▁són
ภาพ
데
▁nə
けど
ṃ
ੈ
taka
రా
β
rsi
▁też
tó
▁Mir
▁זו
oku
脱
வு
▁ton
▁mayor
င်း
▁영
▁America
▁maha
▁трябва
▁cei
ụ
stan
kim
▁داشته
ário
▁రా
贵
・・・
▁ମ
▁stil
JA
저
see
检
▁የአ
▁کن
飲
ீ
▁Set
▁כדי
۳
條
▁herstel
зе
▁guide
▁rum
05
▁present
▁Juan
▁klo
▁nombre
▁masuk
▁arba
▁tudo
媒体
▁систем
Χ
kę
▁Wikipedia
▁կամ
▁הש
ঃ
ká
web
▁Nova
▁gjør
ιά
播
▁eso
▁política
司
▁íå
▁በአ
绝
iji
դ
▁mewn
▁ኤርትራ
▁bliver
AT
400
ני
▁नै
sed
▁سنگ
▁macam
▁آل
ării
获得
▁δ
▁jetzt
▁pic
фа
сын
▁သ
▁الف
нің
ၶ
โ
▁Ou
▁respect
▁están
努力
▁bedre
▁quite
역
▁ਫ
ିତ
▁Pentru
iamo
ယ်
kä
یہ
欧
ಲಿ
▁cena
▁игра
人才
кова
mani
ә
ຈ
Con
৫
slag
▁risk
BC
▁Like
▁boli
免費
▁इ
▁club
niki
nyi
▁gor
tica
▁pretty
▁VIDEO
rê
ಳ
▁ہوئے
▁کریں
▁kerja
▁داده
wyd
▁всички
ሜ
▁horas
Mar
▁ён
ría
▁энэ
▁komen
Ω
▁כך
礼
ତ
▁समय
دو
▁fac
auto
▁મ
AM
▁melalui
tore
ത്ത
ിൽ
▁Hoe
چه
ilu
▁spo
▁który
▁سازمان
dre
▁össze
ਤੀ
park
cem
▁Dans
▁Dom
pel
ยา
ница
04
33
农
▁energia
▁نی
teen
准
▁Беларусі
▁photo
tera
▁sing
證
▁Latvijas
習
ဲ
▁noma
轮
ский
以下
niu
▁Bel
▁họ
▁хүн
▁Gran
▁conta
ៃ
▁dra
ēm
mmer
份
團
ose
▁perfect
▁Ug
▁Spa
▁sekali
פ
喜欢
цца
▁otros
丁
▁fal
top
▁кто
▁melakukan
▁жұмыс
质量
ord
▁tuli
程度
ທ
▁कुछ
▁između
មាន
▁vẫn
关于
▁druge
▁trying
မ်း
07
▁حتى
▁kra
▁true
危
▁ترین
▁sống
kot
▁stress
ฯ
▁проблем
kata
▁22.
량
▁dati
▁توان
泰
▁Are
کر
▁lige
03
▁Under
aḥ
mut
▁key
ул
课
ហ
顺
▁reg
▁sak
▁disa
▁입
ሐ
itet
▁Pag
▁prej
▁Rio
▁ollut
▁초
▁kutya
▁Се
▁३
▁mucho
dig
▁열
▁Bre
▁ŋu
设
▁آر
▁калі
ቶች
bala
▁한다
▁São
▁байсан
▁අතර
▁means
▁Ν
▁TI
▁kwenye
ята
liv
▁Mein
▁wij
AD
週
ັດ
▁ito
▁gant
協
ของคุณ
▁למ
について
તી
智
ský
YE
ాన్ని
▁Mah
nc
وب
▁jour
設計
▁《
▁हम
▁finden
ohet
MS
हरु
▁110
▁bên
կ
த
ስት
银行
▁Via
▁לש
▁nieuwe
▁ვ
▁ಜ
За
される
▁anys
▁pran
bro
ᓄᑦ
继续
飛
▁kasi
▁tror
作用
▁metal
▁books
▁través
▁TH
▁ovog
▁Digital
aal
▁mos
▁Sz
▁ปี
▁hər
▁jalan
ელი
šanas
되는
▁porn
lad
ส์
▁premier
ம
▁אי
▁sini
Mail
ţie
▁سا
▁oni
law
hana
▁այն
ší
▁zwei
off
ude
RO
سی
▁diesem
▁vista
ไว้
▁Tips
▁감
勢
善
▁మా
。(
彼
แต่
▁lực
▁vært
▁ਚ
誰
介绍
▁cost
ονται
more
eurs
▁kry
tzen
▁प्रदेश
根据
▁tablet
werk
▁Mari
ছে
ड़
reg
▁XX
ᑲ
▁ē
▁già
▁пол
▁aquí
▁hen
tua
▁интернет
ញ
రి
band
▁←
igu
imet
▁بات
rna
▁MS
发布
▁olisi
isht
▁bài
▁dice
வை
ध
kit
▁هیچ
▁67
▁করা
帝
貨
▁unha
▁ym
▁జ
inė
лет
▁گی
▁кар
遊
√
▁نیست
től
▁Mini
▁ní
▁এবং
zeit
▁ທ່ານ
基本
AN
▁paper
▁Apa
▁IS
▁mij
▁jednak
▁izany
▁along
▁μέσα
▁اپنی
▁Biblia
▁Win
接受
ади
ио
ᐱ
ظ
巨
▁될
▁klik
သည်
抱
ปี
▁ngoku
▁ፈ
▁ส
旅
▁Nur
▁moral
两个
▁सो
▁Ud
ții
환
样
操作
лось
▁Ե
АЙ
kuna
▁ganz
▁যে
▁proses
▁government
▁ጋር
▁Our
費
лен
abo
▁mnie
EM
▁Zi
inio
▁ancora
▁ዕ
ِّ
▁nere
ből
池
混
▁रहा
VE
rn
技術
▁2014.
Ą
▁firm
最高
▁알
▁Ste
講
dus
▁교
▁DU
وان
▁Các
雙
▁다양한
▁kart
▁oldu
ენ
▁मे
▁hus
▁توجه
▁яка
全部
▁nothing
只要
dah
▁система
uose
之一
ём
nov
▁RSS
原因
rate
ated
▁chọn
▁sami
كم
▁esto
不知道
99
ನಿ
pati
음
аар
▁SU
▁tap
pper
울
aji
▁siempre
比較
っている
mış
하며
▁verið
趣
2)
ლი
▁vu
cions
▁નથી
kort
▁ኣይ
▁heel
▁putea
▁sebelum
kite
Մ
▁göra
情報
▁AC
▁prije
▁رہے
raj
vous
മായി
減
否
▁تهران
vá
▁byl
ала
▁told
終
▁trop
data
▁موجود
▁norske
责任
▁אין
▁Vil
хан
ут
▁момент
▁ቤት
幸
耳
ço
▁68
▁area
lot
▁પ્ર
卫
ками
▁rights
τι
▁цел
ос
டி
▁Singh
ṇ
▁gada
ై
▁perché
▁tome
▁edir
什麼
09
▁କରି
▁tel
▁eigen
已經
▁half
▁Adam
甲
また
▁този
▁의
▁Off
anan
88
護
▁■
צ
加强
▁Diese
勝
▁ან
ue
▁hvad
ಶ
နေ
喝
▁नाम
ട്ട
軍
▁within
▁قیمت
kes
Β
▁Abu
▁Tour
տ
▁بنا
▁کوئی
▁والم
番
▁Leave
▁χρόνια
▁massasje
ें
▁waxa
▁vā
▁Uz
▁여행
৬
▁doch
▁hóa
ธ
illä
▁خلاف
▁دنیا
ében
पी
ូ
▁gyda
▁kena
▁նաեւ
يف
▁خدا
销
▁सी
sted
ење
▁kontrol
▁ihre
▁terra
抽
ţ
男人
▁fatto
免费
وس
판
▁bolo
▁fod
▁PRO
刚
▁ਹ
▁små
▁trọng
òî
media
urilor
्न
ოთ
▁lavoro
-2018
▁aina
▁Team
али
忙
▁taas
amba
ᕈ
्स
▁ભ
圈
▁सर्व
बी
更新
优
▁Ку
RS
▁байх
ୋ
▁Και
alu
▁fl
▁fem
ாக
נת
oh
▁particular
ikka
才能
▁mean
尚
ကြ
ній
〜
狗
tól
ഗ
දී
必要
ಿದೆ
inə
bili
脚
ତା
ament
▁дел
▁عبد
▁gjøre
▁tiêu
▁સં
▁вони
▁Show
▁නො
▁Jawa
▁Jika
ູ
들의
▁TA
▁Sara
▁Central
▁пе
▁※
sama
操
gli
08
▁වූ
▁presente
形成
▁mida
wer
▁ela
▁Fo
ౌ
▁жизни
lta
xx
ං
각
ması
.“
▁kel
联系
▁meno
▁city
▁гор
९
乡
▁argument
▁North
48
▁Reserved
ʉ
▁vind
▁1998
▁προς
▁тільки
تها
▁onda
▁1:
条件
▁liên
▁amma
▁unde
▁melhor
▁compte
NT
▁weg
▁cuộc
ச்
▁asta
える
ovanie
udi
rod
▁sitt
▁four
ରି
▁tikai
ках
ゴ
▁First
ละ
▁style
ታዊ
յան
▁klar
▁Kita
环
▁mempunyai
ovo
들을
▁party
▁karakter
ங்கள்
oti
▁NI
ayi
▁όμως
▁primo
ларни
▁화
▁იმ
▁strani
▁같은
換
▁prav
▁jego
述
▁questions
职业
FA
hit
tions
lic
иться
▁होता
पुर
缺
▁ఫ
欲
▁nice
ப
డ్
Pa
▁trabajo
▁bwe
▁생각
▁pola
得到
规定
ִ
ૂ
dla
▁muna
▁pul
▁نظام
ํ
▁bel
ঁ
编
▁ക്ക്
▁SMS
▁nĩ
政治
対
מים
cel
汇
业务
▁élet
inte
显
يو
▁everyone
ฮ
▁ph
▁contre
▁đẹp
▁Sta
ιών
où
▁april
▁terhadap
IS
▁בכל
fri
▁lett
▁mac
▁altri
▁rồi
父
解决
νο
ราคา
▁tento
ości
antes
▁නි
ວ່າ
▁बि
▁tyre
▁beli
▁mark
ungs
ค่ะ
▁TU
▁labai
Տ
ăm
▁ק
▁Σε
▁groot
02
▁wal
▁klub
▁مل
でした
ል።
▁white
▁keď
▁State
▁оны
▁Aba
▁ე
▁đổi
ください
▁view
rp
应该
▁hii
遭
▁muda
ଲି
дағы
▁aasta
▁Meg
▁700
▁Tab
ंग
▁mom
▁zato
▁mitt
ଲା
▁რომელიც
თან
▁деген
зі
skap
▁lokal
ால்
際
▁Cam
▁wanted
ʼ
lov
ość
▁ച
▁dira
▁hela
uit
▁қол
▁mål
▁Deus
gra
DI
uga
備
▁맞
惊
▁вже
▁available
neet
ht
wel
领导
▁կարող
elu
Je
極
ать
▁ден
jí
▁Kami
▁Ба
ای
४
Հ
▁High
ця
▁ønsker
▁temu
▁አይ
▁Tele
گر
▁էլ
▁selbst
ಡಿ
বা
▁საქართველოს
▁King
作者
▁проект
▁అని
▁آخر
elli
▁فیلم
▁Ele
ém
▁дня
▁ens
aran
നം
▁understand
▁active
▁health
滑
▁یکی
tid
狂
ခံ
ern
ద
▁probably
▁tử
երը
yaṃ
▁Aber
▁continue
sport
య
▁daca
ták
需求
▁large
ама
更加
tuk
▁Spiel
▁बन
厚
預
itä
▁Θ
▁büyük
อะไร
▁23.
▁Info
zin
▁Menschen
lisa
▁бил
เข้า
nay
▁spor
▁mad
▁δύο
ဟာ
在線
ನು
▁nuestro
ურ
stein
НО
である
▁kaikki
rne
▁seine
▁vya
▁달
▁mina
ök
▁정보
бы
노
ран
▁önce
รถ
NÍ
شان
▁होते
不可
kho
▁ፍ
▁სი
ун
▁бъде
冬
ского
▁domin
▁ច
▁Sri
ph
▁led
▁այս
heit
nad
▁jul
提出
▁:-)
▁가장
▁peng
ખ
▁neue
▁서비스
▁sida
▁micro
ယူ
ભ
▁Tal
ijos
န
▁quello
▁prostor
▁dẫn
▁biz
▁Kai
厅
:15
▁Soomaaliya
▁Galaxy
谁
▁viac
▁trở
bud
▁maga
▁пар
▁motiv
들은
▁posted
▁age
▁ശ
▁kasa
▁moc
ುವ
树
洋
lus
▁gro
ист
▁capital
œ
美國
▁moins
ct
▁bantu
▁girl
ವಾಗಿ
tung
▁ɖe
▁Prof
ઠ
▁George
▁enim
yle
ที่จะ
▁थियो
▁हुने
▁Lang
▁প্ৰ
ском
७
▁şey
lab
▁jsme
▁महा
kir
▁także
▁etwas
製
▁Villa
弱
▁Бо
▁koma
Ũ
其实
jana
▁sar
ናት
well
▁იყო
▁Når
▁ef
▁kaka
ET
ntes
ጀ
för
ння
▁Rock
▁continua
iwa
▁weiter
난
५
▁hidup
暖
▁suas
▁fur
▁CH
ៅ
36
He
▁फ
▁imi
burg
old
વી
MO
ије
▁είχε
▁aktiv
¦
严
ソ
лаб
▁cela
▁code
▁Pinterest
▁ebi
สี
ρ
▁Well
ность
ində
▁mus
▁قابل
▁bala
恩
gat
mina
▁جميع
▁ਕਰਨ
ére
▁datang
▁kohta
ето
▁lần
дин
▁وم
sor
hem
ικής
索
▁gaat
役
顾
应用
▁juni
▁Fel
ового
adu
৪
▁amely
▁във
错
▁était
▁২
▁کرتے
39
保障
ผ
▁добро
▁mér
kul
▁타
▁november
▁Vel
bah
▁bia
hel
σ
чин
▁après
وی
▁moto
tá
▁White
▁φ
ΑΣ
nio
▁waxaa
▁적
НИ
▁nuevo
ники
être
ční
ným
ската
▁kojima
暴
மா
kos
జ
▁จาก
症
▁beliau
ਲੀ
▁hän
水平
ाच्या
▁felt
▁గా
gut
ęs
ిన
这么
▁similar
額
▁Bill
▁fotos
▁photos
이나
-2017
ικές
ൈ
miz
abb
▁والے
▁visit
▁private
gere
NY
▁yoo
нэ
如此
Про
▁77
lec
▁مان
ол
దు
ნა
▁hang
tho
▁isə
▁sat
▁seen
▁kare
▁تحت
หลัง
▁tla
▁card
KI
ێک
▁september
liche
▁Pla
▁kaya
ZE
കള്
▁mwen
黃
▁diverse
▁acum
▁står
мат
▁کام
▁කරන්න
▁couple
▁эрх
ලි
ového
▁jų
ေတြ
кам
▁jobb
▁επ
zwa
мет
▁kaw
ர
▁weekend
▁huis
хи
▁Tamil
▁JE
ING
▁rock
▁ඉ
iet
ობა
วิ
႕
wana
▁HP
▁био
▁aquesta
跳
▁आहेत
文章
▁bh
▁2012.
亞
ivi
正式
▁esa
ቴ
隨
▁этой
▁ən
ᔪ
۵
65
LY
ър
▁ـ
▁હોય
:10
VI
▁BO
▁Gor
უ
Google
▁Tin
▁organ
nna
ск
▁Cat
▁Deze
Di
途
larına
▁мал
hun
▁ثم
▁кор
▁많은
▁geht
页
▁Lagu
ਾਈ
良い
ping
那些
聽
شن
▁pena
▁Please
▁pré
uku
tif
IV
倍
▁др
osť
許
აში
▁եմ
dum
34
造成
бе
▁nell
▁tinggi
ᑐ
▁Seite
اں
ใหญ่
▁・
▁ዘሎ
▁tiếng
ום
EL
etan
Ű
▁easy
人生
▁Och
ၵ
事件
ட்
lib
ਖ
▁less
رو
▁vier
▁grandes
Կ
▁tud
bis
▁soit
▁Pop
域
▁1,5
શ
▁ድ
ዴ
!!!!
▁itt
ика
▁hoạt
现场
RT
▁دهد
取得
▁Ky
Es
▁1995
▁nekoliko
▁novi
▁admin
ခြင်း
▁días
▁(4
ার
▁ਲ
dala
▁140
▁vero
▁familie
▁hul
Bo
▁View
▁çà
▁bất
▁ವಿ
≈
▁Ev
経
▁tulee
▁Τι
▁Centro
▁10%
▁young
▁medio
▁vấn
ວ
▁permet
ໄ
嘴
tse
▁عدد
ింది
▁Ag
▁других
anza
▁nä
เล่น
-3
▁outros
▁visi
38
▁glas
洲
容易
님
▁period
▁እንዲ
▁liệu
ില്ല
▁lit
▁hom
▁sexy
ೈ
▁privat
▁razvoj
ລາວ
▁tham
ออก
เม
▁tarafından
▁politika
輕
ଜ
▁авто
▁ජ
▁ලෙස
▁fort
▁sedang
▁viele
▁detta
▁5-
▁komme
▁pagina
振
ню
ડી
kulu
▁mapa
iye
▁হবে
ňa
kali
▁88
wat
emos
▁FA
▁ڵ
owo
ลูก
▁گو
▁2013.
yā
▁quyền
ଏ
▁Beach
▁Kat
▁computer
▁mitä
困
вал
▁Europe
弟
▁актив
▁2:
▁শ
shme
HO
▁จ
目的
ለው
יו
▁उप
ෑ
▁Ни
cken
වත්
▁Anne
نت
▁document
▁Share
ፎ
▁नेपाली
▁vás
▁arra
ട
▁duhet
▁×
او
Ս
кон
lardan
INA
▁مر
▁sina
▁learn
▁ενώ
既
▁Türk
ێ
▁कार्य
dzie
gia
▁pasti
ผล
▁savu
hir
pass
▁ශ්
Un
▁Bộ
nı
borg
inis
istas
們
▁мало
▁tus
▁राज
ojë
▁ไม่
▁Gre
pie
▁év
హ
童
▁Από
ခဲ့
▁ਹੋ
มือ
▁Sem
▁många
wch
เมื่อ
▁금
▁չի
▁люди
▁توسط
eiro
▁लाख
ಪ
ನೆ
▁ø
ize
浪
▁văn
▁تاریخ
円
alta
最大
ţia
kana
06
ări
▁write
takse
ջ
▁dokument
▁falta
割
▁faut
▁ર
str
▁seems
▁These
▁წლის
으
▁något
▁종
ppi
оз
▁Pak
▁ligne
在线
▁мир
▁mü
▁pé
has
▁lange
▁Eine
▁Sud
ኔ
杨
▁tour
推进
▁حضرت
▁GA
▁ਵ
▁ᐊᒻᒪᓗ
自由
anu
Τ
▁tussen
▁malu
▁этот
▁բ
▁Hun
▁керек
▁Lake
▁73
▁ihan
▁kit
▁comes
tava
▁इन
ど
ries
▁manusia
▁haber
虎
Ј
▁४
馆
BS
kku
▁kho
▁2-3
▁given
▁Some
▁Estado
麗
還是
▁nostro
▁ishte
▁cultura
▁Japan
els
復
▁Να
的大
ლის
3%
▁podľa
▁جب
嫌
編
cen
▁box
▁cool
▁tím
ᒐ
▁مهم
bre
्ने
▁mindre
寫
▁تولید
▁recept
替
梅
▁aye
▁inform
▁nærheten
▁Chu
▁bodo
▁future
†
ที
▁ዘይ
ที่มี
ແ
ÉÒ
bia
ພ
▁Uma
▁siitä
ļ
ус
▁Welt
ඟ
▁ڈ
▁vali
▁необходимо
▁þess
▁oa
▁Sed
tivo
▁poz
医院
▁аз
망
▁Bin
▁hingga
жи
▁Пре
▁hatte
UM
▁minut
tig
▁Fer
▁kroz
▁giờ
▁olduğunu
▁تي
▁Ham
ვე
мы
▁Maka
▁Bra
atti
多少
▁ទ
▁svet
▁udi
ജ
になる
▁zou
에서는
Ti
▁menn
临
чка
▁ჩა
▁Mes
▁שב
bul
▁Von
▁Rom
▁نور
▁být
▁nɛ
▁ਇਹ
▁Bol
▁hab
ses
في
▁ինչ
▁otra
▁ओ
▁Bangla
CD
▁Über
▁Bible
▁בית
ndan
95
με
По
▁sosial
වි
▁rat
isia
▁damit
豪
結果
LU
wyr
▁όταν
▁ເປັນ
bok
она
▁mio
ார்
▁masalah
▁tren
▁melihat
▁Bonus
▁göre
ních
▁نین
த்தை
▁наш
DS
▁minha
▁moja
ড
pia
CO
▁бити
▁rencontre
щ
▁pati
▁County
▁tshi
▁दिया
मध्ये
▁jotka
ён
वी
▁vissza
сть
▁byť
▁nunca
▁sobie
▁quy
▁LI
▁hiyo
▁Alt
▁hair
ഡ്
લી
eel
ró
tio
▁Global
▁tamin
▁memberikan
ᒡ
ček
▁роботи
իկ
▁OF
రీ
▁projektu
▁apenas
▁Ð
▁biệt
▁рэ
▁especial
▁물
۸
CP
▁130
▁sekarang
த்து
ەکان
▁kraj
▁nove
▁thoughts
weg
يي
lli
▁Mei
▁Studio
▁Что
▁મા
▁편
▁rus
ema
PT
55
ēt
▁මට
▁else
림
▁fick
yje
yı
WA
▁Cup
▁mpe
arte
▁przed
▁wanita
feira
企
ये
ᖑ
▁Great
▁Tema
杯
ອ
▁ئا
▁kanye
riya
▁Mỹ
KO
▁move
大的
宇
▁match
▁record
vos
jum
销售
▁لر
și
▁fá
▁Gen
▁ਨਹੀਂ
▁Tro
ða
iset
▁chance
BO
▁मोदी
▁mur
经营
▁کیلئے
▁간
ጫ
▁machen
FC
▁között
▁mudah
▁Dating
ຟ
▁деб
▁Jl
▁Bis
▁24.
hari
ിച്ച
직
IA
cı
▁Jesús
डा
▁nic
▁kuli
▁integr
▁случае
▁finde
▁priser
▁ઉ
▁marka
▁период
kken
▁töö
iche
▁ଜ
ёр
ниот
爾
laga
φ
▁Gra
ақ
ավոր
▁studio
ೊ
ять
▁toujours
どう
▁sowie
▁بیان
▁(7)
▁Obama
佳
ට්
▁ის
▁hain
实施
▁ing
▁Rat
基金
ава
▁nội
테
保持
тор
ລ
れば
▁wali
▁batu
▁gerne
ales
온
▁នេះ
▁Start
DO
යෙන්
▁چا
ью
▁malam
dores
▁ceea
▁것이다
▁vēl
▁Last
▁הה
હ
的一
行政
▁Hvordan
▁typ
▁mental
▁result
lıq
чки
▁alltid
▁2019.
zik
yor
本站
▁각
取り
aki
▁কা
đ
▁lado
ॉ
▁ಮಾಡ
▁chia
▁national
▁wake
▁ord
ري
关注
ശ
tru
SK
nne
នៅ
▁олон
ƈ
なので
isse
▁ander
yê
▁ainsi
abi
ntu
▁ڪ
▁ನಿ
▁również
▁дом
ро
決
▁aller
инг
ాయి
▁milli
ция
ors
Man
gro
▁abantu
▁още
▁sino
▁Ing
瑞
ઇ
小说
නා
▁25.
ֶ
ႊ
shëm
術
ବା
adda
ု
ális
▁anal
▁እየ
പ
▁faz
▁አስ
Й
рон
十分
乱
▁nuestra
▁kɛ
lerini
alle
▁research
宜
君
͕
եք
▁talk
▁Minh
▁Kad
そ
▁nhập
▁community
▁low
▁명
▁град
dzi
लो
нен
▁naka
বি
রে
▁Gold
▁spot
▁یې
▁cael
▁مواد
ᕆ
களை
▁noget
▁opsies
RA
ానికి
▁Thank
▁جنگ
的な
▁Vý
▁Bij
ška
ɓe
ந்து
▁тим
▁ngoài
ফ
wikipedia
▁הפ
တွေ
▁tìm
▁mann
об
森
▁persone
▁series
▁games
inni
Ł
ถูก
وری
▁estado
▁chế
ಸಿ
வே
▁بس
▁감사합니다
▁korende
▁Form
▁dansk
சி
▁close
▁មិន
▁Hotels
▁ط
▁зі
퍼
▁جائے
ós
ရှိ
ത്ത്
북
aye
▁cand
▁papa
▁사진
ก่อน
▁έ
▁박
▁karo
亿
라고
▁quand
▁আৰু
เขา
ടി
ello
▁анти
یز
▁לפני
下載
۷
ᑖ
▁ବା
▁Sim
▁egyik
▁76
▁tijd
▁soll
▁tú
▁gin
▁rather
▁Att
▁آئی
氏
▁bere
▁Mana
▁ნა
800
bay
CC
ులు
gó
▁1997
▁adres
২
kad
▁ਪ੍ਰ
▁kaha
▁4)
▁naba
有关
ৌ
不到
▁kasar
▁entry
▁quam
▁якщо
▁Jahr
来说
▁chưa
erek
▁όλα
ھ
-10
สินค้า
▁ĩ
▁толькі
肥
伴
▁KI
ání
▁महिला
▁mẹ
▁reklam
劇
vät
пи
丽
ṣ
атын
nci
可是
▁Ná
สุด
個人
▁96
▁nh
ᐦ
▁Raj
▁following
忘
ทั้ง
快速
**
想要
▁izy
▁någon
該
maya
ាយ
胸
▁свет
▁ምን
цу
مت
kle
腿
박
新的
▁жыл
環境
▁dni
gos
▁paano
▁giao
ेर
▁ул
beli
最近
▁leurs
▁pon
cul
▁students
၁
のは
▁हजार
▁प्रति
turi
▁Kara
▁biri
▁Era
▁προσ
נית
▁Mur
▁хто
围
▁produkt
ینی
iku
▁الر
▁pres
▁Trans
制造
最後
减
mark
pha
▁market
▁sector
čių
▁메
玩家
PL
▁थी
▁따라
▁Jadi
gui
မွ
▁RT
▁գ
dele
zat
▁pracy
▁tiden
▁ovaj
ple
▁සඳහා
▁aut
col
▁metų
▁있도록
UP
ിച്ചു
ші
宣
브
ນີ້
▁צ
▁못
เว
▁Model
▁example
ลา
ნი
еді
▁эти
▁così
कार
▁цвет
▁مجلس
▁camera
hou
▁nota
kwe
▁essa
▁Мен
▁nord
!」
▁մեր
49
空间
▁idag
載
▁meri
ディ
▁років
▁ди
▁itse
송
▁بازی
▁tomu
▁fy
▁šta
▁būs
னை
▁160
nál
िंग
賽
তি
jad
▁viene
..!
tsa
Du
頂
▁onun
▁জন্য
โต
▁gjort
unt
eka
▁prefer
yada
▁product
▁없
kup
▁Jakarta
▁Washington
▁μία
嘉
▁Hor
▁दी
▁بدون
▁staat
▁Lyrics
ئي
▁عمر
▁భ
▁dio
Ke
പി
▁profesional
▁पा
专家
▁시작
▁Ihr
▁سان
ター
▁የመ
ssen
37
▁всі
コン
然后
▁кра
ać
▁ram
▁phương
SS
דה
ቶም
▁metu
▁Harga
▁щодо
สาว
▁கா
▁địa
▁imaju
▁jälkeen
ļu
ван
刷
▁situation
▁mode
▁그리고
Ver
▁जब
اه
塔
schen
▁image
Atom
▁dela
kap
isto
沉
yla
各种
अ
▁مصر
▁양
ਠ
传统
pata
편
▁साल
▁sko
▁gratuit
۶
Ų
▁സി
▁mensen
يز
產
isin
mun
▁78
▁жа
唱
rim
▁አንድ
cre
▁pertama
斗
nit
仙
▁ś
gir
產品
▁table
Tu
积极
mont
▁Tá
▁bent
ball
уваат
▁Christ
▁taka
豆
bila
▁banda
င္
ência
เล
arak
wali
▁صرف
▁depuis
യെ
별
ók
▁hoàn
▁DAN
▁kredit
ჭ
ović
ਲੇ
▁nimi
▁pir
ғы
нь
alan
Su
ibh
▁almost
ského
▁cause
tiin
etta
กร
▁Estados
錢
τος
▁petit
ned
▁grund
▁ego
▁Ти
ीय
ႁ
▁kuba
▁αντι
sc
ในการ
裁
▁Klik
♪
▁proprio
승
-20
rian
▁ٹی
▁98
▁fund
▁після
itatea
▁74
▁kamera
জি
uro
▁Lord
ᔨ
لت
छ
▁mix
▁rằng
▁FC
▁ž
▁AN
ᓴ
lok
rka
▁వే
▁bok
▁nacional
▁aceasta
▁rata
бек
담
▁Vad
▁취
▁fått
/2
وار
▁tega
rel
▁atunci
樣
▁Kol
▁gur
siya
▁stort
▁reason
ລະ
▁Contact
৭
▁thêm
▁၁
▁න
▁Διαβάστε
▁leta
كه
▁passe
တွင်
▁report
▁sách
▁життя
rata
ਰਾ
დება
ρα
▁دارند
CI
透
MC
▁která
▁bình
▁Hva
▁asa
вар
ása
ពី
▁ՀՀ
默
▁links
బ
eacute
ові
▁passa
▁שלא
fest
ဆ
▁sexual
▁pli
▁καθώς
▁84
岸
ዑ
▁aiz
▁beautiful
▁kvalitet
▁Roz
ците
智能
sime
▁Opera
tang
46
stel
固
▁воз
▁මා
สูง
ult
搭
感じ
综合
강
谢
▁ಭ
▁amit
▁života
項
▁ත
เอา
▁71
asyon
▁uten
ına
迪
bara
▁ра
mil
▁лише
▁genom
▁remember
2000
ះ
▁ор
oto
电子
觉
ছ
ése
影響
▁Україні
參
ฉ
▁toute
dhe
▁mira
ация
。“
▁ESES
怀
▁ታ
플
▁José
ဒ
のお
ണം
▁Parti
▁było
▁ఓ
lio
▁director
▁Will
▁pia
旅行
▁Why
ろ
ations
▁sitio
?」
นิ
▁fő
▁Maa
▁27.
ា
▁것을
yt
▁oro
▁interes
▁ולא
▁baza
kl
鲜
廣
▁miss
unu
▁bele
iad
▁Yes
▁Kumar
ům
lid
Jo
eux
ൾ
▁गु
▁sagt
нага
▁history
하다
րդ
처
▁vreme
miseks
▁mille
术
▁xem
▁Marketing
▁또는
avi
▁심
▁̊
▁AG
▁pain
ún
▁1990
▁gak
▁haa
tsu
▁werd
申
▁sky
▁رسول
քի
凡
▁quis
ໂ
▁रह
▁ישראל
▁ป
▁መስ
ће
тися
▁ɔ
šanu
▁saada
FF
اری
▁sab
▁által
▁stay
දා
▁position
▁svoju
ява
▁السلام
ള്
▁transfer
▁khó
▁እያ
:19
左
▁posto
▁Tum
|
кан
▁حيث
▁Store
▁Hon
聞
eria
भ
▁világ
▁१
▁شدن
ட
щи
▁njih
▁दो
cam
▁Вам
▁foar
▁Bro
▁berkata
▁जी
ték
vers
▁langsung
▁debe
▁bring
▁HA
▁زبان
▁بم
▁Kit
▁Պ
fs
▁ако
なかった
லை
糖
▁ابن
進行
▁שנ
মা
▁trata
ថា
cit
▁मी
▁upang
PM
▁sel
جه
▁However
▁quem
▁本
ningar
▁stat
手機
▁страна
▁свой
▁ទៅ
井
▁wees
▁avoir
vert
▁nd
cht
жу
লি
▁term
kem
▁BI
baar
▁osob
▁भारतीय
▁Bau
▁Dy
eerd
▁aici
▁ứng
▁Maha
तो
:45
▁avea
င်
也有
▁paljon
▁අපි
▁카
▁ఉన్న
ար
▁peste
▁Bez
ති
▁RS
▁quae
ղ
鬼
納
sinin
લા
▁gera
▁हुए
сто
ments
▁Somaliland
▁11,
gala
▁حد
▁ወይ
▁Hall
வி
▁26.
மாக
▁Roman
០
▁toutes
▁بوده
▁Ry
▁videos
▁region
▁손
▁Press
▁hyvä
都有
ход
acija
▁köz
▁ask
್
▁လ
位置
нов
ći
ον
AR
▁epi
▁Sala
▁kembali
▁vei
▁лица
找到
იდან
▁ಶ
▁компании
վ
Opens
▁đất
▁robot
▁болып
▁сум
▁Mata
▁ഉ
▁nelle
培训
烈
kum
λ
라는
TC
.—
丹
ров
▁cur
▁беру
よう
▁música
▁श्री
▁Old
든
ein
నీ
▁message
සි
鱼
転
gil
▁belum
▁리
pus
▁פי
kli
▁võib
▁Հայաստանի
нето
挑
▁fino
کا
ռ
ዙ
▁Pot
etu
▁articles
▁않을
▁જો
ยัง
▁Papa
▁ມີ
lina
లి
▁món
▁வி
▁living
▁enkelt
▁üks
▁बस
१
ків
▁mắt
inti
▁약
▁iyang
▁پیدا
-15
▁Ros
▁either
되어
▁آموزش
▁trip
▁ім
գ
ຕ
▁당
Com
▁port
历史
▁hozzá
▁Island
▁aad
▁sở
▁minute
▁py
하면
ัด
▁Also
▁odnosno
აც
LO
ႇ
ис
▁polo
▁nepa
ակ
▁త
گاه
ੁ
ɗe
Θ
லி
언
ві
olu
ków
重点
75
宗
▁дуже
ole
▁الش
藥
▁based
cap
▁ሓደ
▁vide
▁CAAM
ايي
▁Nan
▁بزرگ
▁keer
ڵ
1000
▁τι
▁Line
耐
▁provide
או
ซี
▁тази
▁leo
▁pasa
▁گر
▁brez
▁Kap
▁Abdul
▁گروه
ndu
旗
▁đơn
sang
ew
▁anyone
จน
▁drugih
▁Kre
▁හ
観
เมือง
łem
▁Ә
ሎም
▁Það
▁jeszcze
▁Sorry
▁points
▁विकास
▁Fall
▁hak
▁உ
订
▁vasta
▁taga
▁୧
ᐧ
艺术
▁Sve
кор
报告
▁pří
44
▁우리
ል፡፡
▁president
▁SO
淡
▁sett
▁बे
дің
anno
sana
-5
▁Centre
▁miliona
про
▁väga
▁Meri
▁terug
▁phone
แ
ிய
▁needs
▁واحد
▁Энэ
मान
进一步
ტი
幅
ṉ
▁aman
ಿಸಿ
ホ
▁Res
眾
▁Shah
▁આપ
▁tena
结果
ێك
৷
ठ
▁شوند
▁ສ
ид
▁Xa
▁ປະ
▁ਗ
泉
dina
รา
▁CON
▁Then
vez
ਫ
▁jeung
よく
ီ
▁Tidak
姐
▁Raz
▁kuu
验
န္
ують
udu
ΕΣ
که
작
િક
▁නෑ
ић
නය
▁दि
ља
ଭ
lha
JI
▁pass
ally
▁χωρίς
▁82
▁علم
מת
ware
▁NU
▁gave
图片
ON
īgi
गा
ас
▁Sch
▁ū
ør
اح
▁bê
▁Review
▁Ն
Φ
ໃຫ້
▁seo
▁Ù
▁action
atori
술
stre
第三
rse
▁Biz
ними
esh
▁број
▁matter
▁seguir
▁ս
rb
的话
▁ilgili
oldid
▁شامل
∂
范
▁Bil
▁visita
▁Ха
▁intr
sum
▁autres
柔
▁tegen
▁qa
確認
▁हर
▁kids
▁хо
▁այլ
▁mě
ään
▁وهو
▁sum
夢
▁trẻ
ไม่ได้
▁Kam
▁бер
hum
陰
▁FM
복
▁portal
婦
▁н
▁potom
ệ
些
ଙ୍କୁ
▁אותו
▁clic
资金
输
ส่ง
▁AD
▁вот
von
▁había
stri
▁یان
bere
▁hyvin
时候
▁Lorem
ಜ
roz
▁ብም
▁když
▁לב
▁ոչ
▁Even
эд
sek
ият
工业
▁nepo
▁עוד
▁vairāk
▁inne
▁nhau
Ni
変
&#
▁Yehowa
荣
ří
▁dilakukan
▁Nos
皆
Վ
จริง
▁estos
▁Personal
▁била
▁เมื่อ
一切
▁price
▁Blue
歲
▁lát
▁Buch
▁စ
▁tava
れる
xu
▁není
顶
▁sv
▁mă
mate
▁enjoy
▁lle
ቋ
▁ᑲ
▁всегда
fun
▁തന്നെ
▁ม
type
▁Anh
ู
dde
楽
nap
пен
▁visa
▁несколько
▁ដ
وف
▁hala
เอ
▁слова
شی
▁evit
▁parents
成立
参与
▁առ
름
▁მაგრამ
ມີ
震
▁forme
ණ
▁lịch
▁Những
larında
jj
唐
▁Fin
kai
گان
それ
함
ភាព
▁Motor
▁ידי
vali
кою
ም።
仅
▁PE
▁bruker
▁kok
▁Baba
▁92
മായ
ṭ
▁TP
gam
▁دار
文字
nije
-16
▁특
овой
▁Ï
▁iets
▁offer
gre
▁Unidos
್ಯ
▁vaan
▁seit
bed
▁ജ
▁اینکه
▁sea
▁гар
▁saman
୍
▁blitt
ήσει
▁selalu
▁número
LI
மான
▁★
જી
ėjo
▁रही
▁మీ
ује
▁Hans
▁às
▁више
▁Sel
负
ង់
예
▁två
▁խ
▁Canada
異
▁cikin
czy
▁(5
▁trung
▁podem
您的
কা
mena
▁tên
ER
isation
һ
▁Ай
理解
খ
▁ember
食品
▁TR
▁ovom
añ
▁Ac
▁больш
vam
▁hol
▁altre
▁Cap
두
▁maja
▁7,
▁таких
ベ
AK
मी
▁passer
緊
гар
מי
▁зв
èl
▁ST
дэг
▁89
▁спорт
▁ថា
▁alatt
tah
▁pueden
领域
êm
▁ہونے
▁pp
▁Jam
▁hold
人の
▁access
łam
▁thân
▁quyết
▁vien
▁اطلاعات
補
▁seja
显示
န်
mia
▁vedere
▁toimi
▁soon
▁Ан
略
▁kula
▁кол
▁niveau
資料
▁juli
อร์
▁neste
敏
▁mercado
▁كە
yd
iä
▁kina
▁vit
秘
▁hospital
▁gambar
ێكی
▁살
▁вер
▁coming
▁several
▁fazla
▁maior
▁125
iacute
tą
▁Sverige
ëè
老师
αμε
▁أنه
▁አል
лаш
▁wrong
يان
測
▁Ph
ovali
៍
▁League
เท
▁energie
▁بازار
ဗ
▁روش
▁ski
電話
▁familia
▁unge
▁cr
▁ahora
نو
▁drei
owym
eller
▁aika
▁เพื่อ
▁человек
hay
▁कोई
സി
▁어떻게
▁podle
▁comprar
▁ومن
▁ତ
▁코
uso
른
৯
▁زۆر
кер
▁வ
VA
▁avait
▁新
▁đều
▁ul
ギ
▁пи
ക്ഷ
ür
ික
ຄ
▁perquè
gio
66
جو
▁QUE
ант
▁стар
附
▁nú
▁Вас
ប់
▁assim
mwe
統
ují
▁Sky
ヤ
▁saab
▁pravo
伸
ится
COM
▁nila
▁ଦ
▁rundt
的に
▁خرید
▁Ul
▁97
財
โลก
ᔅ
▁ادامه
▁asked
▁Deutschland
▁fat
КА
мин
1⁄4
Za
8%
▁element
標
▁fără
▁شه
íme
▁места
ție
▁event
增长
▁svojim
▁사항을
▁미국
▁ద
ไ
▁sens
FE
历
▁ክን
uc
▁Ле
խ
▁الص
▁futuro
▁anmeldelse
SC
гч
▁لك
▁Problem
▁ideas
▁ngi
▁bawah
ily
VO
▁بالا
▁گزارش
男性
Ge
▁jenter
▁consectetur
▁naye
▁encontrar
▁പി
▁Ihnen
▁လူ
成人
▁دوست
ပ်
▁2011.
▁лучше
▁Amb
침
▁vê
累
ago
idos
TP
持续
▁पहले
推动
▁مخ
길
ുള്ള
积
▁España
ֵ
起來
gwa
▁Су
మైన
▁osoba
▁masyarakat
ote
rup
▁Lan
▁moderne
▁havde
מן
ତି
বে
▁సినిమా
▁lek
▁ਹੀ
եւ
EU
▁Lee
▁failed
zh
▁გ
▁Ön
▁igoro
▁Ltd
hető
▁अस
eix
▁quelques
▁cukup
ባል
сиз
▁astfel
పై
▁डा
SO
▁Pin
▁apar
▁Mobil
▁ต
打造
ండి
UN
宿
ญ
性的
按照
▁друг
▁prix
▁هایی
▁centra
▁Lei
▁hel
lung
▁parë
▁dieses
徒
窗
▁spel
dad
rc
▁vă
▁également
ông
rr
▁19,
hui
▁בת
技
KS
▁চা
heim
▁Africa
▁شروع
awo
menn
▁credit
▁rep
▁يك
▁taking
▁Tanzania
▁ర
▁leave
▁сайте
▁гр
故事
со
ಕ್
▁بیشتر
นะ
AI
يس
ТА
abu
ությամբ
dek
かな
效果
rf
溫
▁להיות
೦
fil
åì
▁ለማ
hala
эн
▁ત
Share
fat
▁హ
▁сите
ologie
AP
▁Yeni
മാണ്
▁month
ність
▁trabalho
▁finans
▁සු
▁إذا
등
▁करा
▁май
ვი
▁كرد
ข้อมูล
bau
oba
ća
해야
▁tat
ئے
▁odsto
emu
▁Já
ย์
▁περι
市場
▁nuovo
▁lika
応
壓
▁1996
ष
▁alors
átor
プ
PR
方案
PO
贴
져
▁ə
als
▁Grund
ικών
स्ट
一年
ጦ
▁empresas
▁Aur
▁bylo
恋
fy
ယ္
▁نامه
▁94
▁vari
▁між
ଶ
▁биде
▁ಒಂದು
帮助
▁nature
jä
▁krav
▁mellom
lands
▁balik
▁child
▁13,
▁teraz
練
▁ngay
ható
▁yfir
ною
رة
一样
▁ret
▁search
▁নি
ebb
ると
wl
▁خدمات
uze
جا
すると
▁هغه
▁wani
dere
▁Hoteller
tech
▁Է
刀
▁Për
کل
▁mati
▁(8)
չ
▁Това
稱
サイト
នា
▁ר
袋
▁source
ढ
oon
▁20%
经验
傷
▁apabila
消息
▁phí
▁بوو
▁yes
以来
▁ಸು
是一个
లా
以前
▁Якщо
估
igi
▁virus
▁nez
勇
▁sho
ᖏ
▁комплекс
sty
rac
▁cet
kama
▁ай
ři
▁Lai
ನ್ನು
ència
▁haha
▁SEO
▁часто
ոն
▁fiecare
▁noku
旧
▁mul
▁soos
▁ত
▁ور
▁Mont
ўся
▁бизнес
කි
▁penting
aci
莫
▁kaže
牙
▁denna
തി
▁لیکن
▁সু
▁Aga
ু
ös
▁numero
▁taa
▁dedi
سا
64
▁RM
▁όχι
baka
ቤ
▁consider
▁FOTO
zz
▁คน
▁въз
序
▁Mel
ಾಗ
錄
бо
▁ký
▁Դ
看看
▁morning
▁کوردستان
Ո
ovej
▁**
ain
棒
▁saan
▁práce
▁Ré
eira
ax
▁anno
▁9,
utu
有效
شت
魚
tika
ഹ
▁škola
▁Entre
లను
▁LO
lığı
IB
げ
▁moko
右
ጹ
lui
▁Į
તિ
▁81
utan
▁360
▁نوع
คือ
▁근
▁ïðî
▁mense
▁жил
摩
rig
▁sáng
ερ
なく
၈
每天
▁ባ
▁ಎ
▁woman
иот
▁بێ
▁posible
Per
:20
▁Sand
dhu
▁Amma
mari
առ
▁ڈی
▁dövlət
جي
▁
冠
阵
▁oktober
▁max
▁kura
▁Ahmed
▁നി
▁smart
▁gwa
weni
▁gore
zó
▁yw
▁бюджет
▁mera
▁mani
▁करते
àn
дор
▁Mere
ோ
▁त्या
▁менен
▁בר
▁PP
กลาง
我国
直播
▁tutte
への
vio
liu
CS
▁банк
bang
▁ફ
ᖏᑦ
▁sê
eşte
dak
bie
menti
▁1993
unga
▁הזה
▁खा
▁rekao
പ്
uun
▁platform
:14
▁igjen
突
▁ସହ
▁राज्य
nau
▁voz
▁తన
ಟ
sad
珠
▁bú
▁bá
aro
cn
▁Text
-18
락
▁५
▁ঘ
gs
rer
liste
ሪያ
▁ملی
▁както
τες
▁AP
रो
▁Sad
▁lov
ību
▁koncert
▁komentar
软件
ир
▁adi
cis
会社
▁Anak
▁እንተ
ူ
gum
▁нови
nova
▁बात
笔
▁laat
▁sl
רה
▁ekstra
вен
▁бес
偏
▁nov
ţă
▁pele
dami
▁đánh
ric
kara
▁בע
ເ
▁телефон
▁ንም
▁domu
준
ngi
sing
▁stran
▁Dam
▁свои
▁복
坚持
ped
etti
▁tj
dt
▁geld
▁byla
▁آزاد
▁Naki
▁kecil
▁alleen
▁РФ
면서
mie
▁sakit
▁kör
▁stuff
▁above
▁cop
▁mirë
tut
▁prí
୦
▁maz
ओ
▁office
▁monitor
注册
ọn
▁yana
lain
▁став
nā
char
pod
▁forhold
රු
٣
▁bahawa
▁nueva
祝
▁кога
▁tots
’’
ыми
▁대해
겨
១
▁End
той
任务
▁داشت
▁청
ទៅ
▁お
hh
▁hear
gua
▁Danmark
▁peso
▁chuyên
▁december
тин
▁κατ
▁Frank
▁vô
▁tích
裏
▁kurs
▁ಉ
自身
ларга
acak
нг
жы
ging
uke
紀
▁bahan
▁Arg
▁Ska
▁între
шка
▁voir
▁اش
haus
▁86
▁ant
ዞ
ുക
▁natur
▁Public
突然
▁zelf
▁صاحب
層
▁gyfer
▁अन्य
▁என்ன
यो
▁شخص
ūs
▁कु
▁ឆ្នាំ
េ
發展
EK
ər
rou
▁عند
wm
λα
qq
▁iOS
▁которых
▁lɛ
▁ایم
▁unserer
▁watch
▁გან
▁liste
58
ᓪᓗ
▁hộ
Ъ
чих
▁leis
аны
▁ഫ
▁Mary
▁chí
▁legge
3⁄4
▁28.
њу
▁شا
៥
漫
న్న
逃
ေရး
णी
无法
omba
ture
ップ
રે
▁١
xxx
...)
▁nhìn
▁mong
åò
ае
ሒ
▁كو
ingu
તો
▁бесплатно
مر
ується
▁bắt
:17
TY
▁Yi
帮
pita
寒
보다
▁mạnh
▁ប្រ
だから
maz
公告
▁sign
だと
▁create
▁ביותר
овые
体育
▁ഗ
加入
▁នឹង
▁මෙම
▁fag
▁ung
аж
▁Smart
▁hyn
▁olu
▁basis
▁tục
یف
▁ix
май
ску
ель
▁جمع
▁sotto
▁finne
▁campo
iek
拥有
szt
▁១
▁segundo
ປະ
زی
aires
惠
៖
归
gna
▁σήμερα
▁damer
got
ობის
▁νέα
▁ቢ
町
▁এর
ඹ
▁Ee
▁Sep
▁Ме
▁stabil
▁kũ
不過
▁pis
恐
農
▁참
ด้าน
ाइ
aza
PP
▁كانت
ችን
▁نشان
觉得
ɛɛ
决定
▁будь
twa
▁Nee
ию
▁آباد
▁93
rot
▁recent
▁около
。。
ాడు
▁मैं
▁चल
▁Мар
▁engelsk
▁mikro
健
▁note
мир
▁unor
艺
最后
▁العربية
▁ती
vej
▁Վ
▁हि
仪
▁Dari
啦
▁România
ního
asan
▁Pat
vä
寄
▁ки
▁selama
▁pont
ଛି
▁weeks
▁kanskje
dol
一种
▁लोक
▁Ну
▁talent
午
▁masu
ɛn
▁sui
ming
2014
▁ದ
羅
hab
▁Jahren
▁mampu
▁manga
▁الق
▁mother
▁across
▁kuch
тки
ggi
▁склад
▁luar
▁කියලා
ως
随着
▁nytt
ΟΣ
▁meses
ву
ulo
tara
▁Telefon
bou
▁blive
pä
▁Fr
▁Kota
▁նոր
ดา
▁Ahmad
▁айт
▁dựng
不少
สม
▁ጽ
▁ña
▁Health
▁fut
▁rak
▁chuyển
▁early
▁র
യാണ്
▁Mann
▁unsere
▁Pr
▁ହ
▁Nej
▁fokus
čí
ایی
▁Budapest
狀
☆
نې
▁deel
dang
▁binnen
ᖕ
▁trend
ซื้อ
▁interesting
ít
ецца
▁الح
:11
▁काही
▁uden
繁
aste
૦
方向
лог
▁blogg
▁91
もう
▁Back
િત
宣传
▁membantu
стар
▁karşı
▁پێش
▁บ
▁fix
▁kõik
Ho
まだ
▁więcej
гер
avimo
▁Srbiji
▁خوش
▁14,
โก
là
ék
▁Nou
엔
ppen
ƒ
有的
▁호
▁Mala
▁қа
▁הג
700
▁Shop
塞
▁nghệ
▁AT
DC
▁болады
微信
▁weet
▁ყველა
▁कै
候
▁ឲ្យ
iniai
sser
▁tada
▁지역
▁розвитку
▁hướng
続
▁avis
었다
fon
战略
sya
ds
▁немесе
จัด
ほど
▁dad
▁ቅ
▁alam
ဆို
▁Informationen
▁echt
▁panel
▁zł
▁worm
ԱՆ
42
臺
IC
での
▁drama
▁diye
好的
伦
irt
▁Iran
▁idő
抵
▁(←
推薦
▁tari
▁koba
τη
▁Thr
ými
▁fly
▁ដោយ
▁ચ
vre
▁Add
▁аж
рі
▁않
▁кредит
כם
ица
▁lời
▁jira
▁College
▁solid
▁kopi
▁varit
▁Mun
▁съм
gad
▁제공
▁isto
hd
ร์
▁Trong
▁მისი
▁►
▁یاد
pada
boy
▁stories
▁pasar
ené
▁Elle
ອບ
ables
▁Nel
▁мемлекеттік
▁ମା
▁млн
▁(...)
pm
annya
弹
▁다음
▁1994
銷
mə
пер
▁map
▁num
▁Tot
adores
ጓ
▁ಗ
▁tổ
▁mois
▁daug
▁могу
慢
▁veľmi
▁رد
On
ቱን
Ь
▁інших
官网
▁שלי
▁vitamin
▁Multi
pay
yw
▁està
GO
▁William
▁داخل
▁يكون
၆
▁thứ
▁الخ
▁bes
▁Hat
▁dnia
▁maison
fur
期待
saa
たら
◊
▁bla
▁această
ᐸ
▁nagu
▁Bang
ጺ
κα
pla
되
▁setelah
lly
šte
▁ಚ
▁Dag
積
▁ß
dl
▁gjennom
▁것은
正常
▁bruk
▁vite
▁dalka
▁bố
ینه
▁yourself
▁थे
▁nalazi
▁집
후
▁volna
วง
юць
▁vode
饰
▁ute
વો
जन
▁fear
શે
▁tala
▁87
аа
▁kule
bt
▁ceva
▁gab
गी
▁daudz
سه
නි
▁үйл
ink
ឹង
▁¶
▁abi
▁був
障
ировать
▁қо
▁παρ
▁فيه
lerinin
सँग
hai
ቓ
▁certain
▁δι
▁JO
报道
只能
建筑
മ്പ
▁vast
lal
照片
AH
ating
▁moje
▁cen
รัก
नि
▁तीन
▁kuru
▁doma
▁бр
▁گے
ээс
field
胡
▁prieš
▁pil
elles
▁Fri
宅
AC
鞋
▁средства
▁leer
Գ
▁premi
▁NATO
跨
્યા
▁måste
매
▁innan
▁надо
▁visto
▁ଭ
桃
ëà
▁nisi
▁Ford
▁информация
៣
chy
▁ባለ
óð
▁Mask
▁casi
▁naku
▁alan
▁daugiau
▁μέχρι
▁Бұл
▁ဖ
▁Alla
▁sekolah
勤
laki
erer
▁Oy
edi
▁meet
▁মে
▁Sou
银
ਸੀ
kolo
യിൽ
女子
▁Federal
İN
▁giảm
这里
▁83
ਦੀ
屬
▁diferentes
▁Master
▁wata
▁именно
有人
ᕙ
sio
ίζει
èn
不得
▁faci
▁мора
龍
▁uur
▁Şi
шки
心理
ԱՐ
ches
▁mand
▁alguns
▁existe
隔
ขาย
כל
▁1-2
ന്റെ
▁1992
▁dib
qe
▁فروش
▁hér
▁ይህ
營
▁mendapatkan
▁Hem
▁mb
▁Thai
▁xã
kiem
sız
▁ktorá
ču
යා
▁ရ
ίων
▁tým
▁kudi
chat
▁tüm
▁임
▁HO
▁101
▁PT
ujú
▁которая
▁CE
▁адам
▁모두
▁biasa
▁bha
▁memberi
▁đạo
▁دانشگاه
▁thinking
צה
▁пока
ምን
Ƈ
▁હતી
ತಿ
▁ได้
ované
篇
bli
▁Yn
▁né
浮
懂
جد
▁kont
ał
ധ
ရန်
▁dois
vai
迎
▁bort
ebe
RL
ОН
▁සම
▁ਉਹ
ێن
টো
▁1/2
▁jól
▁Baby
▁좋
风险
ప్
▁تواند
▁değil
بار
rî
▁будут
dil
▁sted
▁después
ሴ
▁dobre
▁sand
kkel
▁nor
▁vele
nél
▁dalje
zim
မှ
相談
载
▁jednom
기를
姿
順
ските
▁Oku
isesti
▁مس
▁season
▁lider
▁beaucoup
▁Haus
เวลา
▁جی
价值
▁travel
เด็ก
▁Uhr
▁gener
孕
▁করতে
ترین
SU
oji
来自
ിന്റെ
▁США
▁browser
▁حضور
▁6,
▁kurie
▁(10
eret
▁wannan
▁ઓ
▁yorum
ലി
▁മാ
ύ
မ္း
бар
▁yoku
ще
ನಾ
尾
▁Note
▁ဦး
▁29.
▁fana
▁йил
▁fiind
▁Kč
rada
▁Bạn
▁सकते
tiva
▁Bak
▁العمل
၂
ပါ။
▁buku
▁пат
▁විය
▁eins
şe
씨
ᑕᐅ
▁Ар
불
▁пер
AA
▁quản
体系
▁cura
▁Eng
▁Find
wit
▁Sang
▁nếu
▁zwischen
▁때문에
▁ста
life
▁Check
▁Nederland
▁հայ
旁
▁अनु
▁يمكن
▁गो
▁OP
▁lúc
ária
том
▁PAS
▁فر
нан
▁관
▁۳
▁ity
▁Mam
ског
▁1991
▁ነቲ
文件
ներին
INI
cr
▁deyil
賣
▁사람
ပေး
▁space
▁Czy
வர்
dai
▁العالم
います
▁გადა
verk
bg
ான
תם
බ
▁sức
▁mesta
vn
▁අප
buk
▁उस
▁మన
▁Bakı
▁busca
▁Richard
να
osta
56
ନ୍
ət
lac
▁સા
▁цьому
▁lok
▁ರ
▁cine
ಚ
▁corpo
▁ond
▁sarà
ူး
ਕਾ
▁kỳ
▁Pay
encia
▁chez
▁пу
▁kemudian
▁barang
▁vừa
LS
lica
妇
▁діяльності
kira
႔
▁8,
▁Mara
험
kis
▁público
స
▁वे
▁좋은
ത്തിന്റെ
▁iPad
ながら
▁nostri
根本
▁juba
▁ಹಾಗೂ
▁شی
тары
bio
去年
▁κριτική
▁kulit
▁pihak
anje
▁Jahre
▁yıl
达到
▁Water
▁ඔ
▁especially
▁sahaja
▁피
ሰብ
овых
▁Aj
▁primi
▁President
▁prezent
蓝
▁profit
kọ
ക്
ែក
ень
పు
kop
▁ايران
നി
▁체
▁Ort
दी
▁DJ
▁sólo
ରା
ţa
atie
بة
▁כמה
ବି
▁Ζ
▁oba
ائي
ின்
▁Gul
Ğƌ
▁Ring
▁trợ
▁GO
▁Vir
ୂ
▁процес
▁جهت
selt
▁procent
续
推出
▁Portal
洛
▁amikor
▁Berg
▁parece
▁known
▁ɛ
▁Най
脑
စာ
6%
▁puta
dun
▁ولی
▁Suomen
ဇ
лення
▁350
▁эди
тің
won
ᓐᓂ
▁آمریکا
▁شب
体验
▁norge
▁अध्यक्ष
▁такой
▁мене
▁tart
ția
▁ভ
▁हुआ
▁சு
▁issue
٠
лиги
▁вода
▁istifadə
UU
▁GI
▁explica
ゆ
ราช
ीत
யை
love
▁cualquier
gem
vano
▁pays
▁segunda
lī
▁orden
mond
ƚ
▁eich
▁Pie
▁αυτά
▁дээр
Or
▁dessa
▁interior
وال
▁білім
▁Ami
▁gift
▁prime
▁hasil
えて
▁клуб
▁audio
▁ഡ
▁dili
mma
され
tään
หลาย
:25
▁Kultur
▁font
灯
这样的
▁79
▁manje
obo
▁doktor
▁сол
▁احمد
ೌ
rí
ур
▁बहुत
題
▁qab
റ്റ
MAN
▁ಫ
uto
甘
▁системи
▁kuitenkin
▁några
▁Baru
rg
ಥ
ifa
▁simply
甜
▁nim
相信
▁अपनी
你们
اي
зу
调查
▁Namun
▁orice
▁include
ADA
▁оно
▁ساعت
左右
銀行
▁nostre
▁يت
▁جانب
해서
▁одного
▁Republike
▁확
▁gose
UL
▁дзе
ngo
▁taken
▁Լ
▁Sama
思想
iju
▁boy
速度
▁đặc
▁Ball
ഡ
فت
ದೆ
▁Kata
mag
▁jenis
▁ہر
ath
▁Make
sul
59
!»
وە
▁lidt
jev
sine
ৰে
电话
促
ຄວາມ
縣
▁법
当然
▁ਜਾ
▁mums
▁Nabi
▁Stra
▁ialah
▁Excel
ោះ
▁ს
▁veldig
▁можуть
▁Travel
imu
▁कार्यक्रम
▁Έ
▁travail
мар
ಬ
▁клас
мон
▁бұл
▁ਸੰ
태
Ri
▁ਮੁ
▁East
AE
ЫН
▁minimum
▁ଚ
▁SK
▁കാ
▁घ
▁फिर
▁―
▁Management
▁trei
Լ
▁ваш
දි
▁mūsų
85
▁eyes
▁lucru
▁മു
▁dre
钢
ように
齐
▁qədər
▁kogu
広
屏
dé
▁novel
Lo
▁ball
▁ні
ових
▁warm
比赛
स्
▁leve
지는
rol
▁Auch
▁predstavlja
▁Gud
宮
▁انتخاب
ημα
▁બે
▁dura
▁국
eniu
mək
lise
နိုင်
▁Nor
年度
▁ሽ
▁Sto
▁tokom
督
spor
ΩΝ
ັບ
建议
leng
mara
▁jūs
▁rec
▁prof
▁volgende
▁abo
身体
lyn
▁bud
бер
▁பா
▁act
rri
▁አብ
▁jim
ліся
íte
リア
ပဲ
▁refer
▁needed
▁första
▁şekilde
▁mennesker
uren
▁зна
臉
సి
購
罪
频
▁Daten
▁kiến
偷
▁bayan
պ
▁sk
▁яна
▁дело
▁гол
▁bør
DD
▁Hvad
▁يوم
οντας
MT
ਮਾ
維
Ţ
ності
▁nữ
▁mitte
葉
▁интерес
റ്റ്
▁rod
▁문
▁hau
▁ഹ
▁Mak
▁הס
▁ਖ
ጢ
tani
Ƅ
庫
Go
▁Est
cum
▁ଏକ
вся
लं
练
無料
▁Musik
▁geri
▁Marie
禮
▁එය
▁ז
kia
ৈ
▁rang
▁کنیم
ങ്ങൾ
▁projekta
菲
▁datos
词
بو
▁vz
▁बार
hil
▁save
▁ну
▁επί
▁स्व
hand
▁basa
电视
ሀ
ബ
액
▁Uni
ဟ
▁1⁄2
▁큰
▁galima
▁derfor
▁عکس
čky
iksi
house
нат
▁uusi
▁Human
▁Amin
కా
▁ល
▁повече
២
ප්
▁själv
rut
sme
▁estão
览
▁وارد
▁человека
理由
▁müssen
▁Vas
▁lê
gaan
▁وفي
▁stre
▁य
ատ
:21
▁식
▁جهان
▁þetta
▁impact
一点
ኤ
▁ቅዱስ
kunata
▁ott
យ
援
▁Camp
▁합니다
၇
는데
▁mostra
▁ల
▁Пере
▁ले
ระบบ
▁тухай
▁Muslim
ירה
絲
▁більше
▁cred
інде
▁wasn
▁بسیار
▁አለ
ācijas
▁ایل
▁Mad
อาหาร
▁кет
▁Door
▁خاص
▁Audio
olla
▁elő
▁tali
▁минут
▁nekaj
אי
หนึ่ง
iranje
tol
▁CC
ാം
1)
جی
洞
创业
▁ਉਸ
▁призна
ించ
▁අද
▁Jack
аас
aine
▁kostenlos
▁biến
tere
▁PARA
▁yok
▁kh
▁зам
畫
ņu
▁После
ชอบ
▁completa
▁ava
▁Has
▁Stadt
▁אז
▁kha
▁إلا
▁tilbud
▁zákon
▁kong
▁author
يون
▁Mart
▁ᑭ
عة
▁болно
ং
▁गए
▁Thu
▁voit
▁rai
▁Política
िया
▁thay
:22
▁mut
▁अव
▁باش
▁մեջ
gha
▁dahil
▁itti
ებული
हरू
▁lập
▁Ég
▁isn
▁oficial
▁ଉ
dze
ൊ
enti
ήσεις
▁ของ
ଟ
▁lid
iš
▁Mc
▁صلى
▁២
▁Nag
▁áll
लि
受到
になって
隐
値
乾
▁६
▁anterior
rif
▁hecho
Die
ಯಲ್ಲಿ
▁Software
▁dupa
یە
▁ვერ
kään
▁වී
亦
横
▁Jesu
▁құ
ικού
▁kaba
▁багато
阴
▁edib
形式
▁حاصل
ங்க
리는
▁üzrə
▁ফ
tana
▁etmək
본
-12
ník
gla
▁जन
▁decir
▁neko
Il
ió
▁15,
▁HTML
▁digunakan
▁wurden
pala
▁death
kirin
mbe
iteit
▁외
▁bolj
▁^^
lash
▁방법
▁omdat
▁vise
▁रूप
▁ವ
违
cor
這些
出了
tela
ឡ
rra
▁culture
주의
▁annan
▁rõ
结构
搜
▁libre
:28
▁едно
gge
▁môže
yal
lk
apos
▁pää
状
▁күн
Պ
تون
薄
▁diz
ských
▁آیا
▁Jul
▁carte
dot
▁regular
舉
▁mutu
▁anders
▁Kong
▁Donald
▁Project
▁flu
席
ቹ
▁watu
سر
▁tienen
▁protest
▁study
▁xây
▁mesto
мін
▁nhanh
۹
SZ
ၼ
▁members
负责
込
▁lwa
▁نە
▁bru
▁Region
liği
ᓚ
ំ
▁већ
ēē
ються
ара
ಗಳಲ್ಲಿ
▁quasi
▁problemas
41
▁loku
grad
acije
联合
祖
աց
stro
知识
▁nende
不仅
ښ
ाचे
เส
Ɖ
▁2010.
▁گئی
▁독
详细
▁Pur
▁درباره
ਈ
▁ก็
▁되
It
ლა
ፃ
▁pit
▁Mehr
▁בש
▁ц
▁देख
▁ciudad
pdf
ັກ
ÉÖ
▁tetap
▁होती
▁걸
▁Times
▁spune
mbu
▁Kenya
幼
▁notifications
▁אשר
▁пет
▁मिल
▁About
▁Grande
▁ദ
られる
▁Jon
▁grote
▁dias
▁Qa
▁meni
殺
▁Kada
▁ему
▁යා
▁skin
▁cultural
▁Liga
特色
▁İstanbul
лом
sies
▁savoir
odd
▁azy
▁16,
ทั้งหมด
▁indi
▁осы
추
▁17,
เสีย
行为
▁לאחר
▁đặt
вод
▁break
▁elke
ється
▁текст
▁таксама
伟
▁numai
过去
lut
ச்ச
▁المت
▁blevet
▁किसी
▁Modern
iꞌ
诚
▁فا
inter
><
ologia
ണ്
▁আর
▁Antonio
▁현
収
▁اخبار
▁waan
▁lille
▁점
▁μετα
▁kunye
▁العام
▁ենք
▁없는
▁jours
▁Raja
▁કર
ಂಡ
inga
▁අය
▁21,
▁suur
▁кел
ыр
▁времени
▁svih
側
喜歡
អ្នក
51
▁mnogo
-4
YS
▁කිරීම
▁phố
ларнинг
▁publik
ชาย
Не
▁име
▁Хо
网友
стер
▁Miss
พา
-8
▁durant
▁nơi
▁Có
IX
mesi
92
▁ET
ណ
媒
항
▁Ons
▁преди
රා
▁מאוד
ିଆ
▁đăng
llo
▁túl
תה
lana
▁창
sə
▁تنها
▁kartu
▁چون
▁network
▁Dj
▁Στο
▁மு
▁OG
erte
Bi
▁agua
▁сама
▁진행
▁смо
▁жылы
ści
▁아니
▁Sk
uksen
▁California
▁ປ
▁hpe
▁akar
ాల
▁guru
ျ
▁saying
▁එම
▁své
▁ris
▁familiar
pes
یوں
▁kein
づ
▁mulig
▁complete
гор
ья
ณ
▁kurang
培
▁Wij
身上
▁Date
นาน
сыз
dul
ਿਆਂ
▁tax
ვის
▁Ά
▁ഓ
▁След
ाला
▁vaše
▁training
▁benar
▁Gly
▁güzel
▁ሰው
▁nodig
nach
▁limit
▁Beste
幹
▁رنگ
▁specific
运动
▁관련
制作
▁pale
-2019
希
汉
剛
ТИ
bla
ði
▁behind
▁човек
ె
▁kost
人が
uch
终
vā
47
▁million
▁awal
▁член
准备
▁sound
▁दा
▁көр
▁ጠ
済
軟
اني
▁SAD
▁rätt
pang
▁Hotell
▁ඇත
▁rem
▁vật
▁Way
HA
覺得
54
是一
▁нар
бай
▁doğru
:23
时代
▁nna
sjon
▁кур
ası
▁meie
▁Ол
桥
▁Ora
57
ᒍ
ಟಿ
▁modul
▁vetëm
anka
ical
వా
▁pool
▁zien
ír
▁čak
▁Who
ñe
▁요
▁الب
▁Tek
ський
净
▁SC
lú
jt
ALE
▁אך
য়ে
▁People
纷
▁acu
▁sveta
ಲೆ
▁පා
▁बना
2013
:18
iba
тов
လို
▁сделать
▁अधिक
▁probleme
奈
AB
98
վի
療
ље
กระ
▁Wal
▁추
壁
▁pose
lərə
ような
▁හෝ
ຈະ
▁bruger
ാൻ
▁Museum
RI
lɛ
▁spill
▁многу
▁való
误
ຮ
bab
ಡ್
▁lòng
發現
▁улс
ঘ
▁până
▁будзе
▁वह
tjes
▁бай
▁tieto
歩
ദ
是在
▁දී
▁γιατί
▁خۆی
सं
▁Law
otto
▁Box
俺
▁restaurant
ระดับ
侵
▁صفحه
▁haqqında
υρ
▁ሃ
▁nincs
ikan
රි
▁վրա
顿
▁पण
▁Nguyễn
生态
▁vaid
▁send
▁בא
▁yap
▁12,
▁Bat
▁Nak
▁быў
▁것으로
▁prova
焦
享受
▁Läs
▁jejich
ाची
dje
ғ
»:
▁szó
▁hanem
▁quindi
уға
▁international
▁Care
▁ഏ
▁оп
▁Civil
▁지난
▁slu
▁aldrig
лов
▁cewa
რი
Դ
čni
่า
ость
üü
ฝ
▁neke
ンド
的地方
▁shop
ସ୍
외
▁mən
▁яких
▁saka
gno
ヒ
edu
▁کچھ
џ
▁ہوا
▁Maj
Video
徐
▁уч
▁gjithë
เครื่อง
VIDEO
一家
▁جدا
訪
ARI
▁싶
▁thích
97
▁Чи
tine
▁yng
赢
目标
▁მას
▁tiên
▁куп
rze
abil
▁ono
ਮੀ
▁¬
▁estava
▁stav
這樣
▁30.
রি
▁permite
▁3:
▁Кон
cco
▁rapport
▁Bed
NH
രി
▁laikā
诉
▁ලබා
▁هە
▁1989
▁akong
▁tí
дық
yr
▁rund
▁дела
こと
▁paket
ân
刑
͘
したい
▁데
▁chứng
▁tuổi
▁채
อา
▁kwaye
▁plant
▁Ваш
▁mise
▁annat
tong
mā
llinen
▁favorite
▁Mind
▁ერთ
bek
生命
ですね
رت
▁þegar
▁Ft
As
ƌĞ
▁mener
▁Arab
▁nærheden
▁वाले
▁kore
zor
▁Carlos
യോ
▁jangan
▁cita
▁Produkt
▁जीवन
逆
ации
▁ደግሞ
так
evi
buch
మ్మ
try
ଂ
▁euros
▁value
▁khai
▁세계
▁ру
SH
మా
77
wie
▁posebno
捷
▁igual
jā
▁oto
록
ե
uza
rul
:12
చ
▁aug
▁Party
рам
झ
LL
謝
▁ڕێ
taj
พอ
▁بها
بل
泡
系統
▁ክት
▁tiết
內容
คํา
▁islam
敬
资料
▁step
णे
ellä
▁افزایش
][
င္း
dığı
lai
▁тоже
MD
unun
▁oil
▁Francisco
避
▁मात्र
cara
▁Questo
▁haya
▁22,
၅
▁hr
՛
ności
vari
▁என
gov
▁Boy
特别
▁суб
▁thật
SR
▁issues
▁recherche
eksi
▁novembre
▁presenta
炎
絕
ẓ
并不
зы
жээ
▁hir
▁ఉ
▁tiba
ship
atan
▁girls
EP
▁nk
▁ajo
rile
▁persones
ію
青年
▁böyük
▁Mga
ವಾದ
▁детей
իչ
▁계
▁Más
▁sesso
▁कांग्रेस
▁sollte
规划
ସି
▁mum
▁מס
▁‰
▁пор
착
▁cari
ச
ขอ
▁Србије
▁akik
▁Word
နဲ့
प्र
ரி
ค่า
▁Feb
幻
改善
रण
▁bann
采
▁طلب
▁Gan
▁크
▁bre
▁berada
rok
▁글
έρ
▁fol
▁yung
leme
tvā
ffe
anja
▁koos
iel
▁Tun
▁ህዝቢ
శ
▁déjà
▁kedua
เอง
▁meter
ome
▁ilyen
搞
▁videre
▁sesuai
▁Một
дам
▁positive
▁begitu
宫
▁staff
นัก
▁dabei
指出
▁Kali
yta
▁18,
小时
▁କି
வா
魂
‐
пе
▁Wil
עת
▁slot
cina
▁باعث
שם
toa
▁cung
▁ella
▁چي
▁může
ową
▁yli
▁Bild
tà
лах
▁Dumnezeu
▁road
ские
bles
kó
▁Barat
▁Meer
▁maybe
RY
竹
采用
▁имеет
ỡ
▁nhỏ
تو
에도
▁superior
emo
▁கோ
戶
cü
乘
▁זאת
Ę
▁здоров
▁makanan
▁نفر
▁đồ
เจ
人们
満
▁애
▁pam
▁چرا
▁Wer
્યો
JU
顔
▁факт
▁celo
▁مش
陆
▁programma
▁своей
▁руб
лися
▁Ent
ັງ
经过
▁role
▁stvari
▁ellen
stava
▁በተ
iyan
沿
laka
▁wish
▁tangan
தா
▁whether
▁sedikit
▁quella
▁bedste
▁läbi
▁yen
אות
珍
ၸ
雖然
▁heç
ိ
▁ẹ
▁Ди
▁thuật
ပ္
▁Nik
▁ON
ৰ্
▁উ
nder
▁Masa
▁مد
▁gjorde
猫
訂
łu
ху
▁vực
▁center
▁Kalau
▁answer
▁guerra
▁목
cije
▁cual
▁kakhulu
▁meine
më
escu
府
▁hotell
้ง
▁gaz
Ġ
quer
оп
▁EM
▁cup
▁był
online
دیر
ଆ
▁amazing
▁nogle
hur
ায়
మే
▁nữa
▁Ova
62
:24
건의
▁miatt
患者
選擇
▁आई
▁mezi
ມາ
itti
డం
▁partie
▁भर
▁ellos
▁mellett
▁Thema
▁images
不會
▁verden
ації
68
▁polis
igt
▁sheegay
▁quality
海外
仕事
▁δε
▁دوم
▁DR
91
▁içinde
▁oka
▁يو
mä
▁ማለት
學生
▁asupra
饭
聖
▁км
▁cri
▁двух
▁mr
اف
▁lloc
Nu
▁ሰብ
▁temat
тон
もの
的重要
mali
▁doc
ovima
▁looks
▁حساب
▁kadagiti
▁pouvez
part
▁Ken
ես
him
៦
▁ໃຫ້
▁이상
)。
لری
▁були
▁equipo
▁bereits
▁jossa
백
▁raport
▁secret
陳
▁sondern
ούμε
SD
▁rien
▁kira
▁nulla
▁tor
▁Ү
▁เรา
sä
▁olmak
▁avut
תו
饮
роз
▁жар
▁fikk
▁нов
ונים
熟
▁nev
nimi
▁ذ
▁सि
▁cut
бір
▁lelaki
▁wait
HI
ecek
69
agem
Λ
▁kole
▁Беларусь
▁Rais
링
ked
做好
▁Fit
лай
▁пак
▁پي
택
▁когато
tsi
▁skladu
▁انقلاب
▁agora
สวย
▁सबसे
saka
▁મો
▁هەر
▁phân
愿
▁жол
ंस
▁គ
ନି
cích
▁pagal
กล
▁tomto
ώντας
lse
ᐣ
▁lợi
head
▁viết
ене
wood
▁јер
申请
▁kasih
产生
ตั้ง
▁අපේ
▁тако
▁hava
dana
▁ዓመት
kova
TB
ড়া
▁vastu
▁როგორც
εις
sze
舒
▁otras
▁valamint
▁arm
٩
▁piano
сен
날
ฟรี
▁bilər
▁teknik
ሑ
▁сил
နဲ႔
▁suite
เจ้า
Ν
▁kino
分钟
анд
▁ő
gga
▁perfekt
▁וי
▁سفر
▁ទី
同時
▁води
▁effect
▁또한
▁گرفته
அ
bí
tip
ുകള്
너
▁două
网上
▁Pedro
少し
▁추가
▁eva
▁ټ
رى
民族
▁када
հ
ව්
事情
ओं
ճ
▁Lab
തു
▁قر
▁ኪ
▁റെ
▁Му
ამ
▁одно
举行
▁היו
wing
ᖁ
▁cos
▁xu
тік
▁31.
台湾
▁Kau
ران
▁Kaj
▁ಅವರ
ški
▁gjitha
▁نسبت
購入
kw
刊
▁quel
▁putem
โล
▁همین
▁район
INE
▁sabe
新聞
▁phụ
▁زیادہ
නු
ावर
▁İş
▁люб
)،
▁Glu
▁պետք
ებით
itt
isiin
▁bike
▁bul
siga
▁οποίο
超过
▁weil
▁바랍니다
▁ጉ
▁touch
▁zákona
▁уу
GP
▁بہت
iger
及时
▁management
เด
▁către
▁heard
▁ضد
మ్
逼
စ်
▁livet
dri
▁Natur
乗
駅
аць
▁(18
ાય
结合
年的
環
涨
▁Bali
▁چین
▁anul
仕
ір
▁Kri
相關
รูป
関係
方便
▁darba
▁mwaka
▁عدم
▁running
ախ
mene
▁وزارت
▁illetve
▁kojoj
▁inside
▁stata
▁پھر
kaz
▁Bala
مل
貼
äè
▁qualquer
▁kadi
eja
▁uga
群众
▁ନି
▁၂
▁walk
▁Kul
艾
携
ティ
▁ඔබ
▁bri
Lu
▁vaikka
انو
▁የሚያ
ワ
ത്തിൽ
▁들어
▁USD
▁ISO
gul
▁palju
tais
▁tarde
וז
▁결
▁kalo
▁тези
▁Ча
▁Mul
▁Rus
سل
▁عرض
▁ennen
▁1500
▁possibile
▁czas
بت
ፀ
ほ
eho
▁تاريخ
▁gram
▁BMW
वे
▁stati
nama
▁Nike
▁frente
ської
▁շատ
▁stan
kari
▁Apr
▁nešto
▁හිත
曼
▁GB
▁പാ
بی
▁unos
ότητα
fir
út
磨
▁Είναι
misel
▁inay
▁материал
▁ध
▁지원
▁सेवा
▁курс
▁Spring
成本
▁personnes
light
MG
ონ
▁organiz
▁لەسەر
▁alto
▁הק
fix
▁لێ
▁գործ
▁ešte
čke
ाचा
▁livre
ազ
▁орган
万元
▁ис
▁اثر
洁
遊戲
ສະ
▁κάνει
▁nini
▁bord
ումը
ttaa
▁نقل
▁arte
▁seria
败
▁ਕੀਤਾ
▁mô
▁fase
▁확인
▁حول
▁Bob
ларини
▁رہا
sso
Ĩ
▁Ի
然而
▁Bag
▁평
▁کرنا
▁olika
▁하나
▁forte
ohen
▁Finn
▁opo
▁nawet
▁‘‘
一位
ари
▁ką
▁날
้น
fit
KU
іне
▁৩
▁Have
▁לכל
íî
లకు
ช่วย
▁ଶ
isce
▁Side
▁tt
▁Quando
ල්ල
▁mentre
vala
:40
억
▁senior
▁버
టీ
ized
▁States
燃
▁verdi
虚
zes
▁nguyên
▁Duration
▁nee
プロ
축
▁вопрос
▁информации
ਵਾ
čne
VR
▁mele
ghi
Ց
쪽
ांना
▁Mama
owi
ਏ
lerde
ან
NS
▁զ
▁договор
▁иш
rov
бі
▁रहेको
伯
▁Você
ੱ
▁TOP
▁директор
ੋਂ
▁Milli
▁вона
эй
▁huu
▁update
ера
惑
НЕ
ebi
▁thanh
▁ສະ
ones
ቸ
date
▁هی
▁څخه
ふ
▁части
转载
ével
▁😉
ੌ
ᒃᓴ
との
▁phục
▁mengenai
▁decided
khe
▁zile
大会
▁zone
▁जानकारी
▁zelo
▁पार्टी
めて
ధ
▁Aan
▁finner
ವೇ
mada
▁six
yet
кле
ță
rl
展示
▁მათ
欢迎
▁focus
engecho
Am
▁पी
ेल
▁বে
▁Hồ
▁लाग
সা
こう
▁6-
▁ያለ
▁לפי
▁staan
að
责
▁mahu
블
鮮
Ꞌ
ئر
▁giorno
উ
▁előtt
▁mung
cil
▁mort
Ư
▁લ
▁kategori
angan
土地
恶
▁πριν
чен
एस
▁diện
▁více
▁feeling
EA
▁Nar
okkal
▁munka
証
god
▁rett
▁BU
ナー
▁тэр
яз
▁hoteller
</
▁विचार
js
כן
▁سم
çe
女孩
▁contract
▁dnes
acji
▁realizar
ள
▁pani
▁performance
少女
▁Samo
ifi
▁бўлган
ኦ
▁Kosovës
▁current
:13
ต่างๆ
आ
uru
▁drog
▁države
▁waxay
టు
▁dalle
▁ਇੱਕ
▁cél
feld
▁vårt
▁macht
▁professional
獨
ଡ଼
▁aceste
rita
رز
▁Standard
ኹ
▁works
▁Monte
▁ք
▁۴
▁Více
āk
▁mellem
▁thủ
▁written
▁estat
▁1980
▁Ano
▁байдаг
▁참고
▁chiến
ALI
▁ευ
ÚU
eres
3)
▁փ
▁صدر
▁zurück
él
▁dark
▁tych
UT
jus
▁Vin
▁jums
фи
nite
しか
▁ត្រូវ
▁client
▁Како
pek
▁характер
▁primeiro
▁sigur
ξη
▁Juni
播放
圣
浴
Ya
▁kirja
atur
担
பி
▁Say
▁salon
яване
▁Games
▁حسن
▁autre
▁Simon
▁kommt
ЛА
摸
▁lassen
▁ژ
ን።
مي
tage
drag
▁newsletter
▁वो
▁products
ባት
▁قرآن
▁खेल
သာ
纸
▁obraz
论坛
バー
▁pergi
esa
150
qo
迫
腹
익
▁invest
▁παρά
ores
▁chaque
5%
刺
▁kê
▁Ор
:16
▁номер
▁Kala
▁Bus
▁IL
▁kleine
шу
▁Mali
לים
ଲେ
▁tämä
時代
▁haft
oedd
ъл
▁Гор
öl
▁ል
96
深入
▁บาท
▁kle
▁anima
▁jää
识
zni
istes
EX
▁جاری
▁ٻ
▁magna
▁Sho
▁محل
▁ہوں
▁ዚ
zd
▁màu
ller
▁(+
tata
▁veliko
lou
▁usar
扬
राज
▁onye
▁Unter
▁¤
ᓐᓇ
▁शि
색
▁belə
kod
▁Saat
▁1970
▁一
▁}
▁Milan
▁않습니다
▁zaradi
表现
sent
▁isaa
▁แล้ว
▁Rose
რა
上げ
▁Luis
▁مناسب
现代
▁♥
▁AF
僅
▁конкурс
▁Geld
▁گئے
▁лі
нее
▁toch
▁tỉnh
kirja
ibi
เบ
ώς
還有
КИ
▁работи
डे
tı
רת
으며
llen
กิน
="0"
涉
一番
ائ
মান
mez
▁verk
ስተ
▁ose
61
▁això
▁internacional
▁cât
▁dol
▁Sai
▁rejse
ກັບ
ilta
▁fla
ُّ
▁naam
▁কে
ηθεί
▁Visa
ální
ђе
▁μη
访
▁mea
赤
▁számára
▁30%
▁bakal
荷
ଠ
▁wada
cov
▁Fun
гон
▁Poli
▁यस
tiga
▁ΚΑΙ
▁סי
▁zoals
ટી
дын
▁annet
رم
дай
▁שם
▁reserved
▁कुरा
말
▁բոլոր
▁pages
▁eivät
▁Australia
▁kuko
▁Tv
▁faktor
▁tidligere
▁તમે
▁څ
▁Partner
Pre
▁mukha
▁ถ้า
▁כבר
▁significa
ብል
▁spielen
教学
▁další
▁triệu
▁ahol
รอบ
radi
tɔ
▁complet
▁tried
▁Brand
nai
▁professor
▁forward
▁သူ
▁машин
តែ
페
▁kodwa
קה
▁viser
▁Story
лары
重大
▁сейчас
ymi
ાઈ
融
كي
gif
Privacy
▁емес
▁назад
▁đình
▁រ
▁paa
ansa
лей
▁hoje
▁hra
▁wê
▁고객
安排
驚
▁שלו
tee
▁amat
特別
▁ھ
เก
աղ
สามารถ
▁edən
蘭
▁ін
이라고
ND
句
RU
▁gun
pé
ает
▁ସା
▁ನಿಮ್ಮ
▁shu
ออนไลน์
▁altres
▁دیر
foto
▁아이
نة
▁Sab
▁pensa
检查
▁Bou
▁oi
¿¿
▁irratti
▁أكثر
θηκε
▁сан
ဏ
▁здесь
lä
▁తో
▁velmi
▁കു
▁title
▁avere
▁стандарт
▁filme
▁ኢትዮጵያ
▁Už
cari
ਥ
▁Baş
lichen
▁rent
▁outside
nike
ትና
▁regional
▁kjo
▁ड
▁게
▁Jalan
cja
▁รีวิว
▁කැ
▁سطح
ovala
-6
ешь
▁Shu
▁ඔහු
jel
سان
▁possono
▁keluar
▁пара
langa
ኳ
▁̋
▁असे
મા
ät
Ad
▁Gli
▁luz
▁10-
สาย
▁ultra
▁लि
巡
▁kuku
▁다시
DP
▁Harry
▁sillä
▁lam
▁შ
▁blo
▁امریکا
▁komt
▁amar
▁भन्ने
▁privind
▁doctor
ಲ್ಲಿ
▁Ад
εία
ဦး
▁ես
tten
ชม
▁Dha
▁DC
lice
▁Ook
▁Joan
隆
▁שלך
ిక
▁dd
▁Uku
sir
秒
HU
كار
▁ګ
nosť
anii
Ga
είται
र्स
▁vár
▁మరియు
▁olo
▁namun
习
▁яв
eza
願
たい
ራዊ
BB
▁σκ
▁سیستم
Ro
لان
▁bajo
阻
を見
জা
▁آج
▁zen
//
▁contro
▁drive
▁කො
欣
▁derechos
▁rehetra
mber
NET
jë
rica
ік
▁2.0
▁মো
ᒋᐊ
▁проти
વું
▁لكن
▁koi
ගෙන
iam
bri
▁lin
osios
tw
key
▁ghi
▁먹
▁police
感觉
地址
ുന്ന
▁โรงแรม
▁denn
▁Wall
దా
▁hafi
植
43
89
ႈ
bert
ох
율
▁vrijeme
▁निर्माण
obra
ท่าน
▁क्षेत्र
▁Santiago
▁Teil
姆
賞
ನೇ
▁пам
整个
集中
▁grunn
许多
▁Lys
▁შემდეგ
促进
机制
▁Sat
▁darbo
▁informazioni
အား
ith
保证
紙
缓
のか
▁કોઈ
▁اجتماعی
чі
ського
▁Υ
▁machine
arta
▁மா
▁cover
▁буй
free
ès
၃
إ
▁passar
mista
链
అ
lj
▁Light
▁форма
▁Ind
вала
▁ניתן
教师
▁individu
ζ
ለን
▁stare
향
▁muut
▁været
▁hoc
OT
▁الج
盟
▁sektor
▁basi
DU
▁ils
ciu
ប្រ
posta
ົມ
2009
vien
▁.....
ֆ
rent
령
▁grave
గ్
duk
▁गई
lín
ဖြစ်
▁били
▁sydd
▁Mod
▁була
▁Kalunga
▁טוב
యం
DY
кс
▁vend
▁TM
dara
نامه
據
▁foram
▁adipiscing
▁lives
▁होने
nių
imiz
▁სხვა
ਦੇ
▁איך
TH
▁트
▁kuni
▁ଫ
▁kontra
ович
重新
▁ofte
▁▷
ithe
זה
iske
▁signal
uw
riz
າຍ
zna
▁لت
IE
▁budget
ref
▁Ք
त्र
▁paga
▁მა
▁форм
වේ
▁sát
lun
▁ಅವರು
▁(9)
етін
kach
мал
ತ್ತ
ໄປ
▁knew
될
▁chose
▁Natural
▁dung
▁kép
hna
까
▁автор
घ
▁ము
▁Daar
▁ժամանակ
▁lat
▁Thi
ery
gay
▁هزار
▁ဒီ
▁ඒක
▁105
שה
▁2017,
▁ersten
▁LU
▁Code
IK
ಲ್ಲ
倫
稳
ಪ್
ებში
▁ši
owane
▁outro
▁teda
Er
写真
76
▁våre
▁tapa
้า
▁prim
ৰি
▁чу
桌
իս
▁دوران
自动
ongo
▁qarşı
▁near
▁استان
鸡
複
▁الموضوع
▁hall
▁Portugal
▁ï
ΤΕ
▁humor
▁eus
ിലെ
uur
▁ସୁ
िन
PG
മി
▁drugim
関
妙
▁Kel
▁яе
▁khí
έ
ston
ातील
的新
สิ
తా
▁มา
▁puis
▁klas
▁List
hora
過去
▁산
ларда
▁χ
▁kuat
▁kvinder
ո
▁Ý
▁እንዳ
rú
▁ricerca
▁Є
නේ
▁tir
▁මහ
▁වැඩි
pari
▁august
เห็น
▁cosas
پر
▁manier
▁đa
▁Vid
оқ
大學
යන්
▁systém
▁총
自分
ovou
▁Act
▁policy
êà
ească
হা
lev
▁Še
ינה
/3
hold
的问题
▁ακόμα
▁kompleks
▁찾
Ex
▁option
កម្ម
Qué
RP
▁Eva
▁Dir
▁seem
ത്തിന്
hé
▁yol
▁23,
सम्म
ILI
▁Ша
▁addresses
▁Efter
▁hata
szy
습
貴
▁پو
▁irraa
▁가격
liwa
ตรง
れた
▁dne
措施
雲
처럼
▁5)
sla
dora
singaw
cle
▁hắn
▁chun
ье
▁Album
▁fél
nnu
бра
▁neuen
腰
▁ایجاد
▁kwamba
даа
▁όπου
▁depan
▁langt
▁ɓe
▁deja
ché
ghe
監
▁ஒ
▁porte
tav
ș
▁poker
▁হা
▁Friday
Pe
庆
vent
筆
▁Iš
▁bou
▁milyon
▁هدف
атор
وز
nca
▁ν
怎麼
მე
紫
▁kos
▁prvo
▁sot
σης
ਆਂ
ANA
રા
▁αφ
ิต
▁υπάρχει
ttiin
▁kamp
ଡ
íå
完善
なんて
คิด
vela
adó
▁hjem
区域
sund
▁학
ີ
వు
مین
▁Съ
▁smartphone
ούνται
:35
启
▁اف
CK
▁כש
▁apoi
▁مطالب
擊
晶
前に
▁שהוא
▁ново
entes
▁potrebno
▁held
▁Ру
一樣
down
▁okviru
▁پل
▁তা
▁శ
ග
شه
▁ض
▁Га
▁3000
ajā
▁יו
▁pap
▁mencari
lg
我们的
遗
ระ
▁obi
▁kulu
결
▁proceso
▁බල
imą
ደር
▁יכול
▁Charles
дел
▁dzieci
▁badi
▁tə
▁kraju
兼
くらい
ஷ
今日
kant
UK
▁ос
储
▁কথা
▁повеќе
▁sara
▁света
▁انتخابات
行动
범
▁oggi
ング
▁cent
lini
нар
▁विश्व
▁spe
▁hali
▁UM
▁Sony
рок
▁Пе
▁гэсэн
ǀ
chan
▁문제
Wa
hra
▁lainnya
ierung
▁Porn
▁какво
▁FI
▁truyền
▁რაც
▁dies
▁NG
DL
▁press
eń
高校
▁عمران
▁객실
これ
පු
▁página
收入
▁guy
▁questi
談
▁ilmu
▁wol
▁εδώ
랑
▁Musa
▁giorni
ľ
▁متعلق
▁altijd
▁પા
")
ľa
▁wakati
Tak
▁kapa
▁또
lei
‘‘
▁थिए
டு
▁poti
▁организации
ण्ड
lock
▁নিয়ে
cra
კი
▁सुन
执行
2008
▁වේ
gata
ผิว
mn
▁ແ
ΟΥ
▁жаңа
▁Leben
▁clar
handel
▁rot
▁उत्तर
▁ብቻ
▁konto
▁всё
▁ຈະ
▁അവ
▁жана
▁îò
▁sulle
▁cit
ရွိ
▁zemlje
wil
▁Ní
▁जाता
▁danske
อง
ชา
▁nesta
▁сарын
лт
▁пост
▁제품
券
ਫ਼
stru
▁google
ums
▁memper
เค
▁Pris
▁sendo
▁Mos
avat
▁ஏ
ûí
▁කල
▁saját
BI
期间
▁жи
วา
▁yaitu
iadau
▁experiment
▁lua
▁među
eꞌ
▁Call
▁goes
ちょっと
▁వా
For
▁ಮು
▁jut
▁태
工具
▁pá
▁ค
澳
貸
чат
▁അത്
▁পর
කර
edig
ေပး
▁Pil
▁twitter
▁افغان
лин
▁आपको
teil
há
▁Аз
▁songs
▁depois
▁पद
▁ثبت
▁улсын
tér
▁යන
▁hết
:26
ကြီး
▁verder
mpi
ತೆ
▁kendi
1%
▁1988
▁While
▁nosso
▁heute
▁fim
වල
▁Server
▁ហើយ
▁ਇਕ
▁ราคา
▁decât
glas
▁sĩ
ơ
ኩም
比如
▁دوو
另一
èí
▁गरेका
▁suatu
koli
▁올
service
მო
▁кан
▁змін
ຸດ
ผ่าน
▁ഒ
▁ПО
▁AND
▁مصرف
▁Të
▁হয়েছে
▁keluarga
▁liten
▁παιδιά
▁سیاست
▁gây
▁circa
▁Δια
▁виде
Ɓ
▁Edition
mod
▁fata
▁Promo
▁mineral
-17
▁Job
TU
充分
You
ਭ
▁attention
▁prati
▁ways
▁تھے
主席
▁cảnh
▁moo
kil
izi
があります
XE
▁serve
▁fik
aru
िका
挂
帰
पा
स्त
DK
▁चुनाव
aju
협
▁aunque
▁sec
اج
▁ilang
ៈ
▁ас
▁نشر
▁five
▁вэ
autres
▁үй
▁longer
بي
▁tượng
▁ավելի
▁овој
讯
映
▁फिल्म
cik
▁common
→
prav
▁celor
íà
ake
▁recursos
ková
▁annak
▁kuid
chö
▁करना
긴
▁लेकिन
skej
▁සිදු
▁болох
▁CS
▁moj
看着
گي
:27
▁programu
悪
iny
尊
ลด
ග්
▁shows
ácia
▁blok
▁ještě
▁upon
▁əsas
qué
52
▁PH
उ
資訊
▁kyllä
▁dich
▁yazı
ելի
ovanje
▁zem
▁تح
-30
67
▁personer
▁ᓇ
▁ਨਾ
▁ਉ
ṇa
▁ps
通知
इ
▁waka
EY
ции
ژ
亂
yaa
▁primeira
▁Network
ssi
mica
▁مە
omu
tır
▁jamais
punkt
▁மற்றும்
男子
▁celui
초
tico
ళ
▁önemli
▁تعداد
▁дали
cell
้ม
ূ
even
UR
lərinin
▁autem
勒
盤
▁tiga
▁luôn
▁друга
पर
ต่าง
▁Manager
നെ
είς
▁building
teng
▁Ло
▁nghiệm
▁Rak
▁sasa
▁ži
▁þú
లే
tama
▁Æ
ገባ
▁možete
▁Tämä
▁coup
などの
吴
▁ļoti
▁فيها
тын
▁тым
▁jiru
▁vivo
ving
▁göz
▁lati
स्य
妈妈
▁بلا
▁baa
下的
▁ई
をお
vina
都不
▁بند
▁vidi
▁кино
▁development
▁Amsterdam
▁jusqu
▁خوب
▁Ś
付け
晓
eer
▁ಆಗ
katu
▁pick
మి
授
лын
推荐
幸福
▁brug
▁studi
▁mogelijk
▁aap
▁minutos
▁sm
▁eks
▁दिल्ली
▁бел
▁Они
▁januar
ubi
לא
cut
▁dato
rlo
▁dazu
ள்
▁מר
▁OR
▁Version
▁visu
▁пут
sje
▁ramai
▁Two
渡
▁què
▁force
▁Escort
ติด
▁dam
Ca
▁نیاز
考え
▁havia
▁చెప్ప
▁ئێران
Ɔ
▁đưa
▁chơi
▁reikia
▁हुन्छ
cl
▁стоит
근
▁halv
▁ପା
▁RO
szer
asti
▁sorte
▁sest
chten
扣
ประ
▁uy
▁cứu
üm
▁precisa
▁Шу
▁ára
▁لن
53
戴
ุก
▁regul
▁giáo
ંગ
tè
▁ড
ýð
邮
กําลัง
ddi
ංග
自分の
קים
kı
代理
สุ
▁koliko
ИН
▁아니라
दार
ንም
тал
ុង
yk
ntar
jük
족
社會
▁Dec
tila
▁language
▁програм
▁lume
▁hd
▁chung
▁אתה
▁ಕು
▁μέσω
一天
▁elu
▁pouco
tada
Ŵű
▁gc
▁Key
யா
▁2,5
▁서울
而是
▁naki
ttä
ولو
▁exemple
ंत
▁juu
▁chce
deki
פת
থ
▁همراه
▁ды
▁сто
hara
▁produce
▁Search
▁қу
창
▁לנו
ាម
▁Continue
▁siste
▁’’
ATI
MM
:50
沈
阅读
▁która
ार
フィ
▁wrote
▁bahasa
▁Kunden
misen
ките
દા
▁مح
득
瓶
ws
▁gøre
▁tačiau
▁चा
▁ذات
▁ጉዳይ
했
卷
:29
▁потом
чна
▁жан
▁kiện
ଙ୍ଗ
▁dike
▁bỏ
▁deal
റി
▁nn
גן
▁meta
ība
險
าน
ライ
▁റ
▁čia
▁absolut
บาง
UD
eit
લો
▁Bình
▁సం
▁ihn
为什么
▁оның
▁ٿي
▁ຊ
▁bởi
▁દ
ац
▁tare
核心
bach
šo
▁boek
▁中国
▁기술
tty
▁Без
▁processo
ジャ
▁seiner
taq
▁nhiệm
òè
▁tuleb
▁Bitcoin
point
▁اساس
▁많
でしょう
dama
▁mim
▁postoji
ելով
那个
▁Municipal
ёт
▁afin
▁nossa
▁jonka
▁huo
્ય
▁lig
ĕ
▁México
manta
▁tadi
▁olaraq
▁nélkül
▁Sko
bona
樓
رس
とも
ちゃん
▁నీ
yti
vana
▁Роз
▁cómo
ၿပီး
▁pasado
▁Guru
▁Novi
Ch
▁ним
hn
ství
kak
ၽ
병
син
▁小
▁stock
ៗ
쳐
▁±
▁reservados
▁দু
そんな
▁cinta
▁semakin
▁subject
▁Romania
program
dung
符合
▁Không
▁cidade
▁Bul
▁koristi
▁terbaik
▁bland
导致
▁Bh
đe
play
▁možné
tega
调整
▁جه
▁vene
जा
▁nouveau
ward
▁devam
▁زن
▁among
構
▁timpul
år
ልና
รวม
▁nuova
▁Stan
ମ୍
▁Joseph
TER
办法
檢
skoj
▁Lit
GS
ισμό
▁Hij
▁Mare
▁niż
够
▁kunde
▁besten
▁곳
▁مطابق
reiz
▁رئيس
čno
▁Mid
رات
teur
▁oz
乎
階
biri
gwe
▁thư
బ్
ላት
▁тех
▁ព
▁بررسی
▁vale
▁मह
▁UE
▁import
中文
▁diesen
▁담
▁900
▁WhatsApp
▁luận
▁căn
▁energy
▁więc
跌
▁bà
▁chuyện
程序
900
▁3.0
▁भा
ización
意见
▁natura
▁egész
▁musik
▁राम
▁kri
▁sistemi
▁kvinner
▁ኮ
▁skr
▁170
awan
kita
▁idee
▁די
ၾက
▁Đại
▁quali
▁város
▁Μπ
▁doua
英国
າດ
▁musí
sala
▁Mars
ossa
work
โอ
▁pagi
ują
▁dhi
▁neće
٢
▁رئیس
▁없다
▁sicher
▁bog
▁vodi
▁Бар
其實
ใคร
▁eden
home
▁reply
▁outras
▁stol
▁wind
ജി
nù
larından
llu
▁Happy
nor
▁என்ற
▁mám
▁بێت
രു
▁көп
พร
투
無法
alam
അ
▁tara
ଣ୍ଡ
ـــ
हा
▁Use
цыі
▁aange
▁Mix
▁Hill
▁heller
▁लेख
ender
公共
▁gị
▁từng
lima
▁menarik
bela
▁하지만
▁눈
ћи
šana
Ξ
พร้อม
▁Reg
▁Christmas
▁proc
▁하고
WI
▁ಬಿ
劃
▁tata
тка
եղ
ږ
▁خانه
▁cazul
▁ناو
▁Kunst
dien
ज़
larla
▁ildə
▁proto
ishi
ней
enze
saṃ
▁системы
ây
▁diễn
▁terjadi
多年
▁AV
▁ike
▁Ef
规模
▁الغ
▁sposób
▁Special
▁moda
▁dello
▁ಜನ
rung
kā
ុំ
cks
مة
ვ
▁हुन
▁div
lej
utta
▁firmy
▁drie
نس
▁сега
ชื่อ
Ր
ண்ட
GI
穴
▁일본
▁strong
בר
▁diğer
zal
▁error
▁કરવા
▁Ту
▁posta
▁Ober
ojn
AV
▁য
▁внимание
▁mpo
▁토
yong
▁тип
▁spam
/6
baba
人物
▁lupa
▁LG
لیک
設定
▁Total
镜
▁yin
▁þeim
▁والا
▁جواب
spel
ууд
▁ਪਰ
imento
ème
▁газ
▁kli
▁guess
bé
赵
▁должны
▁جديد
илган
登録
▁kuva
nī
▁servis
▁Spe
▁ਗਿਆ
▁😀
ήματα
▁నుంచి
▁τόσο
▁stesso
▁설
▁paz
ทําให้
رد
カー
▁compra
▁bí
▁गा
ização
▁הו
၍
▁gør
▁Amar
тра
ର୍
▁연구
▁När
▁จะ
▁ਤਾਂ
辛
▁શ
▁dollar
▁Pet
▁teng
▁сви
aeth
pping
▁Eli
▁Är
投資
▁gh
運動
કા
▁každý
▁kurz
肯定
不好
生物
iq
▁menga
remos
▁OM
▁עו
yè
▁steeds
▁ар
ို
▁දින
▁punt
ຈາກ
輪
inger
ായി
CR
ERA
▁веб
ját
杰
▁선택
SX
▁більш
▁Văn
▁rendszer
▁haj
ába
ուր
▁วัน
的時候
▁places
▁riba
ാല്
毫
▁ukuze
▁Pon
mul
ajiem
▁igra
▁secondo
▁recht
▁instead
娜
▁wonder
▁ڏ
daki
带来
▁analiz
ța
▁একটি
▁área
▁(10)
烟
保险
ιτ
团队
PD
▁morte
▁دے
ျဖစ္
/4
▁часа
▁quien
拟
触
▁შესახებ
สาร
ロー
▁дітей
іх
ไหน
▁Bila
▁temperatura
▁пример
mään
束
智慧
抢
▁kaki
▁osób
ики
▁ве
▁Pres
▁Hus
vest
▁hát
gger
▁дар
ųjų
ток
▁тест
vita
▁پہلے
▁Thông
▁cerita
▁ខែ
นํา
▁făcut
١
▁olması
▁області
yya
▁гу
рат
▁Má
▁ቤተ
وش
▁Costa
▁spille
Fa
LAR
▁ممکن
hak
べ
▁Tako
ঠ
ፌ
▁edi
▁henne
hod
bs
uzi
tár
▁papel
board
▁ready
ово
描
犯
▁Magyar
▁जाने
▁mamma
71
▁Jer
▁qaba
٥
▁בי
▁bàn
▁participar
▁mindig
▁Khi
▁ਪੰਜਾਬ
idas
▁lya
ży
ლო
▁vuoden
জন
game
▁ayi
rti
▁Theo
▁레
PU
▁Alex
אל
▁nové
▁उनले
以后
sig
ुन
Mer
▁ಸಿ
▁lisää
vě
▁automat
▁இது
彩票
▁late
▁път
▁छैन
▁прави
mot
ηση
▁Terra
▁१०
▁ένας
▁doit
▁форум
lb
▁Juli
ík
▁විසින්
ONA
വര്
▁kommen
hti
▁қазақ
পি
ΙΑ
pul
▁நான்
▁קו
▁asemenea
оо
මු
▁cream
▁lekker
▁kanske
ส่วน
广告
Ru
kay
▁بير
▁(0
▁الد
▁Bit
inį
▁2009.
▁Ven
▁ህ
▁දැන්
▁rakyat
Mat
▁اصلی
мор
▁свят
ழ
▁많이
ຫ
贝
人士
▁mane
IM
ണ്ട
ଲ୍
bbi
针对
ため
▁których
朗
▁berlaku
wọ
▁تش
kie
▁hands
tec
imh
不同的
▁cyn
▁promo
onde
▁realiz
▁themselves
▁చాలా
ЕР
▁kru
▁tah
▁مقاله
▁واقع
enden
▁тях
▁Gro
ላይ
▁Пра
咨询
mona
три
IZ
▁Jones
▁सकता
jući
ಭ
▁работ
ged
250
▁ñî
เปิด
▁(6
‫
▁220
▁svim
▁Company
ใส่
▁Ovo
▁îi
▁చేయ
يع
▁rezultat
▁learning
داد
▁जान
▁قتل
似乎
▁Chính
▁যা
▁فه
ιν
▁bali
▁pure
вали
▁Tahun
jit
▁hỏi
eth
▁lost
▁стала
거나
தான்
ило
籍
朱
▁大
လဲ
▁osoby
▁instrument
لام
sina
▁kĩ
real
▁atsi
▁interesse
▁pravi
▁XXX
86
▁ging
erende
▁تع
ёл
▁govern
ાં
แห่ง
▁picture
人は
▁punya
▁сезон
▁urma
News
▁услуги
▁دون
raf
page
дзе
১
▁gamle
▁Ly
▁Jar
ਧ
ष्ट
its
120
▁würde
rete
▁Person
▁اسم
▁cổ
▁honor
▁ekiagera
▁sentido
Th
AG
▁AA
▁gần
▁metod
▁quale
▁sede
ارت
再次
▁adj
୧
Bar
消费
kazi
โน
ORG
▁Bilder
▁교육
▁ажил
umo
ಕೆ
▁completo
庄
▁®
▁වගේ
sut
▁مسلم
▁ሁሉ
▁وقد
low
вор
▁Rama
▁2008.
坏
▁thuộc
結婚
text
▁member
▁koska
▁ją
ഡി
▁verður
▁gusta
▁કો
怒
▁takes
▁точно
▁qəbul
▁순
หลัก
ील
▁aw
ɔɔ
yên
ugu
cə
▁suma
▁tərəfindən
場合
▁ჩვენ
▁olub
患
ували
▁Durch
▁قوم
My
押
弄
있는
▁politike
된다
▁thanks
▁tut
бат
干部
ざ
fik
顧
清楚
bali
▁सब
рд
▁however
iş
▁visual
ues
▁რე
▁מא
▁sla
ţe
▁مرد
ĞƐ
øy
▁pek
医疗
syn
өө
▁מש
▁සං
▁banka
▁atât
▁último
legt
ேன்
big
▁wò
▁ком
āḥ
▁وار
▁օ
▁projet
▁klein
▁작
基础
anne
▁Sign
atra
▁servicios
▁Karl
▁character
▁vot
Anmeldt
▁PRE
▁jauh
dari
▁servicio
яў
▁vre
档
成果
maktadır
亿元
▁nouvelle
sah
▁უფრო
plat
▁720
pai
▁ዓለም
▁minister
▁wer
▁لپاره
اتی
cent
oca
νε
▁часу
▁მის
bane
▁Indian
คา
دى
▁адрес
宋
冒
FR
▁жас
UA
▁أحد
▁sätt
▁OB
▁ζωή
▁Milano
ใด
KK
emi
▁კა
▁termasuk
न्स
▁Manuel
▁casos
▁운영
▁होगा
▁절
oria
传奇
▁Ray
▁Кар
▁father
▁새
mpe
மை
IR
DM
▁Nei
ias
▁1985
▁våra
àõ
▁muchos
ារ
▁looked
▁baca
值得
ဆုံး
▁green
šti
▁court
nata
ox
▁kaufen
▁political
▁Raya
▁celu
niku
ିକ
吹
ஜ
pho
독
▁máis
▁باشند
▁добра
▁postup
හි
损
>>
▁oltre
▁Director
▁SD
▁yksi
uba
▁saam
▁kuya
▁теле
▁ita
▁cửa
▁gdzie
dela
大量
▁तरह
ದಿಂದ
▁wife
▁nuestros
aad
▁tê
▁яшчэ
▁Người
▁îl
▁зь
ΕΙ
▁Pakistan
াই
成為
illo
▁jie
▁មួយ
ッチ
fla
▁Yan
▁भाग
δια
郑
▁personale
▁governo
ww
ෙන
▁برابر
▁купить
▁Minden
နှင့်
▁sesuatu
LER
▁città
▁ယ
▁eskorte
izar
tsy
▁Jehovah
wɔ
gn
ፈል
န်း
▁지금
7%
ሆን
▁కి
▁ຄວາມ
▁efa
▁sav
▁بدن
▁tab
ఫ
▁api
+1
ಾದ
▁festa
2%
成了
ús
之後
▁समस्या
:34
메
hän
rana
taṃ
oci
ydd
ಶ್
▁Lind
▁agosto
▁alma
▁mart
▁Си
▁Vám
▁לך
tou
▁ایس
▁ຕ
▁мод
▁Lin
sara
▁kati
eron
▁хар
▁још
▁Nếu
▁fili
embed
▁המו
▁द्वारा
blogspot
▁Article
▁tiến
ಟ್ಟ
▁Nå
▁største
▁SM
мын
▁יום
▁ผม
əm
▁들
▁개인정보
▁đủ
▁Ski
▁sentir
▁holl
▁Blu
▁supaya
▁போ
▁liber
agu
عت
دور
▁mejores
ード
▁Gas
▁dễ
▁muligt
ອງ
腐
иране
▁camp
▁лишь
anto
▁RA
beka
▁neza
▁легко
▁その
èõ
▁haven
▁қандай
▁figure
اک
▁femme
▁einmal
ើ
ojo
ថ
▁شوي
另外
▁ହୋଇ
RC
сад
vice
▁gusto
▁ahụ
▁allen
lc
▁Chrome
zam
▁કરો
澳门
ást
uoja
剑
มิ
층
▁Norsk
aţi
▁wirklich
▁Resort
پی
▁URL
-2016
ឺ
Va
韩
▁scene
▁kemi
▁проблеми
通常
課
软
仔
▁خۆ
▁μαζί
:59
δ
▁eg
▁пен
ଇ
▁halamang
hot
▁->
ለሁ
▁tee
▁entrada
▁amigos
▁nėra
响
▁אחר
nsen
▁भए
tala
tini
▁Porno
דות
▁college
▁HE
LAN
ions
▁шо
हि
åé
omi
▁цена
▁alapján
捕
lip
клад
शन
▁мм
▁̨
▁correo
▁በማ
jy
▁ευρώ
nto
ခ်
▁속
▁animal
▁Kĩ
▁oedd
2012
ەکە
79
▁Sí
▁schnell
▁bonne
▁Fort
క్ష
裸
▁laptop
▁ź
HP
▁agli
▁πρώτη
ภาค
▁ше
▁Local
▁کورد
▁lé
▁28,
rir
EZ
ният
▁२०
▁Oktober
▁האם
▁meio
▁pais
▁እንደሚ
▁Photo
gle
▁vec
ተን
▁mel
▁accept
례
aciones
▁шар
▁આવી
▁Ան
▁bloc
利益
изм
čan
▁୨
awi
ever
▁ከተማ
▁dara
▁nako
▁ଏବଂ
▁решение
▁papier
▁Hit
ujeme
▁verde
▁rede
▁kunna
机关
lite
支付
wir
▁Cro
▁sắc
ทอง
ഖ
音乐
72
▁pasta
ők
▁COM
▁4:
ेको
прав
▁adda
എ
当地
โร
▁دلیل
▁town
▁wonderful
ኦም
ekkel
▁abe
▁உள்ள
▁enter
竞
▁поэтому
▁році
टर
▁Προ
▁Dor
lwe
▁decide
▁ôl
▁вече
农业
▁Hey
胎
▁agama
၄
▁бур
lele
▁Soo
immo
▁полу
▁cc
▁Asp
▁cepat
▁būtų
рак
mektedir
▁amang
▁Rosa
ᐳ
▁8-
▁Թ
▁tomar
仁
来源
貸款
자가
▁protected
▁plaats
のが
▁Put
▁vitae
▁تلاش
Щ
▁lokale
▁Argentina
▁kişi
準
▁ato
nummer
▁nder
▁Raha
פס
されている
如今
▁nanti
▁liga
യ്
▁쓰
시간
▁예약
дог
治療
▁ထ
吸引
▁питання
вести
▁كوردستان
▁presta
ean
▁طريق
▁fans
имо
▁ወይም
▁bari
▁inom
讀
wp
▁former
~~
▁prendre
▁Få
massa
偶
ൗ
ธรรม
▁Guide
pli
▁hvert
▁pc
▁변
▁bab
▁ψ
▁ಬಗ್ಗೆ
essä
▁रो
وية
▁సు
▁European
ស្
▁Korende
▁skriver
ора
▁jij
owie
▁대표
▁Hol
▁jednu
▁Przy
▁host
▁Flash
▁ges
ક્ષ
max
的事情
▁काय
划
ਹਿ
▁virkelig
ئن
▁khiến
▁Nhà
▁valg
▁أم
mang
▁khoản
悲
▁समाज
衛
ણી
urs
ರಾ
▁skrive
▁flash
▁Ende
ண
拜
▁ਵਿ
▁gael
购买
▁Cette
▁එකක්
▁بشكل
▁줄
▁Gore
▁byen
▁XIX
ដែល
վող
▁класс
▁helst
▁ঢাকা
zás
▁آغاز
▁بے
▁Face
gbe
▁tea
енко
uwa
ரா
4)
▁فرد
▁mengambil
▁BER
▁काठमाडौं
▁κα
enta
▁Radi
ați
▁такое
ทีม
▁सर
vus
御
▁minder
igwa
lerine
▁England
ILA
ôn
▁track
▁표시
▁nime
另
▁تھی
çu
יון
▁estaba
gni
мас
פה
нем
▁नेता
どこ
▁3-4
еј
:31
▁استعمال
▁Praha
slu
▁گرفت
▁почти
出來
істю
▁verso
uman
▁ihren
▁tinh
稳定
膜
▁đời
dest
▁тебе
дим
ตร
▁навіть
▁science
iškai
ᓄ
2010
vie
ペ
▁veces
▁plusieurs
انە
▁Aug
krat
phi
tuko
YT
ações
-19
網路
▁իսկ
▁жизнь
ໃຈ
యి
mol
▁worth
▁මගේ
▁පත්
クリ
قت
74
რის
▁qi
▁glo
mą
ਓ
▁mingi
▁Cristo
考试
▁جامعه
自動
▁ملت
ల్లో
▁ola
▁شریف
▁Tyr
▁добре
िस
▁veoma
対応
▁location
Ki
maal
▁race
MU
순
ぐ
▁стан
٤
죠
▁faha
Ab
મે
▁hwn
ujem
ึง
▁niti
による
ONE
▁ұ
▁qal
熊
ento
▁កម្ពុជា
▁vak
▁panag
▁pomoc
▁plot
應該
ᑫ
家族
绿
▁20-
▁pitää
rci
อก
▁Շ
rati
-7
▁cambio
的事
▁לח
▁summer
▁efekt
▁տ
▁wanneer
▁κάτι
▁inde
▁ᓄᓇ
▁להת
しく
▁היום
ću
oga
▁очи
▁train
▁adresa
▁sering
▁فایل
▁Meng
▁ஜ
尺
▁File
lent
liśmy
▁115
▁truth
เพ
▁kutu
ALA
▁своих
▁Rai
code
肩
xan
▁precum
▁Lé
▁জন
▁vist
ването
уге
খন
KAN
्यो
▁manipul
▁Ann
▁donna
▁həm
▁Preis
▁मान
▁Follow
bá
▁Бе
▁edit
1]
voj
▁complex
▁करता
mañ
▁valsts
tį
▁دوره
▁የኢትዮጵያ
▁Card
▁ର
▁νέο
になった
▁তার
▁ngan
▁cáo
▁soft
▁αυτο
lane
▁kjer
ਅ
▁பல
と思う
▁Work
ամ
▁כאן
ДА
▁production
▁Ă
ბ
▁สําหรับ
▁pública
▁사업
ëÿ
ισμός
zko
ৰা
▁ew
ră
▁mujeres
cji
▁שיש
αρ
داء
დეს
秦
▁nasıl
▁خوا
▁tempor
▁fé
▁vždy
掌
缴
▁rei
▁ვი
vs
▁Lot
від
▁éves
▁conditions
daan
覚
▁арқылы
ಂಗ
ģ
▁ayuda
▁problems
▁7-
انہ
▁experiencia
▁sometimes
▁Пол
ĺ
▁PU
AWA
▁വാ
QQ
▁mellan
▁सिंह
ต์
▁kaa
stop
AZ
▁karta
期間
▁Само
ጃ
ڌ
ǁ
78
▁hiểu
ᒃᑯᑦ
▁ហ
lè
uksia
/10
▁ને
dii
▁tranh
眼睛
▁rokov
▁planta
lê
▁seluruh
意味
ندا
ൊരു
kre
▁Union
▁Tip
▁sweet
國家
▁پایان
▁strony
յանը
▁مدیریت
บุ
▁උප
toria
▁আমি
摄
ಮ್
▁לע
ынан
abile
▁Här
▁teo
▁่
▁sc
ഥ
ther
▁Night
නවා
របស់
▁buah
▁merk
ਾਇ
-9
OP
mati
кар
ড়
cke
▁Prze
hati
ỹ
▁Mereka
▁Đà
▁আস
▁natürlich
▁trưởng
▁qar
daj
▁víz
▁Language
▁הב
▁meny
▁carne
▁Ако
rò
▁nič
詢
됩니다
▁सबै
সি
▁faktisk
pela
sco
▁ला
▁நி
▁Sunday
靈
▁further
CM
▁Omu
▁results
▁ніж
bun
рек
▁penge
▁Terbaru
▁ट
ေလး
▁keres
cka
:05
▁vezi
auf
ников
▁solution
AO
▁eles
▁Խ
▁중국
័យ
All
live
:01
šta
福利
▁mở
ሮም
gara
пу
更是
▁itself
ött
ীয়
ລາ
▁pru
▁امروز
▁Cer
▁enam
hong
▁Massage
▁achter
挺
▁খা
ዒ
gate
▁baada
▁després
▁ጎ
▁säger
▁deixar
▁ဘ
▁5000
▁1986
อน
検
▁వె
サービス
▁passat
eye
▁metode
▁ഷ
▁حزب
参考
真正
▁پاسخ
▁پاس
▁fot
▁کاری
▁والی
▁Wiki
▁মু
▁hjælp
▁olun
國際
▁mūsu
とても
第一次
คู่
ಫ
▁haut
ינו
ško
▁పై
▁ней
忍
力量
▁akt
▁блок
唯一
үү
▁mục
รักษา
SV
潜
▁Golf
يك
mere
▁minu
▁पूर्व
▁Telugu
める
▁հար
▁poc
sari
▁cancer
лаа
▁Science
▁ജന
▁Melayu
94
kiri
▁žena
▁دانش
▁എന്ന്
▁gdy
▁Louis
▁kila
ERO
▁रु
▁yên
▁pense
ŷ
ᐅᑎ
▁tyd
UNG
تين
AJ
▁ref
ชีวิต
قر
▁కోసం
▁Она
▁prea
omo
lles
▁Mercedes
▁talking
ွ
▁asu
miseen
▁budu
▁کال
еш
▁unique
▁ihm
ሮች
と思います
▁ambiente
ashi
เปลี่ยน
႐
ides
▁اعلام
▁качестве
▁stad
▁Ibrahim
▁profesor
▁kamer
▁ให้
dlo
સા
اع
出現
িং
▁Ки
uð
▁quo
▁دریافت
▁plu
▁æ
▁törvény
ಜಿ
▁tās
以外
cing
़
▁master
最终
▁salt
▁pagar
▁ከኣ
성을
▁eat
▁1960
▁marzo
zek
▁Services
▁دستگاه
▁ನಮ್ಮ
▁Ис
poli
▁vremena
zak
กา
▁servir
▁готов
▁sien
▁MD
▁شعر
기도
room
PI
▁hawa
▁podemos
▁consulta
▁mic
シャ
▁πε
Ọ
mane
▁reis
ඩි
▁spend
▁७
გ
▁ici
ິນ
▁vệ
ჯ
வில்
▁vra
▁ƒe
▁개발
▁ซ
丰
尿
働
unum
سو
▁คือ
事故
iers
▁έναν
▁szak
יז
OM
▁bästa
obi
៧
忽
▁hou
▁всем
▁كانی
▁кал
လည်း
▁giver
іць
▁ერთი
▁gaya
ብር
▁topic
Ź
▁alap
▁Daily
gie
พิเศษ
በል
▁Бог
▁Str
эт
ść
++
ঝ
▁패
▁planet
▁ụ
▁لاء
▁تیم
意识
▁gaw
ஹ
▁мор
ところ
▁Mera
▁қилиш
截
業者
▁informasjon
▁보다
fte
▁ndo
▁ù
▁Original
pers
-21
▁사회
ŕ
▁struktur
▁Institut
▁viss
▁klient
കൾ
▁آهن
lás
▁miesto
▁새로운
▁hjá
▁fh
因素
▁CI
эл
によって
ათ
場所
rama
▁selepas
▁Chris
▁Express
bag
坦
ᒥᒃ
миз
▁River
මින්
send
▁διά
:55
▁ብዙ
▁പു
▁azért
▁stále
▁izan
nete
скиот
HR
▁kdy
íÿ
▁aq
▁26,
▁usually
press
런
:32
yum
▁газар
يين
▁baj
大型
▁avez
று
▁Nakon
çı
特殊
▁elektro
▁ಕೆ
▁inden
▁Any
ลํา
▁вида
▁직
bd
rais
▁illa
▁Сто
share
▁ಕಾ
▁등을
▁เอ
▁Hard
▁لازم
เรียน
erie
一定要
同じ
▁lege
țe
▁ପରେ
lela
▁میان
▁tubuh
▁probleem
▁xi
染
PK
▁avy
▁اله
▁zaidi
▁enfants
▁현재
▁tõ
▁ولكن
esse
下来
▁satt
▁яны
▁path
ေသာ
▁azonban
▁interest
▁어떤
edd
▁vuonna
▁giving
▁timbang
山东
КО
▁calidad
aggio
▁Oct
arse
▁return
▁ïðè
▁junto
▁Albert
пре
▁والت
▁OD
ุ
▁trả
▁trading
▁torna
▁lead
▁επίσης
egi
▁mimo
▁۱
▁1987
▁bilan
昌
โม
▁concept
▁1984
較
Ը
▁образом
▁ئی
▁sms
▁24,
DF
pool
რე
▁figura
öt
▁Тур
▁Що
ισμού
▁ман
▁mulai
▁bob
東京
▁басқа
बा
▁Fast
▁altro
▁olona
▁אלא
▁Ši
ɖ
▁série
监督
וף
▁מג
▁Москва
ogo
odi
ък
配合
kö
▁norm
▁Vurder
tunk
▁ਸਾ
▁լ
enne
lük
St
▁lí
ців
▁nevoie
σαν
用于
▁Geo
▁Orang
āt
▁दिवस
αλ
▁char
▁detail
lm
鲁
▁،‬
▁push
▁هناك
▁dwa
奋
消费者
you
雄
isan
▁đúng
并且
▁Jen
ɔn
商业
▁транспорт
▁նա
кин
ተው
▁էին
几个
වන
▁Dur
ිය
ಯನ್ನು
▁ಗೆ
▁jin
▁veure
▁teljes
▁eest
▁Jim
ായ
kri
▁VA
îð
փ
జీ
▁드
▁medzi
台北
իր
▁dijo
▁биз
ûn
▁योजना
নের
▁деца
āṃ
Gi
:33
ző
诗
▁тек
୯
▁kn
▁koo
▁другие
▁ढ
▁imagine
▁Today
▁ред
ĉ
▁мол
▁힘
▁stimul
nými
▁viena
मै
信用
▁parla
vere
浙江
▁première
▁Youtube
▁keessatti
▁kab
▁θε
▁مطلب
▁විට
pres
▁storia
되고
ambi
员工
قة
HL
▁በሚ
▁தமிழ்
▁обов
▁gdje
▁dài
▁børn
就可以
▁Stein
▁خون
▁PAR
лийн
▁mesa
తు
▁поли
▁tru
קס
官方
тив
êè
缩
贸易
告诉
▁منه
ាត់
ించిన
▁Tere
이라는
કો
Nya
น้อย
▁група
▁misy
▁своје
▁guys
竞争
글
ዐ
▁Bara
ווה
▁nós
నం
▁Hospital
▁metus
დის
▁snel
▁hizo
▁grandi
▁terme
▁Sea
▁giữa
▁кўп
ଡି
amiento
▁mendapat
▁eikä
▁tend
▁couldn
▁27,
jur
cci
当时
▁charge
▁kou
▁Při
▁기업
▁algunos
拒
赶
爽
▁cinema
▁Jy
理念
▁mỗi
整理
داری
ისა
زم
▁Fest
▁möglich
▁दु
IKA
iere
▁کړي
▁մեծ
▁bastante
ology
EE
▁lung
▁Əliyev
▁Пред
▁ਦਿ
醒
ริ
ické
கு
Pi
▁difícil
▁þeir
dev
▁सदस्य
ரு
▁Ivan
▁Tau
ರಿಗೆ
Hi
▁erat
ૈ
ада
当前
▁הח
填
▁තමයි
dda
▁dum
▁Nokia
فی
արկ
▁fiscal
▁Nya
办理
indi
▁roll
мір
▁Mail
อ่าน
▁ندارد
▁דבר
▁Wasser
▁Kya
▁ಮೇಲೆ
tov
▁ව්
▁ڪري
कै
ීය
▁tämän
OR
▁MAN
▁grado
▁потрібно
▁PI
▁الان
▁Jin
▁여러분
ዬ
▁skole
▁Ona
▁oversættelse
▁કા
▁produits
▁128
ကျ
▁produkter
HS
▁دان
วด
ֹ
cur
▁steht
主题
ɗo
▁sü
kast
່
湿
ಗಿ
▁Normal
คืน
ZO
▁зад
的好
▁σαν
严重
▁ساخت
ским
▁labor
▁kutoka
▁defini
ських
තා
lala
מות
▁૧
hid
tiv
▁Run
yacut
الت
实际
ська
loo
ელ
▁events
時に
aika
tali
▁progress
账
eid
AU
▁сал
▁berbagai
▁nghị
▁лице
▁lik
▁obchod
さんの
▁คุณ
▁тан
(1)
uel
▁rap
▁offre
แม่
專業
▁Gru
▁Улсын
▁Education
▁nato
كل
anya
▁आता
เกิด
▁target
lista
▁ଇ
▁قدرت
들에게
審
/9
▁Ўзбекистон
▁которой
▁Ř
rade
▁Ро
rre
க்கும்
եմ
▁speed
▁ära
解決
tzeko
▁इं
机械
▁rek
▁აღ
▁joten
▁الذين
▁Putin
▁основа
榜
matu
iser
教授
▁penyakit
▁Cultura
stellen
rja
▁jetë
ήστε
uki
▁utama
inha
ที่สุด
hely
▁ایرانی
ანი
一名
▁luo
▁καθ
▁грн
▁ενός
▁높
-14
▁medical
пан
▁സു
▁practice
蜜
▁ende
▁anmeldelsen
elijk
▁않는
歐
漏
▁хэл
jpg
▁ceny
▁वै
рин
▁Market
ITA
▁fre
▁يې
rta
▁robi
նդ
▁করুন
րի
▁vede
▁mēs
лив
vod
赞
▁belajar
▁Cre
▁[1]
uja
▁viktig
▁Kana
らない
▁hacia
ี้
▁stra
▁לעשות
เร
▁Pala
▁kamar
ያን
▁компания
▁zde
åð
▁τρόπο
▁गर्दै
▁morgen
▁Від
▁ખ
ুন
▁שלנו
▁gets
ikat
▁હતો
ட்ட
ெ
နာ
وق
恒
眠
▁Ole
▁他
▁베
▁oda
▁օր
ข่าว
▁جوان
▁droit
ପା
ાઇ
▁возможность
廠
sik
זו
▁අව
يق
▁incontri
▁mức
รี
▁שני
νη
▁필
รอ
tate
酷
奴
▁gracias
▁oleks
▁ihrer
paq
▁Θα
晨
וני
▁лист
uji
▁Nagy
пис
ଚ
▁Porto
▁semi
sza
▁AZ
watch
ege
LP
バイ
▁Pl
zone
ɗi
યા
lán
▁bomo
▁Food
으면
ናን
▁கு
іть
▁cro
▁सभी
▁persoane
કી
▁graag
▁Ў
▁Sil
พิ
ைய
▁Syn
커
錯
▁rond
خر
▁Hin
▁커
▁באתר
vist
電子
▁상품
▁alguna
▁હો
▁ថ្ងៃ
▁이번
的发展
保護
▁vlasti
▁toto
一步
▁holde
▁året
▁ରେ
య్య
津
▁års
▁మే
▁сегодня
▁sola
ತು
teri
tuar
HQ
idades
▁prove
:36
▁Він
jnë
孙
itev
անի
▁жив
▁『
▁ऐ
lub
父母
▁synes
▁Carl
▁nabo
уы
პ
เดิน
▁কৰি
▁ой
▁있으며
▁goika
ां
Dr
jah
▁Bri
ajo
▁rete
▁બા
▁मि
▁Ran
ဝင်
▁Case
▁הצ
னி
tör
引起
▁හැකි
▁ಸಾ
сам
▁볼
▁Tagged
▁ремонт
tima
LED
ົງ
▁kota
▁iç
▁Did
▁tilbake
tto
主任
നാ
eji
น่า
▁Jung
▁blood
▁lieu
ɖe
出版
▁Bha
▁concert
▁rejsende
▁luft
다는
▁Ер
を受け
▁водо
▁Συν
简单
ٹی
▁erg
▁leven
▁trực
ข้อ
▁Deutsche
▁ઈ
瞬
▁vrlo
▁ര
ಿಕ
立即
▁definitely
сының
▁rezerv
ահ
▁μπ
▁بحث
のですが
ल्या
inho
▁කතා
▁miten
لات
▁108
роб
▁volume
▁UP
NING
▁නැහැ
▁быстро
၉
▁Smith
فا
ීම
▁mou
▁Ey
▁Автор
નાં
▁الز
▁trai
akan
▁formal
▁また
▁लोगों
▁деньги
▁Daha
nger
▁dưới
訊
:44
阶段
郎
尋
菌
▁peuvent
▁claro
డీ
dí
uv
▁ກ
▁aikana
шла
pf
อื่น
нова
▁vaja
▁sya
慰
▁raja
OL
▁opinión
▁datum
Ŷŷ
▁jual
iswa
▁હતા
▁babe
▁درصد
ອາ
庭
ಣ್ಣ
▁‬
cro
ያት
▁앞
▁mogą
▁Bli
过程中
▁Kup
指导
▁sati
జ్
▁build
וק
▁ş
oğlu
▁சி
rei
UF
かった
▁ટ
▁eki
▁ahaa
▁strategi
▁finally
▁fair
▁አን
▁kaum
АМ
●
▁Tuhan
▁Dårlig
公开
εν
▁живота
nah
▁стране
▁Россия
最大的
လေး
пар
▁SH
mės
રો
▁Kā
▁preto
ीन
ഫ
▁ema
▁מח
▁فی
具体
zzi
▁beter
▁přes
▁choose
▁vert
liku
▁мають
ひ
▁gain
就会
คง
รีวิว
▁HR
▁hate
ങ്ക
ります
梁
▁mond
zana
▁usaha
▁ямар
▁طراحی
front
コー
▁рік
ंद
▁dünya
iendo
▁нэр
ブログ
孔
发挥
▁болған
▁electrónico
▁zusammen
bei
gus
▁Kot
▁musical
λο
▁tok
▁gru
▁еден
arum
▁muntu
ясь
▁mie
▁kak
▁muu
▁mynd
▁प्रमुख
רי
降低
▁поради
:37
że
▁Европа
ੰ
違
":
▁kuten
圆
ッド
FO
▁اقتصادی
▁keadaan
už
▁VER
ควร
▁mada
sos
▁ผู้
ਸਾ
▁саме
▁пла
簡
ˈ
▁Isa
nico
▁happen
▁நீ
▁Technology
▁AI
▁samen
ลิ
▁teknologi
▁aktivnosti
▁følgende
炸
sau
▁સુ
idu
▁glede
ត្រ
TF
▁kilo
▁golf
▁ду
ković
基地
vic
▁حسین
▁ŋ
▁resto
zil
▁Premier
تم
▁voidaan
▁dost
สอง
▁365
▁exist
DV
▁अप
监管
化的
獎
碎
▁سلام
▁Калі
▁فعال
▁كتاب
IL
ளி
ซา
▁fácil
▁πάνω
yak
▁facile
▁buena
▁дана
升级
ðar
YN
▁бала
▁помощью
▁خیلی
▁يتم
Њ
▁yaz
▁‹
লো
▁តែ
▁BB
▁orient
รู้
▁Solo
cé
FI
▁합
▁Sports
純
頃
style
רים
▁፡
▁кого
年前
GH
▁gjatë
ויות
▁সময়
▁grav
▁ჰ
▁avons
ኺ
▁erre
ವಾ
▁வேண்டும்
ڑ
▁cadrul
▁uk
▁amount
避免
▁алу
rás
▁***
▁Fur
▁سخت
ydi
ിക്കുന്ന
▁κοντά
▁امر
воз
▁සැ
▁servizi
▁succes
тел
明显
▁fundamental
Car
数字
▁Fire
tọ
決定
ombe
โย
ဟု
Ƃ
థ
նի
ZA
ချ
ukset
سن
9%
하면서
EH
▁temporada
りの
?)
▁υπό
တော်
▁(11)
rv
▁Tata
โค
▁София
扎
猛
▁Brown
▁एवं
fanya
TEN
ത്തു
เฟ
▁indica
▁2018,
▁double
ബി
▁Information
▁ό
罚
ṣa
▁hombre
▁letter
▁evento
▁25,
recht
▁ros
ບໍ່
tisk
▁fosse
▁fon
ibo
פר
▁عێراق
▁trois
▁ಆದರೆ
ుడు
▁вес
ரை
▁CU
uq
แรง
▁chef
▁koa
tuu
▁පැ
릴
▁cili
▁दुई
이라
phe
▁دغه
plo
рах
וֹ
ирање
kraft
gabe
Ị
俗
lys
▁hỗ
▁سازی
IH
UZ
▁Frauen
afi
ável
▁الناس
éis
▁paso
lata
▁terror
▁۵
sok
නම්
▁kolo
▁Peru
dá
▁MAS
نڈ
inne
▁제출
84
كان
ಾಗಿ
▁ਜੋ
lene
▁например
▁korwa
уз
▁Khu
kong
มอง
▁условия
記事
▁opinion
တော့
SF
▁RAM
▁certo
njem
州市
bord
踏
▁Лі
▁godinu
▁Dol
лага
mala
там
▁ท
gawa
▁szám
▁aver
▁tine
▁joc
RM
upa
ĩa
ēs
足球
ことを
идан
运营
دم
як
aron
合理
▁बु
▁digitale
NP
▁Xi
▁ова
▁ча
system
▁specialist
构
▁unul
」。
ất
▁veliki
▁хора
▁Eco
vv
▁Рус
чик
ort
יש
ඛ
bele
▁өс
▁ответ
▁queda
▁فارس
▁חי
leh
▁kem
▁kojem
DB
వే
飯
▁dabar
▁education
頼
▁ללא
本人
▁billeder
身份
urt
વે
▁Гэта
込み
tě
▁söz
ቀር
▁게시
絡
ግር
▁વાત
莉
▁niños
▁además
▁laten
▁رب
భ
▁Euroopa
されて
▁עבור
ୃ
table
▁kome
ตอบ
▁ዶ
သည်။
በር
▁phép
▁MAR
▁ABAG
oota
▁dù
ങ്ങ
לות
▁ല
FS
nke
▁blue
വ്
ësh
ါ
▁objetivo
:39
kta
Ї
était
▁dort
suz
▁reste
َّ
unan
▁Hội
▁즐
=1
ís
▁Author
▁ones
▁৫
ပါတယ်။
▁Report
▁estamos
治疗
୬
▁этих
희
nee
กลุ่ม
ùù
ીને
▁ሚ
▁тр
ਨਾਂ
▁мед
တူ
▁chiếc
ંક
食べ
نز
▁Internacional
87
ገል
wani
▁មក
▁(12
▁ఆయన
▁আছে
▁problemi
ګ
ške
ыл
▁ସଂ
평
韓
ಿರುವ
▁likely
SM
ಂತೆ
▁zor
ଛ
▁quelle
ต้น
▁गरिएको
қан
▁ked
ิน
▁अन
ność
▁càng
lisi
下面
ummaa
▁RI
▁áp
▁siku
▁ను
▁пр
▁갖
▁cod
▁tó
ʻ
▁sehen
▁reality
▁voice
▁demande
▁enige
▁spolu
▁оқу
ји
▁inspir
▁102
ႉ
ոյ
尖
OY
▁neve
▁როგორ
▁فعالیت
▁již
▁همچنین
▁Manchester
อยู่ใน
ери
▁عوام
▁belle
▁sob
جر
ಪ್ಪ
ধ
▁ft
▁такі
宾
▁nuwe
یو
▁(8
▁Επι
▁מספר
▁isku
▁Tổng
tle
▁Adi
▁banget
Ŷũ
ее
▁Church
仲
▁فرا
ธุรกิจ
ကုိ
აზე
▁104
▁Waa
ている
▁chú
▁সি
ក្រ
azioni
ጨ
ற
▁personne
▁Poker
▁Dacă
▁ሃገር
▁murah
▁29,
sione
▁قو
▁પછી
▁пас
ළු
▁Stockholm
▁있을
▁Við
▁Vila
ಪಿ
▁للم
▁sá
▁škole
▁unik
▁کۆ
ድር
Բ
doc
ٺ
မႈ
▁власти
▁متن
▁religion
▁plans
▁تت
大全
dine
4%
▁added
▁ارائه
dega
留言
▁ኩ
▁چو
▁ake
laj
▁servi
▁blogger
樹
▁בן
▁perempuan
▁권
▁mạng
▁lè
ਛ
▁tela
妻
สร้าง
ục
увањето
胞
GR
▁نقش
▁كم
不足
nene
មួយ
▁ដើម្បី
start
▁collection
▁plast
此次
▁snart
湯
▁હતું
ント
unar
haṃ
▁количество
▁países
竟然
2011
ແລະ
▁Cali
必須
arka
我想
▁teha
▁결과
▁тысяч
▁feed
NN
▁zonder
▁lepas
骗
▁futbol
文明
▁школа
▁백
成绩
▁върху
▁такого
衣服
ając
ený
규
zug
▁행
▁tü
▁1974
鐵
▁gobierno
▁oye
▁የማ
ილი
rish
▁kuka
▁studie
ઘ
▁clean
▁situ
▁yɛ
ITE
▁труд
▁Има

メール
vale
▁важно
▁жер
▁vraiment
▁لها
вед
stup
▁mũ
▁originalen
▁xo
ಗಳಿಗೆ
Az
▁ανά
erd
63
=""
▁प्राप्त
加工
▁அந்த
▁Nama
▁پاک
rzy
▁కో
▁ਟ
膚
▁dieta
Ժ
▁бара
ิ
▁నేను
▁گھر
▁oameni
▁completely
▁segala
上了
gba
▁relevant
čki
ಮಿ
碰
▁turned
▁KM
욕
Art
gb
▁बोल
▁Nge
▁fleste
▁ดู
eras
чно
▁encara
顯
纯
不用
що
WO
▁bërë
▁options
▁chuẩn
遇到
န္း
తం
เซ
రే
▁80%
▁British
▁beg
ாய்
▁රට
áció
vesti
▁ota
ՈՒ
கம்
▁Medi
▁Pos
▁شاه
ible
▁služby
bij
▁делать
▁डि
ált
▁사실
îí
▁Control
жан
不知
▁Այս
▁आर्थिक
▁ξε
▁θ
▁himself
▁gul
ани
▁vem
▁වැඩ
▁правильно
▁finale
▁crea
จึง
▁nami
▁منذ
萨
▁род
碼
อล
▁thoại
ෙක්
▁punkt
▁바로
ബ്
▁Öz
▁केले
▁dəfə
▁innych
▁Edit
▁vui
сці
▁හි
▁5%
▁klart
ัก
▁یعنی
▁режим
OLO
▁būt
▁nawa
▁Ima
▁यांनी
▁সং
▁Tik
▁Eg
Dan
▁iza
▁sull
▁θέμα
blad
▁Rum
ല്ല
高度
▁дни
▁ធ្វើ
TK
▁bagaimana
▁qeyd
全新
vul
KH
▁alcuni
file
isko
▁editor
show
雞
▁مشکل
▁Мал
▁mention
ninger
▁सम
ļa
▁BR
tl
効果
▁sti
▁verir
▁Már
▁hell
▁oldal
▁առաջ
skar
▁ନେଇ
▁materiale
▁등의
લે
▁Weg
▁Hil
bild
▁první
pam
uva
▁ndër
िल
▁youtube
劳
vek
▁vähän
技能
▁nepri
udo
jek
▁సి
是什么
▁బా
▁نواز
▁nghe
▁مقابل
▁নে
mela
Gu
णा
born
되었습니다
ление
▁luni
medi
▁embargo
▁собой
▁በዚህ
▁gwo
ชิ
▁(15
▁നല്
俄
▁ам
滴
想到
тур
▁iaitu
▁mbo
▁زمین
巧
▁ಕನ್ನಡ
ുന്നു
▁Dio
▁shall
철
最佳
▁born
▁صف
▁ମଧ୍ୟ
emia
ANI
EG
کاری
لم
ував
iera
▁누
UE
▁ПРО
▁práva
رام
kula
CB
วี
њи
៤
羊
▁ನೀಡ
▁minh
ahan
▁interpret
▁kishte
▁мой
दर
orna
ító
▁לכם
PF
▁hạn
經濟
อย
▁Ide
စု
▁tratta
▁Final
▁شان
lee
▁blant
gé
移动
▁realmente
▁pilot
uran
▁אחת
▁Powered
▁증
parti
▁गरी
▁pensar
▁hebt
ଁ
▁Ты
十二
லா
▁Aw
ຕໍ່
▁توسعه
▁okuti
用的
▁مدت
▁γίνει
首先
▁Tüm
▁vsak
韓國
▁??
▁interview
शा
▁pea
쟁
歳
lā
▁प्रश्न
▁času
▁нем
▁बदल
▁твор
▁እውን
▁fail
▁bato
เก็บ
▁xác
▁mao
NL
▁Сайт
▁uitge
▁برخی
▁اون
ñü
▁չէ
▁jedoch
82
shon
▁kiểm
peli
ตี
ेत
▁voru
ซิ
▁madh
▁قدر
ජ
▁المن
▁Selain
tî
녀
▁Кра
▁Али
▁Fat
્સ
:38
▁buka
ARE
▁tahay
▁vote
ក្នុង
ầm
՞
递
널
pk
▁khá
属于
기에
ಕರ
▁מנ
וס
矿
範
汗
ሥ
▁Frau
▁user
▁Ave
:43
▁시설
になります
▁הרבה
▁Phone
▁druk
▁informasi
▁rate
▁Гу
▁Angeles
এ
talo
▁Thành
▁zij
▁Ɛ
▁bild
晚上
▁заяв
▁Ris
▁baz
▁90%
▁roce
▁تعالى
开放
မည်
ющих
ець
▁considera
bola
▁Tento
▁reform
ոս
혁
այ
ERE
МА
▁gott
AYA
jk
▁shopping
▁Mohamed
▁hữu
▁ሳ
▁kirin
yun
देखि
▁dor
▁مانند
施工
▁Cena
资产
ైన
▁redes
ácie
dob
▁perkara
ႃး
▁knowledge
▁safe
▁Santo
▁ю
节目
▁кап
isu
อด
▁maailma
ונה
▁andet
幫
▁forskellige
▁agent
ıb
▁پولیس
▁problém
都会
クラ
影院
سي
▁защото
▁rész
▁bunu
ាក់
▁Kro
▁Suid
▁dry
▁#1
gis
▁Prema
令人
ሰር
ίζουν
▁Bosne
レー
AKA
▁Kurd
لاری
疾病
▁ေ
権
▁muita
サイズ
୍ୟ
▁posle
DR
▁hoa
IO
▁acuerdo
▁evitar
ᒧᑦ
क्
▁Firefox
iyay
▁можа
▁ilman
▁stedet
▁Hel
▁større
戏
▁ಮಾಡಿ
圍
▁acaba
狠
▁goede
เพิ่ม
▁өмнө
▁орта
▁Mem
角色
▁svetu
▁വര
▁변경
nimo
▁ሰዎች
▁welche
▁siz
ਣਾ
표
هما
рын
ಂತ
下去
▁exact
▁ajan
ела
▁suoi
rid
▁tū
main
▁moeten
▁Linux
▁nɔ
ชาว
▁חלק
▁oper
▁Material
̉
▁Jangan
▁mitään
▁recently
ធ
leder
▁duk
▁тро
նում
▁entire
▁בני
▁Zen
▁VII
בים
аз
ור
nnen
ᓂᑦ
ovaný
..?
read
ENA
▁ÿ
열
▁Uit
▁всеки
EJ
▁ວ່າ
▁fotograf
▁kë
▁1979
▁Genel
▁conform
বার
▁کاهش
ئة
▁이런
▁duy
▁CHA
▁चार
TL
▁ارتباط
▁gde
▁tenir
wah
▁뒤
▁država
овая
▁hồ
ทรง
▁puno
▁Στην
▁허
▁Prima
▁mediante
凝
食物
ნო
ភ
क्ष
加上
▁цей
▁دەست
▁yardımcı
▁اعلان
▁nær
:58
ITI
tja
▁vinden
▁Ανα
cchi
▁Grup
▁intre
落实
▁grada
▁همان
▁izin
▁mają
ႃႈ
▁ajal
▁ус
▁només
කින්
▁آی
▁زنان
弃
召开
▁Nas
▁όσο
▁potem
▁wiele
▁Intel
▁huge
klar
▁mất
lach
▁کمک
▁Foundation
cus
▁발생
航空
▁شکل
▁ഞാന്
ัง
事業
ւ
inę
وو
겠
ाया
ppu
chod
▁ທ
kuba
▁leti
▁Audi
ونی
ldi
▁EP
▁bentuk
ꞌi
▁vod
▁бўлиб
ają
ţiei
ഘ
▁מצ
eken
SAN
٧
୮
▁husband
▁Vest
rte
-11
▁цар
Download
▁emo
▁способ
老師
ying
▁Bru
ҥ
▁ᐁ
▁داعش
ിനെ
▁vedno
▁liberal
เพียง
rke
▁ús
യാ
êr
状態
ាន
▁Year
▁καλ
▁gelen
▁carta
▁කිරීමට
imus
iše
▁relationship
▁ט
爭
àä
듯
▁नगर
itse
▁जि
▁Azərbaycanda
ists
▁Kha
敢
為了
ETA
▁allem
▁informacija
ters
▁رقم
▁марта
110
▁vest
▁print
/12
▁kunst
▁බැ
▁geven
▁бос
र्
▁oferta
▁behov
▁Gala
▁کردند
pele
▁Lê
▁πρό
изма
▁یوه
ары
▁온
วัด
アップ
▁(17
▁ўсё
▁cin
▁nổi
▁حتی
93
mien
ũng
▁Thailand
到底
liyi
▁jár
EC
▁Chí
ΣΗ
rip
▁Fil
▁ਨਿ
墨
▁termin
ଖ
▁millones
▁virtual
▁исто
▁qualité
▁ndaj
▁entra
èì
ඩ්
▁Color
ذر
рас
▁imam
▁weight
ឆ្នាំ
▁član
ದಿ
▁Jūs
▁berat
كی
shin
▁permanent
▁clients
▁extrem
▁Galicia
▁കാണ
ký
tique
棋
▁כן
ൺ
▁чего
▁materia
▁vezes
?»
▁বাংলাদেশ
flu
▁piece
ნის
acht
▁জা
▁phong
йти
ենք
▁വെ
▁Girl
èt
▁päivä
▁ինչպես
▁tilbage
စား
▁Під
▁Kaip
7)
다고
เสียง
▁Vår
szám
ität
▁आफ्नो
▁pilihan
PH
完整
▁atë
▁villa
ヘ
ibu
▁प्रा
韩国
▁ອ
sap
irati
ngan
ýã
▁mente
ንስ
▁minim
▁happened
▁fell
▁muž
▁Transport
▁centrum
પા
▁alternative
▁produit
hk
压力
dou
▁上一篇
▁Gur
eşti
▁ts
▁kõige
ær
dž
▁hte
▁slut
▁redu
▁충
mid
▁комп
rede
İR
▁אחרי
▁اشاره
▁جز
کے
کان
עד
▁доступ
▁application
elijke
ም፡፡
▁Зна
▁deste
ກັນ
▁nguồn
ทา
сін
ਰੇ
naa
投入
▁dun
ը՝
明星
24.
▁хорошо
▁2012,
▁plo
▁کامل
▁maal
优秀
ମା
▁đàn
▁վեր
មក
▁rez
▁nwere
เน
भर
cala
▁hende
▁excellent
▁spun
撞
Italia
73
這種
▁Videos
pris
▁spring
▁taki
satz
查看
▁නැති
▁muchas
rau
lea
▁либо
▁اے
EF
▁homo
里面
୫
kere
ជ
▁ଚା
▁pouvoir
▁gặp
▁450
▁reduce
stav
ێت
すぎ
ities
▁Teh
▁Kosova
▁ఉండ
伙
▁μεταξύ
ท์
一人
▁향
LF
oase
лээ
▁Front
▁ਆਪਣੇ
▁эле
rina
各地
▁Там
▁Avec
▁rekord
કાર
▁ונ
არი
▁વા
▁pov
▁cố
ajan
▁৪
▁Bog
▁Bla
▁цаг
แรก
▁station
▁Gay
lərdə
▁fala
▁CR
▁llegar
▁стали
gana
anni
▁عبر
▁perfil
elig
ાસ
▁vive
▁hæ
▁должен
▁uygun
▁Dos
టం
bha
老婆
▁câu
بد
▁വേ
ستی
bata
▁ABAL
เกม
▁सन्
▁ನಲ್ಲಿ
wys
ภ
▁қызмет
▁ficar
170
այի
nil
社保
tog
town
vua
▁Кор
▁හරි
▁אפשר
iks
▁sơ
规范
▁resultados
થ
▁genau
▁города
そこ
▁khẩu
nnan
water
▁ପରି
▁hoved
▁cours
▁பிர
Ք
▁tengah
တြင္
伝
▁Lady
дук
▁tỷ
▁único
▁miles
委员会
▁ಅವ
相手
▁ಐ
lada
▁classe
olog
fort
toon
▁Eh
spa
SL
ິດ
یاں
优势
▁Research
▁논
▁мар
▁Bot
▁عدالت
ົບ
▁proper
▁Jab
▁sider
▁ڕا
▁bayi
ћу
▁cực
▁용
endi
یات
ոտ
▁каже
Ju
瓜
▁trecut
▁akár
miento
▁siihen
▁материалов
▁acord
alis
▁게임
ària
▁ак
这次
क्स
」,
▁خارج
ข้าง
▁ຂ
▁Ras
拼
▁ቁ
▁mate
▁ຄ
▁આવે
IG
ಧ
فة
bruk
tää
▁manifest
亞洲
-13
▁prezident
▁Tout
▁થઈ
нік
opp
▁última
kuwa
▁alli
▁Dunia
▁thank
▁Yeh
▁око
응
▁Sor
කා
▁reforma
▁created
timo
▁Bagi
ದ್ದ
▁حدود
▁Muqdisho
bina
কি
▁수도
▁tecnologia
▁história
▁Image
▁Novo
KT
уд
▁길
▁aynı
ቢያ
▁films
▁februar
▁ఉంది
മാ
न्त
▁difficult
▁سوال
2-
▁mateix
광
腳
的工作
ਰਾਂ
有一
▁gum
版权
▁ഭ
aks
ає
しない
ói
วน
▁Winter
meni
▁30-
▁tehdä
▁maakt
▁jelas
บุรี
லாம்
▁kér
▁GU
▁testa
ກະ
▁שנים
SG
浩
輸
蒙
▁시간
ję
ující
kte
▁112
imba
یس
▁книги
▁tso
mens
▁हुई
▁해당
lni
▁gav
SB
했습니다
qua
stat
▁vino
לי
▁sociales
▁Εν
明确
▁þeirra
လို့
▁SS
▁kuulu
么
:46
邦
▁zakona
lerden
ชน
▁ਐ
▁ತಾ
▁Women
ላቸው
neb
▁पु
jor
FL
▁spent
▁distribu
▁ອາ
▁Hong
plus
▁ਕੀਤੀ
▁پشت
磁
dade
▁ώστε
▁син
ออกมา
HAN
▁마음
▁tín
▁خاطر
ไฟ
መር
upe
▁tatt
▁danych
പ്പ്
▁daily
敵
ጳ
▁šest
▁ਘ
dru
▁관리
dok
▁نرم
кол
▁Edi
୨
mě
▁प्रधानमन्त्री
▁образ
▁Kla
▁тој
term
▁डॉ
資源
▁kazi
på
owany
▁Male
からの
الم
ૃ
▁frei
▁mujer
▁cun
▁genre
KY
▁neo
▁comercial
ευ
mula
▁сами
▁erst
ಳು
HK
▁zon
ொ
宏
icu
อาจ
▁تۆ
iÉ
▁Ži
จุด
ႏ
อิ
▁tarp
▁fen
▁түр
▁uzun
่ง
▁various
▁néz
▁negative
▁पास
ARA
кла
OD
▁hip
tko
ለት
▁beton
▁Bos
jima
▁hånd
ான்
yama
▁240
เธอ
▁влади
forum
搜索
▁bax
盡
▁περί
▁zit
▁diam
▁technology
▁fii
▁Kir
:02
▁Ant
▁প্রতি
▁kuji
:48
侧
閉
邪
yy
▁ሀ
▁¦
ాను
▁hukum
▁imali
▁alkohol
▁কৰা
▁Episode
就能
yg
last
したら
ماق
▁sev
სი
▁tou
твор
▁baga
▁samma
▁garant
▁GE
▁success
▁Imam
▁הי
▁tör
▁municipal
▁dialog
ਝ
▁først
的方式
ীর
▁наших
▁តាម
▁takie
gende
▁төр
▁ர
▁mā
ети
bú
Ā
fana
พูด
颜
শা
▁sap
▁khoa
▁Korea
▁Kra
▁документ
დან
pana
dî
uara
即可
▁range
タイ
▁Victoria
▁акт
ตก
个月
公安
டை
ႃႇ
АН
面对
▁modelo
▁मुख्य
▁Dev
▁univers
ᑳ
▁skoro
lako
▁·¤
犯罪
▁Bola
▁response
ское
self
lais
▁vegna
▁dro
▁ਧ
▁Bản
▁ሙ
▁sano
▁sali
▁agak
▁χώρα
elela
▁nghĩ
▁Ще
▁transform
ొ
ᐃᑦ
変わ
▁تور
asia
အတွက်
eerde
▁болж
▁---
▁ин
▁mona
▁kü
៨
رق
য়া
ITO
▁Maz
kela
▁SR
そうです
iques
رب
nang
8)
▁GmbH
▁abbiamo
▁ضمن
ません
▁കെ
最初
เพราะ
▁פר
▁радио
жен
▁වෙන
▁meeting
mund
ηγ
zas
ผ้า
▁stage
ាង
cze
▁लगा
▁gradu
▁ngành
▁1945
色情
▁garanti
НЫ
▁raya
ขา
ků
▁үр
ejo
วาง
▁край
▁decision
▁据
▁Iyo
▁industrial
▁ਰ
▁ఐ
▁Daca
▁siti
▁liye
แอ
ирани
▁lenne
ーズ
▁مى
▁debat
нда
▁kaksi
▁Phe
出口
mmel
sema
▁blu
▁membawa
▁ಅಂತ
▁Sak
▁narod
ήσουν
▁curs
▁Զ
ಜಾ
ujemy
shy
ΜΑ
kaw
Foto
之间
▁شركة
ിയ
▁hour
INO
▁رہی
▁فإن
▁Char
▁შენ
できない
▁Мир
▁хоёр
▁informações
▁lwe
ವರು
▁qualche
කු
準備
便利
▁tokko
▁aantal
Hu
▁alone
凌
٨
▁гэдэг
▁арга
▁تھا۔
▁Airport
▁vše
sey
suk
▁केही
▁informació
New
bba
▁Mé
▁спа
▁අර
sas
୭
찬
▁प्रयोग
ᑉ
пр
ใบ
▁kanyang
▁másik
▁نفس
ireo
▁fina
เพลง
شر
enje
▁Station
▁gam
▁vision
▁Arte
АТ
▁الأول
▁רו
рез
ᕐᓂ
▁کوي
▁kla
▁cư
▁izao
▁sci
▁tố
真是
奏
▁વધુ
▁khoảng
▁1982
▁такие
▁newydd
lage
▁section
fh
▁NOT
▁제안
▁hún
ን፡
kele
▁Mang
▁mission
哦
突破
inda
лардан
▁spirit
ακ
▁інші
▁mol
पछि
▁направи
▁lie
үүд
▁سل
ြ
พบ
▁என்
TRA
▁należy
▁Sono
▁başka
▁wrth
▁իրենց
▁pendant
▁Little
▁تس
▁tika
čko
▁tất
▁դ
▁Sé
▁Кара
▁стал
kommen
▁birlikte
▁обо
▁Kuala
▁tez
▁trouver
stus
▁سبب
▁ничего
▁DIA
కే
▁unit
CL
▁қара
▁Leo
වර
▁pjesë
子供
▁published
▁dolore
ぎ
▁kuidas
ਜ਼ਾ
▁החל
▁CV
▁femmes
ᓈ
▁شرایط
▁कुनै
▁вкус
▁Mountain
▁loved
fici
ਬਾ
▁soul
ທີ
дээ
▁np
our
хо
▁사랑
▁людини
цев
▁filen
▁protein
▁علیه
▁Sva
▁डे
ෂ
▁зүйл
stor
wak
▁GPS
マン
▁Cruz
▁outra
▁kritik
▁Format
▁жеке
▁ਜੀ
ិត
▁beri
忠
▁weiß
臨
里的
acaq
▁cinco
tato
kú
레이
▁හොඳ
▁Explorer
▁проблема
moni
äck
ຢູ່
針
▁θέση
:42
▁Haz
ета
▁магазин
▁caz
IMA
əsi
确定
▁vagyok
▁Messi
▁Эр
kok
▁وزير
擔
▁іс
▁Produk
▁ගන්න
▁spin
ીઓ
东西
▁nit
▁Mario
▁brit
▁pune
▁игры
▁Spo
▁නව
▁уни
▁könnte
▁imong
dė
▁ဝ
っと
▁lunch
▁sahip
ंट
▁መን
▁ví
▁wollen
ಲೇ
▁eens
▁چاپ
áõ
اش
▁Αυτό
▁trá
▁ακόμη
▁всіх
▁church
▁Bach
▁ბი
▁gaba
cza
nku
▁gry
▁الك
ruk
▁Seri
▁Gol
▁Journal
▁−
▁POR
▁шта
▁Desde
ился
ውያን
▁керак
▁giả
▁productos
▁одна
▁часть
heden
ÉÊ
▁Рас
关键
lne
îì
pped
▁പറഞ്ഞു
ړ
▁আজ
సు
债
có
詳細
▁industri
▁هست
jala
持ち
▁ځ
▁fint
ृ
ทํางาน
▁forslag
ından
บอก
摘
द्र
空間
렌
▁կողմից
▁ہوتا
▁빠
▁रा
▁алып
ілі
▁गरे
▁largo
惜
▁leid
▁allerede
▁ከተ
មិន
Żŷ
sele
▁تل
ラー
hamba
cev
ADO
2007
▁DES
CT
▁Օ
▁одной
▁znači
▁neka
オー
ここ
▁grupa
››
▁bruke
塑
▁φορά
▁äî
▁join
खा
深圳
▁شاہ
ზი
▁ejemplo
lur
யின்
ization
ιού
ポイント
▁kdo
▁aastal
▁chống
▁Ար
uff
▁którym
AAN
▁работе
自行
▁счет
▁കോ
▁fundit
▁disk
▁મે
▁осіб
▁terdapat
▁บริษัท
▁ڕ
▁bolje
ñÿ
ÉÆ
▁bilgi
▁Sultan
▁boj
يلي
一部
▁అంద
▁onu
▁Till
hau
心的
▁propos
ങ്ങള
ልን
▁Liber
ներից
แสดง
юсь
▁Ва
พื้นที่
処
▁८
lərinə
ḷ
▁Setelah
▁эс
▁bagian
▁predaj
▁exemplo
环保
▁khả
▁poor
▁Qo
ଫ
▁چشم
▁spus
ांच्या
▁नव
▁Minister
▁curso
▁mandat
능
▁үз
▁эр
▁ഇട
▁конечно
▁दर
ہر
瓦
▁agenda
ષ
▁치
:41
▁kua
▁ახალი
▁Take
▁comentarios
๋
▁арналған
▁수집
▁ולה
hne
▁rend
▁ກັບ
:56
▁Micro
ierte
OLA
▁bih
mic
▁wszystko
▁nedo
▁Alam
安装
▁cilj
▁tang
▁Popular
▁وقال
▁economic
▁පහ
ango
վեց
▁بیا
มั
灾
רות
념
iana
▁شبکه
▁تكون
عه
▁Ary
โซ
▁PRI
により
öz
vanje
▁کس
▁μεγάλη
陷
▁خپل
▁පෙර
▁ER
▁TER
▁Reise
hee
▁tejto
▁(7
ลาย
BY
/8
薬
招聘
▁puedes
▁lưu
vanja
▁digər
▁управління
▁Klub
▁můžete
mele
rec
pop
▁कैसे
▁abanto
faa
▁yahay
ÒÚ
▁Many
▁گون
▁hea
MF
▁Regional
▁투
▁copii
▁cliente
▁hub
રણ
▁ово
ぞ
▁Kind
▁мумкин
;&
▁gọi
▁stellen
vati
▁сразу
▁gemaakt
rant
.”—
▁프로
άς
kko
▁Аб
▁direkte
였다
▁日本
tiba
ені
▁шүү
obu
▁Meh
▁määrä
▁spar
炼
some
ү
▁tér
▁эм
တီ
▁mieux
్యూ
▁stadig
ብን
▁ดี
boek
▁დიდი
TR
▁програма
ሂ
▁Kho
Is
ොත්
▁valami
▁federal
道路
▁بت
▁శ్రీ
وة
▁libri
▁պ
▁ເພື່ອ
▁parole
感到
ົນ
ნე
▁screen
▁عرب
▁môžete
▁één
ალი
▁sekitar
▁وجه
article
yev
▁경기
▁ebe
▁coś
▁mostrar
pti
hua
▁Royal
▁Anu
▁Ultra
▁nosotros
こんな
▁ارسال
フェ
သိ
▁ኤ
▁tasa
esha
▁warna
▁ਸਿ
▁mettre
▁పరి
:57
hm
くて
▁пункт
霸
љ
ẻ
▁ДА
▁ಮಾ
ห้อง
▁Texas
langan
▁ấy
▁这
OC
▁effet
̶
▁relax
mand
ວນ
เดือน
▁gick
举办
▁parts
▁કરે
▁потому
▁회원님
Sch
▁සි
ț
▁chan
▁ground
▁ent
▁treball
灰
ဢ
களில்
▁binêre
▁kerajaan
▁Town
ял
▁sebenarnya
world
รู
▁omkring
▁നീ
ointi
▁ຫ
▁Links
▁hana
ਟੀ
kti
▁χρήση
▁ຢູ່
ဖို့
▁krt
好像
鼓
誉
狼
▁Ile
▁pê
▁اتفاق
▁центр
▁vou
▁Ao
یق
чь
▁mont
▁לת
เต
▁Há
▁فکر
▁2013,
▁సా
嚴
▁ਸਾਹਿਬ
город
▁ძალიან
真实
▁قص
▁गर
▁allow
▁связи
tė
هر
▁jasno
ступ
ЕТ
▁դա
▁قسم
农村
考虑
징
▁Gut
▁servizio
āya
▁wohl
▁ᑐ
▁republiky
▁lys
▁îá
▁kinderen
▁bikin
▁президент
ไม่มี
▁Srbija
shan
▁deep
▁copy
ỗ
▁баш
ală
▁fill
▁پور
ψε
NK
▁latest
▁พร้อม
▁lagt
▁Rumah
▁automobil
▁йўқ
▁τώρα
▁යුතු
▁тих
購物
▁느
ො
כה
▁رضا
させ
▁ust
▁метод
spiel
履
▁لأن
▁1978
▁lahat
▁କରିବା
▁školy
▁портал
ນັ້ນ
じゃ
▁JW
▁클
▁Prezident
ষ্ট
λε
诺
▁Moto
ової
▁لەگەڵ
▁Сан
▁विभाग
▁Parlament
▁있어
▁로
▁display
▁ᐋ
àì
curi
▁Typ
▁soy
▁ਉਨ੍ਹਾਂ
▁पे
▁exista
ilen
▁៣
mac
lp
▁دفاع
čku
▁Ren
lẹ
▁آھي
▁검토
กลับ
lainen
nur
ONG
▁Polo
▁રીતે
▁menerima
RES
:51
zali
逐
▁sender
ຫາ
卓
▁Lip
ڙ
▁уй
ေး
uꞌ
▁kolme
Men
▁kawan
▁dik
儿童
▁kilka
song
6)
▁väli
kové
▁таким
нер
▁40%
▁된다
▁dugu
▁após
▁Ikke
覽
▁tagasi
▁groep
▁olsun
▁stu
▁afirma
▁kin
îne
jn
▁देव
KL
▁nchi
▁былі
вання
▁හැ
лаг
ստ
tisch
料理
ረው
ۇ
때
аг
▁TRA
ゲ
▁teori
▁nostru
▁ث
▁politica
ството
ELA
ชั่น
剂
▁పార్టీ
▁hao
社区
▁route
▁због
йки
under
new
లేదు
▁Firma
ƌ
राम
▁cím
raya
گو
èë
ujte
aman
培养
喔
啪
mă
▁لوگوں
PV
íèé
awu
▁MEN
pag
naj
جن
ització
▁során
ອດ
khi
ایه
ገር
▁הע
ÉÉä
▁केली
imme
▁вечер
▁ത്ത
نى
cita
▁عالم
▁Gabriel
▁erhalten
▁autó
盖
VS
▁санал
▁ceux
▁society
▁развития
附近
овић
▁своего
tev
▁Pel
ပြ
ација
▁pats
▁hodin
SON
▁ху
రం
▁زر
等等
هي
公布
дат
어요
▁лечение
íû
aktiv
▁mientras
نە
साठी
▁diversos
kɛ
▁حو
ییه
▁masse
▁lap
▁expect
бол
▁ezali
▁svojih
หม
▁svært
▁cher
▁salle
▁צריך
扫
▁bois
▁bättre
ረብ
▁Restaurant
őr
já
▁security
▁ម
ച്ചു
nig
▁autori
刺激
▁propria
지도
iese
lő
▁سک
دە
▁hehe
ddy
▁artist
LET
tés
ᕈᑎ
▁قلب
拓
》,
nr
▁ቀን
▁wanda
▁fir
▁Ani
เลือก
:52
▁Вот
▁musi
ុ
▁naik
▁మె
▁alternativ
▁אמר
宽
ᐎ
▁aspekt
▁পরি
tka
▁estilo
2]
ží
▁концерт
apo
του
ക്കി
▁Ве
▁seinen
ችሁ
dian
ష్
▁disco
:07
▁كند
▁Mau
тр
▁কিছু
橋
▁xin
▁Pou
▁asia
ương
▁могат
kers
▁개인
行動
▁Creek
फा
קת
▁según
▁среди
ivat
▁Honda
اور
▁oči
▁tany
▁sleep
amat
ਡੀ
້
000
٦
▁yếu
▁đoàn
▁bolesti
▁stal
▁̇
了一个
▁контакт
▁1950
▁услуг
▁handle
LV
▁Table
之外
公開
▁ایله
▁JU
▁Marc
ぼ
hom
▁HU
럼
Ң
执
дик
ISA
hall
▁گذشته
▁gud
▁omonto
▁tiež
▁altid
▁받
▁matu
lund
▁Johannes
▁Luk
єю
▁Week
ጂ
耀
▁vannak
ছিল
▁kuris
▁biểu
▁cross
▁حاضر
လှ
وك
▁tina
▁ਸੁ
▁работу
人間
▁hilo
ış
rius
▁Had
▁nghĩa
▁tycker
▁conseguir
ORD
▁fuera
vate
gama
աւ
дов
▁Joe
▁enorme
改变
▁тема
▁කියන
▁민
tso
લ્
四川
살
▁fresh
hina
આ
卫生
▁город
▁monta
▁stað
іў
▁Qual
▁tổng
▁Ż
▁кв
▁oru
印象
ట్లు
▁보통
▁geben
▁chân
нос
▁pha
କି
▁Cloud
▁рішення
影片
▁tương
▁सह
▁Community
▁fica
▁tjera
▁часов
▁дней
本身
गत
ឈ
ຜູ້
eru
മ്മ
лося
▁unga
▁kitab
àñ
дал
iḥ
หัว
▁кг
▁Head
▁Чу
íè
▁Urban
igo
פים
ZY
чев
이며
▁тус
▁pán
▁szer
▁উপ
SN
මා
tice
▁Dövlət
κο
eiros
ਿਕ
સી
ಬೇಕು
▁хот
Par
咖啡
▁Uncategorized
▁tjetër
િ
竟
出的
चं
▁მხოლოდ
▁брат
きます
▁ahli
mpa
andu
▁svenska
▁laba
JO
枚
▁Ron
▁नयाँ
▁місце
営
stone
▁今
ders
▁قطع
▁Dhe
▁kro
▁Mega
▁ബി
:47
▁maskinoversatt
▁merasa
▁1920
▁لري
▁मुंबई
▁Փ
▁нова
▁towards
▁xử
স্ট
▁트립어드바이저
协会
▁katanya
▁pictures
▁tão
▁hakkında
ril
▁Roh
▁leik
▁texto
tour
▁dyr
ङ
▁vente
▁đảm
▁així
▁kö
▁Unternehmen
قول
▁Family
чан
יר
色的
していた
▁instal
▁kto
也可以
▁लोग
▁ہوئی
ન્
▁Fair
registr
▁interessante
ಕಾ
uuf
כי
▁Omo
▁České
rab
ούσε
▁첫
説
▁regel
▁Когда
▁Young
▁оваа
▁sadece
▁rámci
▁obras
telen
▁clientes
Net
▁Pass
bula
▁скоро
▁երբ
▁Court
▁lấy
куп
ಿಲ್ಲ
▁stora
▁ass
盒
ଷ
一度
번
▁Ist
იც
▁nena
▁voksne
ddu
▁NH
▁НЕ
▁юу
roc
▁mı
очки
▁век
gento
▁विशेष
▁timer
▁Politik
”)
▁تورک
▁meh
▁ऑ
▁որը
tant
ент
lerinde
▁direktor
igwe
CG
力的
▁Kadi
year
کس
▁ճ
លើ
NU
▁Tho
יל
▁BAR
▁હું
▁KB
kati
▁өмір
▁nichts
▁prodotti
▁español
еб
dini
▁پول
▁grade
зо
杜
▁entrar
▁crear
▁следует
bana
▁peyi
motor
oare
òn
quin
▁otu
ങ്ങളും
ΡΑ
▁fantastisk
وع
лон
юр
▁बता
▁biso
損
▁taba
úr
▁1983
вид
▁ච
▁soli
▁болсон
:54
्दा
▁چیز
▁søker
ંડ
▁būtu
署
▁sag
▁tsi
癌
藤
kalo
lement
FM
▁Fund
ash
許多
sí
下さい
сил
valo
▁cose
เพิ่มเติม
▁edin
▁ليس
▁Их
mé
▁질문
▁span
▁ಗು
▁молод
▁Help
▁invece
▁libero
▁जे
βα
▁خودرو
▁apel
▁выше
▁milf
▁ບ
UNA
▁귀
▁سە
erede
▁sole
▁Hell
▁संघ
የት
▁pagka
▁ቦታ
▁बैंक
▁মি
効
▁confirm
▁yaye
▁Lietuvoje
爷
▁informacije
ēja
▁sisi
สด
▁intra
▁Mira
▁seksi
At
▁כאשר
▁무료
▁farklı
▁Mill
▁Thanh
▁Detaljer
▁Tuy
▁promet
▁sejak
▁бой
ষ
▁කියල
▁олиб
ņa
▁bron
麵
ANO
羽
ിന്
▁ҳар
▁clo
▁Update
▁categoria
确保
▁pues
▁Wanita
▁Pul
機能
ရဲ့
ELE
मो
▁кара
▁Takk
循
tron
▁ਬਾ
払
טה
:06
▁behandling
▁haka
jih
اڵ
▁slučaju
▁Tsy
ステ
pula
▁Pir
▁Hair
にある
ICE
න්ට
ап
のある
▁база
▁adott
▁біл
මේ
长期
▁thuốc
:08
▁آف
ησε
▁ذکر
之中
▁deposit
aram
▁mä
limi
हार
리를
▁kitu
indo
oru
цима
ици
▁Ја
▁IR
▁බි
ებზე
ନ୍ଦ
▁smatra
ाउने
▁ప్రతి
▁terve
สา
▁Një
▁deixa
-22
:03
▁ठ
▁Sarah
damas
▁dress
▁tengok
elen
ცა
yat
taja
▁Arbeit
ಜೆ
▁giữ
میش
zing
险
▁seis
究
SKA
ற்ற
ኛው
ából
▁groupe
▁Né
ხ
▁segment
▁ly
二十
지를
జి
āli
▁فوق
єм
okra
性能
يش
Ok
oir
▁недо
▁영화
▁hü
ուս
tez
记录
▁mooi
▁acesta
sına
▁زمانی
▁పా
euse
▁Stre
每一
ተር
בת
umas
▁proyecto
▁άλλο
▁smak
▁provincia
診
靜
▁Dun
ისთვის
▁Hei
▁EE
▁слід
ត់
now
▁käsi
▁formula
OG
view
▁Ак
▁यु
▁membeli
▁९
▁Tā
ዳን
▁الحر
ќ
ండ
▁Ÿ
▁Jeśli
મી
lju
usu
▁मत
▁began
uši
▁Historia
▁temas
就在
苗
▁آم
▁процесс
訓
▁cà
▁Gem
▁siger
放在
дегі
▁รับ
ÌÓ
انے
บท
▁나는
စီ
▁juuri
▁fecha
ተኛ
▁pai
▁partido
▁बारे
美元
360
ندو
agh
不了
:04
ናይ
▁최근
▁Лу
▁הד
िए
▁toko
ပုံ
▁mengatakan
▁lakini
▁lol
▁حالت
▁στιγμή
▁riktigt
▁koku
▁naende
▁Him
▁Want
▁foot
▁Toyota
dong
▁канал
▁Disney
▁развитие
▁परि
ሽን
▁(12)
▁Selv
명이
вши
▁1981
の方
vă
дзі
ίζεται
rken
lop
▁pakai
▁жүр
黨
▁आपके
/5
peri
올
▁protection
▁dekat
uwe
▁якая
都在
らしい
▁چار
▁muslim
▁abril
iwe
▁использовать
隱
▁Ова
mama
▁parlament
いつ
▁Lisa
ờ
▁egin
▁выбор
▁Omonene
▁۱۳
spect
print
ihi
▁jab
ଥ
บา
币
▁ਹਰ
▁cik
▁joy
▁достаточно
▁ଘ
▁lage
▁କୁ
かけ
/11
▁pacient
ají
شا
แจ้ง
▁tage
άκι
сел
Ve
▁vraag
▁aç
▁мас
▁مست
▁jäsen
nstling
RET
גל
▁komo
▁Dark
▁nooit
dv
aid
rist
ളി
▁정부
jang
)、
▁nac
▁찾아
Post
▁chương
ลอง
▁сред
−
▁избор
▁이름
▁became
▁Жа
▁hjemme
アル
Pri
▁playing
▁cây
იანი
▁таму
ძე
絶
飾
▁verskuil
▁nā
ίσει
ፕ
sma
밀
近日
gram
ແມ່ນ
ശ്
OA
dog
▁مگر
לת
ગી
▁LL
▁gaar
▁Source
▁없습니다
创造
▁Nap
fre
baa
使い
જા
▁listen
▁Beograd
▁광
ட்டு
▁بیش
ські
合同
▁совет
▁conocer
我就
염
Sp
UH
▁Since
事业
ించారు
▁ស្
或是
▁automatisk
uck
▁Bundes
▁ilma
:09
▁ہ
▁Mü
献
ića
陪
▁مرکز
▁हाल
▁đầy
hul
ψ
&#39;
▁<3
▁baye
▁pelos
▁Zum
▁anyị
ஷ்
ሳት
▁vienas
▁homme
▁Ком
▁baya
кен
让人
▁changes
欠
หมด
бит
▁ದಿನ
ຫນ
▁verschillende
▁អា
konto
▁yar
ける
ಿಸುವ
研发
▁Xe
▁publicación
▁Voi
layan
▁edilməsi
▁рублей
装备
itsi
▁rosa
▁Got
▁15-
▁පි
▁Wan
▁אנחנו
▁શકે
រី
▁اسے
▁શું
pic
▁പരി
▁aparat
▁fashion
▁υπάρχουν
▁1975
ทิ
▁பு
もある
āl
▁daw
ชาติ
▁հետո
▁spiritual
νει
▁bitte
TION
ێر
▁Bab
▁Dog
▁opge
▁Fashion
كا
▁Huawei
▁تیر
▁πάντα
▁terbaru
вч
81
자의
▁Dei
моқда
▁جديدة
ڳ
ယာ
▁vii
▁Aquest
▁१९
▁három
価格
▁செய்ய
mais
лд
▁Series
▁mesaj
ipa
▁trebui
本当に
▁هن
▁Bitte
▁जारी
იან
▁ল
▁vurdering
▁ነበር
▁مسائل
نګ
cking
▁entrega
▁precio
有了
مک
▁2007.
▁mese
▁ekran
पि
uno
ৎ
死亡
탁
▁manager
▁sagen
▁अनुसार
▁luật
▁=>
▁اصل
ائل
ASI
ႅ
▁siamo
muka
▁pamat
▁እስ
saba
kota
▁mikä
▁Ot
ૉ
폐
hard
▁너무
▁govori
▁Vaše
ăng
ึ
almente
▁сила
▁చేసిన
▁vice
▁arti
▁sambil
huis
өр
▁কোন
▁също
▁ගෙන
▁국내
▁размер
▁jun
▁autobus
wara
йн
▁Yezu
ству
迹
েই
掛
just
▁basta
▁ହେବ
овий
▁ລາວ
šie
기는
▁desta
▁ដល់
umba
▁kỹ
ഭ
тері
▁gent
▁ihany
▁venner
▁København
▁ngem
▁uNkulunkulu
にお
staan
گا
▁bina
▁člen
▁petite
▁ciò
▁greu
▁ಒ
afa
▁منطقه
rz
▁получить
schaft
▁posibil
舍
▁회
▁tinha
▁доста
▁Lá
▁ਦੀਆਂ
▁ساز
▁پنجاب
▁sup
▁البته
ël
▁کننده
ías
ಫ್
▁միայն
▁(16
▁onların
▁barədə
▁daje
▁каждый
बल
▁천
▁کنم
્યુ
魅力
▁exactly
▁Newsletter
είο
rani
市民
胶
▁potential
▁lever
jó
▁terlalu
▁İs
▁103
▁drept
▁הכי
▁weitere
▁Бер
eto
jų
▁block
playlist
▁अपना
▁viz
▁תק
لې
ေတာ္
抜
iyor
▁Chile
ורה
▁(“
ఫ్
▁inge
zze
▁Wild
ваць
▁dream
れて
▁τότε
kép
意外
niji
xit
供应
▁salud
▁kontroll
▁beat
▁ΤΟΥ
▁utiliza
▁express
妖
РУ
▁Κο
▁além
5)
ያው
出去
▁wäre
▁Room
▁当
▁Dra
▁alat
اري
▁teren
SKI
▁Wind
logo
▁बैठक
▁daya
▁თქვენ
▁nih
▁selon
加快
▁gehen
▁mengu
▁111
ాయ
▁dare
▁Fly
որդ
▁зараз
▁enemmän
禁止
ขน
icha
▁rẹ
ання
▁стран
altra
▁ravi
▁기자
▁eur
▁پرداخت
▁pata
▁nevy
▁reisende
▁bizim
豐
gging
自拍
▁пот
avan
▁पि
дь
دې
▁خطر
راد
And
ಮಾ
▁ਕਾ
▁Premium
innen
▁ít
制定
śa
api
ючи
kang
满足
▁Jana
▁بهترین
arii
▁telo
▁ປີ
ិ
▁ff
ISI
▁Zam
ってる
▁sebi
νά
יף
೧
实践
ไอ
မ်
▁leuk
三个
123
▁ria
ลูกค้า
rey
▁gleich
▁Point
ությունների
▁Classic
▁ເ
ologi
မိ
vang
▁driver
▁kehidupan
▁70%
▁Chủ
ГА
サー
▁resultado
▁totes
ザ
▁tanah
▁adapt
越来越
ባቸው
andro
▁पो
food
▁matka
▁parasito
▁тогда
کردنی
▁тот
ನ್ನ
ichi
▁pemain
เป
▁Hos
▁ساڵ
рад
▁Што
ຫຼ
▁인터넷
▁apre
▁OL
ĚĞ
▁సీ
maksu
▁czyli
став
න්ත
mila
ดัง
ოდ
▁Kuch
▁деятельности
▁yaxşı
zg
依法
▁մեկ
▁worked
▁pem
▁Development
▁دین
▁гледа
▁była
▁sint
Web
▁SV
▁국가
▁tô
▁chay
▁מע
▁millor
▁Jest
▁leng
ƴ
▁MM
▁café
عيد
▁implica
▁Интернет
▁regler
▁Nad
▁мин
ന്ന
▁futur
▁rohkem
享
.......
▁זמן
ں
▁EX
status
擦
▁hart
ගෙ
▁données
▁اسان
▁Jane
hele
半年
gada
:49
మీ
が多い
すれば
遵
패
ሠ
岩
يرة
▁ayat
▁гадоў
宣布
▁۶
▁zuwa
-25
▁évi
ี่
▁സാ
ТО
ogi
▁toán
ร้าน
rop
▁compartir
▁kumu
▁Grad
လူ
▁тя
▁suport
▁과
zwe
▁dim
쿠
rug
hotel
▁عنه
ंच
ღ
的心
▁Presidente
知名
▁سور
▁какой
▁Zá
耗
จับ
:53
▁घटना
oms
▁cru
itz
▁saṃ
▁vilket
skie
▁کانی
▁123
▁choice
▁DNA
▁وضع
▁výkon
英雄
lett
혜
▁mill
▁kvar
▁байр
▁эса
▁Ley
āla
Tra
遺
HH
▁kiel
овый
▁negeri
天津
▁sports
ној
▁власт
▁altında
▁Hann
ight
▁Hvor
▁ລ
▁PD
▁munká
zî
▁ügy
▁kono
ገና
ligen
スタ
ᔑ
▁večer
▁gone
▁oc
vær
▁isu
▁اسلامي
▁Nyt
hali
覺
▁field
леп
▁tes
▁nunc
▁org
▁ниво
▁rit
ቸውን
▁mesti
▁käyttö
onso
▁මත
▁Бога
▁Slot
▁şu
સ્ટ
рим
ине
▁adresse
nę
ங்களை
▁Oscar
稿
▁ṣe
▁થાય
▁175
▁0,5
▁celle
▁penuh
ପି
ூ
дей
பா
▁adopt
rien
▁이유
▁ከይ
ribu
這是
èð
▁נע
каз
▁маш
▁действия
▁ਲੈ
嫩
▁binne
ダー
૧
▁Shan
▁сот
▁certainly
vare
▁misma
▁expert
▁gee
лег
▁దా
ensi
▁evidence
讨
яти
锋
▁debate
▁procesu
▁fiz
▁Ça
▁Ас
▁ຜູ້
▁Ett
tale
▁माग
IF
lep
▁فل
的生活
▁Ngo
▁ingkang
alka
▁жоқ
▁ಬಂದ
▁Mol
やって
పీ
ತ್
▁Бел
дж
ນາ
▁lou
вати
▁samu
▁çi
þi
杂
ांनी
ταν
▁Mohammad
ятся
▁diferents
ბა
BR
ਿਤ
▁ಚಿತ್ರ
pā
できます
▁బి
▁leva
▁afla
▁Ash
▁gens
ORA
▁próximo
▁కొ
▁συμ
是不是
▁فصل
ряд
▁minuta
▁βρ
回答
▁बढ
စေ
job
▁konflikt
赚
▁PL
▁بەڵام
ັນ
▁ав
▁свое
▁tedy
▁Kop
▁גר
▁viagra
▁ühe
▁kez
بان
▁miest
ेश
▁Single
▁ಬಾ
klad
▁Mode
墙
▁sell
▁Esperanto
▁често
UX
▁bè
▁авах
Windows
धी
▁attività
nez
83
▁turist
▁következő
▁كۆ
▁lima
າ
▁ਪਾ
ափ
▁María
دة
▁kä
เกี่ยวกับ
状态
▁എന്റെ
▁Mapa
▁família
▁tato
lingen
▁бул
▁urte
▁Mutta
▁Pirm
▁(11
fas
寺
▁بودن
HT
▁ว
▁bár
▁використання
יק
kuu
不管
▁fruit
үл
▁שא
័
▁Map
协议
寸
ദ്
▁variant
àí
keta
---
ណា
GT
وک
ÂÈ
▁programme
▁મુ
ulla
ijn
embe
気持ち
άζει
▁ovu
▁Yer
吐
▁بأن
▁הבית
▁Gil
▁حمل
▁жал
▁මැ
▁lors
▁Jis
▁Pokud
సీ
▁Maybe
จํา
▁بك
िट
▁będą
быт
τρα
印度
▁tovább
薪
rite
▁korang
聊
▁રહે
▁पक्ष
iru
▁Kes
ിച്ച്
▁проведення
▁Marco
洪
▁lẹ
ање
亚洲
äû
▁според
▁hivyo
▁٢
▁takže
▁равно
▁сад
▁rag
റ്റി
kuva
▁Ł
cky
▁ё
▁गते
▁kulture
荒
▁farm
LC
▁erste
▁observa
▁Uno
▁behöver
▁jogo
ಲಾ
ič
ବେ
៩
ମାନେ
username
zne
就业
▁ansvar
団
乌
▁četiri
▁tutta
▁Abi
hí
schutz
▁بايد
too
▁Fre
ଦା
▁Pia
▁wall
▁Pierre
▁ká
▁permainan
▁धेरै
▁vle
▁özel
त्
做到
▁vrt
不再
tál
▁आपल्या
Ղ
▁centru
变化
jun
革
ори
ฆ
bhi
▁পৰা
がない
▁čini
ljen
▁ارزش
▁1968
▁Place
कि
ены
▁സര്
▁Dünya
କ୍
▁համ
대로
egy
nă
▁Try
▁aceea
Да
ਗੇ
oda
dă
ครู
▁koti
▁przypadku
▁срок
лык
▁bekend
तील
▁gives
ដល់
ணி
kü
loc
▁ОБ
▁ND
▁Drama
mh
▁sumber
▁stres
▁Arts
▁pirm
RIA
他们的
▁jouw
хід
▁бъдат
▁stránky
▁բան
App
▁הכל
됐다
▁Jur
▁retro
一条
▁toliko
扶
ապ
▁cuba
ുവ
▁ඕන
▁této
▁oplysninger
ood
ऊ
▁celebra
مند
▁Ata
▁जना
مو
维护
▁1080
▁Че
YI
▁υπ
▁amigo
▁pika
▁opis
▁Arbeits
▁Mike
▁Azərbaycanın
zwi
මි
ረት
公里
ILE
凯
ভাবে
boj
▁انواع
bada
▁brought
▁arbejde
▁seseorang
▁CAR
وى
ಯೇ
จิ
▁mesma
탄
San
▁wouldn
▁njega
▁dosta
▁nors
rende
▁ממ
ంగ
/1
센터
▁("
▁Vse
▁plek
jama
чо
進入
▁Peng
更多的
學習
jski
ിക
▁third
▁106
▁BY
.[1]
dā
ද්
ອກ
▁이후
▁بهتر
valt
▁Programa
▁امور
rij
▁clip
▁direitos
▁plak
▁አቶ
▁voa
rsa
▁titul
ڤ
▁estan
▁والأ
।।
▁යන්න
▁Nuk
▁SAM
だけで
▁самых
▁fej
ister
▁alarm
▁sẻ
▁Todo
▁relación
▁norma
lust
▁ਛ
▁ຈ
▁konkurs
▁gerade
支援
끼
▁Latvijā
▁fondo
▁آذربایجان
gp
სტი
▁кри
stadt
исти
▁Py
▁fle
కం
▁139
nbsp
▁hap
▁решения
▁ቆ
ತ್ತು
▁Tru
烧
▁jednog
VP
▁Cur
▁туш
▁nebude
▁अर्थ
▁مهر
aient
▁contest
рал
平均
▁средств
▁πα
лат
கா
!?
▁चि
▁ໂດຍ
競
▁날짜
▁принцип
▁phủ
dü
▁Mba
ခု
▁12-
▁Flu
▁стол
▁بانک
▁зим
欢
ИЙН
剩
▁Cuba
泽
Em
▁чрез
▁bydd
▁bulate
lanan
▁Johan
하실
▁winter
LAND
▁đạt
ānaṃ
kaj
▁scen
entre
Sh
▁9-
สฺส
▁Familie
▁مؤ
我也
▁tuna
tad
▁cập
▁Department
ச்சி
▁끝
▁pitanje
就像
▁ero
овать
▁asal
په
▁অব
guna
್ಯಾ
拔
鼻
ṟ
▁निर्णय
াৰ
▁script
▁grupe
τζ
յ
▁Sä
াব
▁IM
▁설명
ést
▁lingua
▁round
▁máte
▁Beli
▁באופן
CN
ピー
▁Fotos
▁בבית
▁وو
ឲ្យ
▁család
▁ਇ
▁дарга
ल्
▁Derfor
▁نمایش
▁иска
иши
▁buen
áin
čio
хон
▁Однако
▁لیگ
▁uya
▁betul
▁प्रेम
اك
сер
婆
▁informa
统一
▁gjen
▁Mkuu
()
▁penis
▁Jose
▁besser
辣
ДИ
▁‡
네요
▁1.5
▁representa
bos
▁одним
content
▁другой
ыс
▁luego
▁коп
▁Скопје
▁2016,
励
▁محفوظ
▁importantes
▁¥
right
▁fikir
▁bos
сек
▁සිය
▁ales
▁cứ
▁وس
▁αντί
▁gång
いる
ชั้น
▁Down
గి
▁Вер
êó
ikus
激情
▁adult
▁ministro
▁таа
▁trenger
card
otu
ృ
▁mê
粗
ับ
锁
鄉
Ɵ
tres
▁इसके
引き
▁suna
▁Cad
▁άλλα
▁volte
▁attraverso
▁palvelu
▁gala
▁ክፍ
▁presentar
ட்டி
▁բայց
▁أيضا
▁keh
▁manu
rö
▁osnovu
▁însă
աթ
▁kanal
▁ខេត្ត
▁edad
治理
▁duas
▁چھ
▁Print
▁२०१
سازی
aidd
វិ
čen
gado
▁कई
▁zin
▁Kao
raq
广州
스크
▁оста
gah
▁Суд
▁leder
じゃない
られた
▁পে
زه
▁만들
Ăƌ
▁innen
곡
▁ਵੱਲੋਂ
上市
सु
▁1200
nii
őt
?“
▁সম
▁აქვს
வும்
ంటే
▁∑§
▁tidur
▁incluso
▁Institute
えた
▁venta
ient
았
▁अहिले
▁έτσι
▁grazie
▁cạnh
▁sharing
merk
▁док
▁Klein
▁kunder
▁vine
▁terms
مثل
єр
▁필요
sili
วย
▁مہ
gula
komst
ried
▁desarrollo
▁سوی
јте
慢慢
Ạ
詞
▁товар
▁मै
▁nchini
▁וא
▁nhật
▁различни
▁kut
onych
യിലെ
▁ति
▁justo
别人
▁atá
▁muuta
▁আপনার
▁ממש
好き
рэ
▁fini
▁elég
迅速
▁direction
鹿
لى
▁১
▁الآن
uer
ュ
▁संस्था
▁années
ಿಯ
ฟัง
▁команд
101
▁ஹ
我是
សា
ימה
▁gust
猪
ṣe
িয়ে
كس
پا
▁Alba
▁$1
▁Rob
ај
紹介
ују
ksen
思い
▁տես
▁landet
▁високо
▁шмат
▁أخرى
みたい
▁qualità
▁시장
шта
▁Nä
leka
▁لیا
▁pes
▁keessa
疲
럽
▁ಹಾ
ರಲ್ಲಿ
စ္
ကာ
▁skol
▁қай
▁தான்
лок
lijk
▁prøve
▁mely
▁كيف
▁drink
ım
▁suami
▁Ekonomi
▁پيش
▁pase
მი
アン
裂
▁dere
벨
ṇā
▁գր
▁Olen
▁زیاتر
▁Rau
▁vuotta
▁بول
▁ನನ್ನ
ەكانی
▁Secret
▁ஊ
cine
▁кры
Ρ
rätt
ຜ
remo
▁Andre
ОК
▁characters
ëü
avad
背景
▁ещё
▁એમ
ᕐᕕ
3]
らず
▁svaki
କାର
UI
同意
▁بدل
机会
▁пари
▁пан
▁цели
▁negativ
▁глав
лыг
▁Ach
▁ઇ
ंगा
மி
ขนาด
ಂದ
▁wild
▁આવ
▁Metro
▁لے
▁negli
▁Jou
භ
▁esti
▁wants
ประเทศ
▁Title
▁таго
▁۱۰
▁320
indu
▁Gin
ဘာ
▁ძ
▁tässä
ipun
هه
▁libera
acja
▁jeśli
▁בק
▁interna
莱
▁ሁኔታ
čna
▁ил
▁sommer
▁ezért
價格
▁rank
▁تك
يء
▁міста
▁මහතා
ndra
▁ряд
▁beni
▁سید
ющие
രാ
ಸು
Fe
▁اقتصاد
teli
▁HI
▁kudu
頁
cido
!“
▁vaxt
径
▁Rod
5000
ЕН
▁казино
рис
▁этим
vant
っています
sila
▁Steve
ੰਗ
ഞ്ഞ
▁शे
▁መር
▁έως
เข้ามา
▁Sig
▁बी
▁محمود
▁fier
-24
▁กับ
▁დღე
▁фонд
▁سێ
▁firme
dle
發生
▁venit
ıyor
▁ဗ
▁pouze
▁Phil
ǧ
irea
▁dadka
ჩ
址
ေတာ့
双方
▁karar
实力
עה
▁Ду
自主
▁bani
ስቲ
▁cụ
▁의견을
ayaan
rme
依然
òl
▁âm
▁Kü
▁هاو
است
▁wereld
▁cl
▁всичко
▁français
ОР
▁Республикасының
▁عضو
▁rezultate
سته
▁адзін
ācija
▁correct
▁нещо
▁facut
▁minst
िएको
ยาว
сьці
سم
اسی
▁1918
▁dados
▁coisas
LD
▁Opp
pura
núť
▁pizza
▁única
ింగ్
▁கட
แนว
▁Taip
აა
▁સમય
▁kill
▁жена
▁शहर
▁буду
▁korrekt
▁çek
▁Salam
▁жаз
mam
sela
hale
ಜ್
▁Beogradu
stoff
lova
ðó
▁Cross
▁ଲୋକ
藝
▁κριτικές
MBO
तु
▁бошқа
▁правила
▁beauty
tham
▁Prime
DER
gues
▁minuti
完美
wet
▁juna
rm
▁समाचार
共享
▁aşa
▁hưởng
halt
పి
▁그러나
lol
▁जन्म
▁према
tili
гээ
▁Осы
▁BLOG
▁авч
▁Where
▁대통령
hre
دون
▁Así
▁magaalada
▁trust
▁kodu
itis
▁১০
ላል
▁לג
▁Cri
▁všetky
ちゃ
cional
▁nerv
kond
AQ
▁នៃ
▁ọrụ
筋
▁kamen
ډ
OB
▁өт
hiya
০০
దే
lava
▁قبول
▁quatre
▁υπερ
kë
▁Tôi
▁هفته
▁판
▁lebo
တိ
▁մոտ
▁ໂ
▁wit
▁mestu
堅
טי
▁perhaps
▁ከምዝ
▁Williams
▁travers
▁န
rich
▁Meta
▁Lou
▁krok
cou
▁طریق
▁breve
ორ
▁المتحدة
▁下一篇
นม
▁mogli
▁muzik
▁կա
▁आपण
▁perus
ინ
chik
▁తెలుగు
άσει
过来
shwa
▁Wol
ᓂᖅ
자는
ఘ
郭
▁Той
▁tưởng
▁Mus
▁panjang
dali
▁Lam
ाउन
▁कप
▁bambini
▁ari
▁thất
誤
ෂ්
ຝ
କା
▁iad
qin
▁κόσμο
▁블
地域
▁werken
▁ብዝ
▁中
▁diper
▁Nes
▁fontos
▁Dansk
▁Hän
▁검
▁군
dő
사를
▁razvoja
▁Hercegovine
▁چل
▁కానీ
▁connect
▁болгон
ngwa
▁periodo
▁ধ
▁දෙන්න
▁Tem
▁espera
▁History
▁nenu
▁mít
VN
▁meglio
റെ
ᐅᑉ
тиб
므로
▁väldigt
▁pomoć
做出
իվ
ορ
▁hänen
▁표
▁markii
▁komma
▁WO
▁ලංකා
antu
▁Кол
▁หาก
▁قسمت
악
手段
زاد
center
โรคสะเก็ดเงิน
ował
▁velit
▁विषय
▁보고
▁болды
▁Lok
nĩ
▁sekund
人类
▁visas
reng
▁goal
▁eshte
ajn
▁Satu
atura
▁KL
नाथ
▁Го
▁дух
▁große
öö
美食
▁zoek
▁filter
ავს
ਕੇ
्दै
うち
▁ким
▁Monday
መጣ
fc
▁которого
▁neid
▁프
ítás
âr
▁Salon
▁стороны
gade
▁ኸ
▁mass
ွဲ
▁tube
rine
180
▁csapat
ative
kuri
してる
▁bena
▁saker
」「
stil
▁politi
▁odgovor
▁lựa
▁Kjo
▁Μα
нии
▁причин
限制
▁öt
鏡
▁aldri
▁Nda
▁VIP
▁tradicional
▁kteří
▁රි
გან
▁чист
ਾਇਆ
▁gemeente
▁접
▁ಬೆ
త్
autre
1-
нае
▁1977
landa
onte
ìó
▁wszystkie
ಕ್ಷ
တို့
けて
tni
ory
▁resultat
▁хамгийн
ŝƐ
▁politique
獲得
форм
▁Gia
wag
▁acestea
▁movies
0.000
摆
▁vr
െങ്കിലും
BL
فل
izm
的話
首页
▁Hab
始め
ງານ
ទី
▁drugo
▁našich
แค่
▁floor
agan
シー
▁нешто
อายุ
▁бўлса
ес
▁produktu
▁yeroo
▁pulak
▁ሞ
ైనా
▁Maxamed
▁സിനിമ
减少
▁menm
팅
▁sā
rap
riga
▁maw
ੰਡ
ებ
▁هەڵ
▁Всички
stelling
▁Abdullah
īti
▁EK
▁1973
૫
子的
▁eto
▁म्हणून
▁كات
▁sr
haa
▁1940
▁Rand
ሄ
▁Acest
▁âû
▁თავის
▁الو
▁Hadi
▁내용
▁дизайн
▁ئێستا
▁math
nina
ડા
▁място
▁Liverpool
▁pontos
▁2015,
负责人
▁‹‹
ונות
бир
思考
sien
▁milyen
▁හෙ
ρό
▁runt
▁രൂപ
▁খ
▁бөл
▁typu
▁laser
▁ekspert
▁ա
▁найти
ดิ
àð
▁dhu
tő
▁Ā
▁street
দে
scher
▁प्रकार
റിയ
▁kommune
▁Magazine
하세요
वाद
▁यहाँ
▁Vás
χα
▁රා
▁Merci
▁1,2
گن
ຄົນ
寻
▁yapılan
▁6)
уються
тите
岡
▁luna
▁Stand
ಿದ್ದ
gaz
▁तरी
ધ
ஞ்ச
ларды
àë
▁slag
▁ride
▁നിന്ന്
即使
meli
▁کراچی
ەکەی
▁Dai
▁زمینه
▁cast
▁procesa
ezza
▁ಇಲ್ಲ
erin
δα
▁tani
▁ÙÔ
TES
smo
▁lak
▁tweede
驻
億
僕
▁Bull
턴
▁තුළ
▁Hen
▁Menteri
▁1976
涉及
者の
▁hús
ели
▁منظور
īr
▁boste
▁tše
▁areas
▁chama
▁Kä
▁German
▁ᖃ
နှင့်
赏
וב
▁bardziej
ений
тель
▁했다
▁наша
▁것입니다
ブル
▁микро
urinn
tot
ତ୍ର
▁core
▁Need
ruz
▁эл
▁එක්
▁kora
DT
ака
ներով
ified
▁nek
არ
ौं
▁三
نظر
Min
▁ᒪ
hof
▁industry
▁развој
face
կան
提示
asya
ruh
્યું
▁dele
ότητας
▁Gun
▁ورځ
▁độc
เห
不错
▁VIII
販売
يني
▁moni
lagt
▁chur
▁وهي
▁kommentar
▁Society
ညီ
▁۷
▁Price
▁Yap
▁Computer
責
اط
續
ajú
▁berikut
▁વર્ષ
ያዊ
▁mesin
Ăů
女生
▁ulike
▁kokku
ORI
ໍ
▁ᓂ
最好
▁הר
▁Buhari
▁Vä
▁cuối
ডি
▁empat
▁nettsteder
▁Liên
zela
lọ
心中
▁ด้วย
▁gö
ữ
▁БОЛ
ాలను
▁živ
▁rispetto
▁කා
ファ
ნ
▁185
▁вельмі
NYA
可愛
ಣಿ
Wi
ذا
▁câ
▁ಎಂಬ
▁দা
club
▁Chor
rni
▁ດ
มากที่สุด
▁Θε
▁tillegg
vän
掌握
▁reag
▁opportunity
▁נו
ដោយ
није
ambo
▁bune
تن
▁manda
▁boa
ცი
▁poden
хме
▁تب
ଉ
▁hev
ታቸው
พัฒนา
▁lip
LAS
眉
▁उपलब्ध
▁strada
▁2011,
URI
nout
▁виконання
▁balance
▁Vall
▁hoch
ура
ùng
▁release
▁(«
רק
▁interested
▁дээ
▁sku
▁pt
▁grab
уда
▁supra
▁grau
▁նրա
○
淘
▁прес
ಿನಲ್ಲಿ
▁inwe
▁ktorí
▁Lie
處理
▁export
ARD
▁درست
▁ມາ
▁obsah
غو
RK
şte
奔
▁puu
답
▁কাজ
▁teşekkür
整体
▁vorm
网址
房屋
▁rau
▁своите
▁tule
ไม้
NC
▁bɛ
एं
▁tank
zott
▁hè
▁basic
伏
▁Saudi
▁Dem
ଳା
▁מק
▁Página
tki
▁кош
申請
▁صنعت
▁gennem
mål
2006
‡
▁зло
견
▁foc
ateur
ਸਟ
百度
ผิด
▁келген
ились
▁течение
ท่า
IRA
▁madre
▁isteri
▁भएका
▁ਮਾ
▁اسی
▁Pun
▁treatment
род
▁මෙ
фер
▁viņa
▁percent
еше
▁parce
▁reflect
▁tuma
晴
▁Eiropas
年代
▁đáng
▁poly
▁symbol
แก่
えば
nec
▁ਸ਼
▁Ton
ladi
▁Evropske
دل
ন্ত
▁Pic
estä
▁культуры
here
ikh
仿
▁disponible
ง่าย
▁ሰላም
kunta
▁Đông
itha
რო
eya
▁형
至少
ምር
▁regi
beri
APP
ได้รับ
กรรม
▁በኋላ
존
▁odnosu
▁25%
▁letzten
onda
▁بچ
意义
သွား
▁እየተ
▁Wala
▁هنا
rma
āni
▁Bergen
ange
▁ส่วน
▁xx
▁verb
▁검색
▁tối
▁prop
▁cez
spill
♥
▁gwe
▁справ
kaa
ຫລ
▁quickly
如果你
stin
▁dè
கி
▁Frei
▁جاتا
kseen
▁kabel
▁متر
Ė
ᓲ
эм
▁быць
amang
▁Nun
▁(13
ovati
▁скачать
▁පු
▁Kru
Ń
▁특히
家的
▁benne
▁rady
▁мест
▁nimic
▁750
▁Ū
▁онд
▁obe
高清
▁szem
GG
कडे
▁regula
zini
сно
▁وجہ
运行
▁skil
юцца
gri
▁Samuel
▁Ces
▁đâu
▁vardır
▁funciona
▁einige
▁её
kwazi
綠
ใต้
▁wszystkich
▁Jordan
▁Tous
▁zap
▁brain
કે
▁تلك
▁уште
▁vand
arı
ርን
osan
▁historie
legen
遍
ชุด
习近平
▁منها
▁hast
اره
▁135
teko
▁continuar
▁FO
▁107
▁stark
▁vuosi
▁rural
▁Ár
inc
▁ቃል
ении
▁Glas
▁문화
HF
꾸
▁सुरक्षा
قص
polo
▁costa
してください
▁zdarma
▁एस
▁utk
seks
이고
ИТ
шен
LM
▁مال
ján
िङ
នឹង
▁Semua
▁установ
ења
UG
pir
▁zeer
▁seguridad
бет
▁муж
龄
▁dito
ција
▁περίπτωση
投稿
▁følge
▁joj
களுக்கு
▁cuerpo
_--
▁Western
▁ditë
▁varia
တင်
cada
РИ
▁Garden
dare
▁miejsce
。「
▁Extra
關係
▁jeder
▁italiano
▁Tie
사는
▁ΤΟ
การศึกษา
핑
▁Najeriya
▁Vegas
lona
▁holder
▁buk
lés
▁membaca
▁चीन
▁લોકો
/2012
▁أبو
ುತ್ತದೆ
ตลาด
▁ບໍ່
▁ngai
▁veri
继
▁Részletesebben
ภาษาด้วย
▁230
▁katu
chin
▁ezek
▁وأن
▁utile
ŹŮ
▁ఇది
▁Florida
▁Cele
▁turun
▁:-
催
▁ČR
▁Jacob
аётган
ラン
▁trova
筹
▁gute
▁bill
▁Кал
diği
mán
กะ
▁Dua
ሉ።
عد
▁Qua
▁TL
▁sådan
▁confi
▁Jei
▁riktig
▁çdo
▁cé
...»
sive
▁vamos
▁Katonda
▁контрол
▁mega
▁phá
סה
ander
▁peli
TON
kisa
AGA
▁данных
▁poza
ovým
▁tengo
▁мира
▁eko
▁Ibu
▁მიერ
jeni
▁taw
哭
Pu
ພາບ
ေစ
▁difficile
▁சா
под
我要
▁İyi
▁승
satt
▁Ankara
貌
▁okkur
废
▁possa
麦
▁inuu
OO
▁szabad
▁ያለው
▁odpad
▁అనే
▁novih
▁خل
coli
▁වැ
ອນ
[1]
▁Dương
▁Turn
▁Չ
ACH
sud
▁جر
▁tohto
同样
▁समेत
ŧ
ージ
▁5:
ście
▁mbe
▁لوگ
▁أس
ורים
▁åter
▁באמצעות
ድን
rə
wt
▁σπ
خت
▁Capital
▁책
▁Gö
▁Lima
сөн
▁тэ
іт
★
nyo
▁všechny
▁Core
▁wame
▁مدل
sını
legi
▁Mate
▁Henry
ִי
event
▁ortaya
how
▁navn
揭
কার
นาย
ấm
▁podataka
▁حمایت
erat
▁Kah
▁eksempel
▁motivo
▁hoog
開催
ଟା
▁drug
▁rreth
rado
dni
▁siin
ಬ್
▁өөр
았다
▁особи
祭
מו
Gen
▁αυτές
bantu
来了
▁Beth
▁Sunt
▁KON
▁chị
എസ്
▁isla
БА
▁ଏହା
来的
▁Кам
▁تغییر
çû
▁үнэ
结束
ед
ಳಿ
排名
▁nevar
говор
▁RU
▁süre
ගත
kro
▁Pari
▁nogen
▁tatu
来到
чку
▁player
▁نوشته
▁kandidat
▁gewoon
▁ture
▁pien
▁Hoa
▁праз
😂
▁حوزه
认真
▁buscar
▁مالی
ИМ
▁høj
▁शब्द
เพื่อน
▁predmet
ád
▁гэтым
▁niitä
▁možno
▁exterior
нет
用品
悉
召
▁ضرورت
▁bruge
γκ
▁Íslands
መው
▁만들어
好了
نج
▁stehen
▁verdens
ภายใน
مز
▁esimerkiksi
▁izi
ξε
ρη
▁bygg
▁เช่น
▁ஓ
_1
评论
ประมาณ
зна
▁últimos
▁reviews
σα
十年
▁chịu
liz
▁Рад
▁radu
▁کلی
ാതെ
▁difference
▁непо
rika
寿
▁ຮ
▁objekt
▁dock
taḥ
▁Dank
▁хор
▁Sú
▁presse
▁tức
▁gadu
▁wɔ
▁ubi
同学
▁gebruikt
▁vragen
▁davam
igne
talan
▁habari
▁ζ
hê
▁خا
▁бүр
ाय
▁Wood
ИТЕ
ڵه
פות
▁Ри
inas
лады
やすい
▁pali
เริ่ม
тэ
ঙ
▁fai
▁Pem
▁hyd
▁Kommentar
ङ्ग
kart
泥
耶
亡
ៀ
▁स्थानीय
했던
lani
▁criminal
ljivo
▁여러
▁քանի
▁Collection
oza
ရဲ႕
อัน
▁membres
老人
ería
▁بأ
timi
اة
▁dvi
ают
bog
▁wide
ծ
▁laut
▁vlastní
▁വര്
րա
▁ملي
Afrika
▁ello
rock
适合
▁علوم
니까
闪
↓
כו
▁através
undi
Wrap
▁디
▁wuxuu
λου
▁சில
สวน
Facebook
▁komputer
BU
項目
▁ვა
ingi
▁metro
▁كا
เว็บไซต์
▁discussion
ᒧ
▁sare
▁Sr
▁Lebens
øè
ႂ်
bora
▁футбол
είτε
▁Bandung
ick
▁Vietnam
เท่านั้น
▁sales
áról
▁مقام
▁שנה
▁multiple
eḍ
වී
▁វ
▁svega
▁ಹೆ
通過
范围
გა
▁ویژه
▁정도
ṅ
ໍາ
rwa
መን
ছি
▁gebruiken
▁zakon
▁Пер
▁آهنگ
ලේ
▁ամեն
▁teme
▁sıra
พล
tiya
▁тое
ล่าสุด
▁salam
દી
▁Ні
lder
lih
尤其是
▁fueron
▁dinero
▁առաջին
تك
ται
fic
▁meilleur
▁liquid
▁Saturday
▁직접
▁Puntland
▁kiedy
kter
▁ແຕ່
▁waki
かなり
▁baju
ર્
KB
▁dot
▁Dato
▁seal
ená
sv
λη
▁spil
▁aš
ട്ടി
đa
▁बो
onin
贸
▁aproape
ネット
▁جمهوری
ป่า
▁Lees
▁måde
mál
▁kasta
οδ
首次
▁dernier
іль
έλ
▁ମୁ
ез
▁Или
そして
▁liter
▁deri
ΕΥ
▁usando
俊
ન્સ
▁Step
▁હવે
▁hoạch
▁अगर
LARI
▁board
пра
▁Gab
θε
▁պատ
▁début
ђа
ív
▁қар
ΗΣ
▁фильм
▁ໄ
▁according
тық
赌
▁أول
▁див
蒂
▁ged
vasta
▁ф
skega
ਕੀ
▁minggu
імен
yahoo
▁דרך
رہ
▁بک
▁مشکلات
araq
rës
▁امکان
覆
ຖ
▁ел
▁vere
ांची
▁Ин
▁SZ
▁ሐ
▁কম
lý
▁झाले
▁୩
▁pokud
认识
▁edition
▁1972
▁maat
ಿದ್ದಾರೆ
▁11-
▁đô
▁VR
niz
▁druga
inius
▁ግዜ
▁seni
ยก
관리
▁ქ
▁teny
▁1967
did
每个
▁hormon
▁ଦିନ
主义
ထဲ
▁pack
یده
ਿ
▁диск
▁ಶ್ರೀ
▁مار
▁Сер
ниците
ẩn
▁padre
▁بارے
▁Lö
âm
▁ਜਾਣ
▁ደረጃ
ления
״
틀
▁участие
▁whatever
สาม
▁darah
ujete
یشی
овете
rend
twe
▁сөз
▁Στα
▁Rot
▁عليها
煤
▁хууль
▁Oli
覧
▁չեն
▁خصوصی
deg
▁universitet
▁धर्म
▁rose
英文
զ
▁លើ
▁दिए
віт
▁åt
etaan
▁danh
▁lots
▁ခ
머
ᖅᑐ
yɛ
අ
ઢ
▁रि
lug
▁Москве
ighed
▁πλέον
লৈ
▁leto
ză
▁donar
▁konnte
▁Eric
▁lenger
екс
暂
▁කටයුතු
▁দিয়ে
▁presso
▁xHamster
▁territorio
ゲーム
▁продукти
▁წა
是我
▁grow
▁Gobierno
▁관한
▁новых
elwa
▁anar
ოდა
▁käy
▁Cover
▁Stor
urat
費用
▁namo
▁raj
Yo
銀
আ
知識
▁Miguel
▁നിന്നും
這麼
aði
▁៖
▁лес
▁mila
օ
เข
▁bekerja
jai
▁Association
kaka
III
ปา
▁להם
▁ᒥ
klo
▁dada
▁ديگر
യ്ക്ക്
▁Президент
▁შეიძლება
▁പുതിയ
▁ë
▁facial
کە
▁popul
▁diplom
nikov
nější
▁দিন
▁starting
YO
ייה
▁cenu
▁እስከ
▁együtt
էն
表現
fol
▁legjobb
▁apart
▁ᐊᒻᒪ
河南
▁Still
шли
یسی
▁ಟ
▁vann
ถ้า
▁Kh
▁двор
ATA
▁força
ຫມ
σκ
▁व्यक्ति
arin
avimas
▁except
span
ချက်
նական
▁Την
▁گرد
▁וגם
▁بندی
gene
▁Nhật
▁naga
ôm
amme
▁Rep
都市
lö
▁تأ
▁સુધી
重要的
ილ
ាប់
▁Alma
ሳብ
▁Ново
▁2006.
kende
▁שר
搬
▁phía
▁کپ
▁cadre
യം
▁पानी
▁periodu
irana
▁neat
Les
▁Hasan
▁dafür
ਾਉਣ
onne
ክል
▁porad
▁Heart
▁vul
▁कार्यालय
▁बढ़
▁loi
▁items
ального
▁وقتی
▁crime
▁Työ
ಡೆ
▁okres
▁עי
tului
認為
ଷ୍ଟ
▁евро
каў
▁ხ
wyn
▁Fach
就要
late
▁dục
θούν
▁אביב
▁ey
▁urban
viz
кот
ਢ
爸爸
дом
▁undir
▁brak
▁então
▁ር
▁Anton
▁mma
▁eku
▁วิ
▁ត
明白
▁nostres
▁Europos
拳
鬆
唇
шел
аш
▁shot
▁forbindelse
скі
▁روان
nana
гд
▁kiri
▁دهند
▁Shin
ାୟ
▁бі
▁Tech
ష
旋
▁тему
▁γίνεται
سٹ
▁تحریک
▁عراق
▁Sum
▁інш
▁leader
▁acordo
yah
▁precis
ыш
chas
нуть
▁Bari
▁menor
▁měl
居民
णार
▁이어
ਗਰ
▁lég
査
▁Fas
▁मला
▁midagi
▁үг
best
▁projecte
ୀୟ
▁liegt
lərlə
▁ગુ
ၢႆ
▁kennis
▁required
▁amelyek
يح
▁روح
▁bug
▁ŝ
摇
ပါတယ္။
▁μιας
ブラ
▁xuống
யும்
ገለ
▁ծ
eros
▁Salah
▁strat
人気
▁walaupun
ക്കു
▁ведь
את
だが
▁mena
▁före
価
▁אתם
▁kommentarer
bee
ίδα
▁susi
▁ske
▁truly
▁ນີ້
人員
報告
▁мая
셔
诊
▁ves
มะ
▁zamanı
▁наше
湖南
▁stund
ối
▁آمد
▁حم
vár
▁claim
brand
▁ಏ
ਹਾ
设置
▁पार
iff
ائے
ᐤ
▁Alexander
▁లేదు
rick
一點
▁scris
▁מב
▁dgn
enberg
šanās
▁Pang
ough
离开
ените
▁Bí
▁Details
▁тре
▁Пры
▁Či
ച്ച്
객
íz
▁번
▁стил
▁mía
▁koy
ште
介紹
▁droits
▁mlad
▁kerk
मन
▁organizacija
▁gammel
▁Frage
▁interessant
▁είχαν
▁Παρ
▁resta
krát
▁sikre
ÂÚ
▁korte
过程
▁Cancel
▁Vista
▁halda
▁Bien
psi
▁부분
변
ழ்
하였다
ombo
▁órá
FT
жі
回家
▁пос
▁weten
▁ley
理论
▁Rang
▁livro
▁kormány
▁동안
▁elegant
agit
▁Other
▁kroner
▁čist
압
ňuje
▁थ
▁дума
อม
▁optimal
اخ
汁
ENI
▁지도
▁مزید
ຽງ
lagi
▁coisa
▁vär
▁terre
მის
들과
▁కథ
▁lumea
▁вообще
manna
zele
说明
行為
▁Clo
回到
▁освіти
▁ер
holm
ഷ
▁راست
帳
▁corre
്യ
АК
צים
ութեան
▁Books
▁هەموو
物流
融合
▁pelajar
▁teman
▁zamanda
male
▁išsi
دير
▁ade
▁Barn
ично
jali
▁bloggen
လွ
ปลา
▁Russia
然後
読
/7
廣告
▁लेकर
დნენ
▁suku
▁yapı
▁mẫu
▁хат
▁sayang
они
▁raw
的高
▁등록
▁endur
▁হয়ে
▁119
▁Sing
ήματος
īgu
▁שת
Ко
▁Сам
▁piger
ಠ
每年
说道
▁quoi
▁Cuando
アイ
▁verkligen
▁khan
tano
▁לנ
ಿಸಿದ
ரே
意見
lije
▁thần
▁hep
▁sah
辞
تى
确
判断
きました
▁тога
▁여행자들
ots
もっと
ของเรา
િંગ
▁(2016)
▁ስርዓት
ҮН
終わ
▁salut
ЛЕ
▁الحق
▁voli
rdi
▁relation
lərini
ників
baan
▁اؤز
楚
▁групи
▁Bhi
慣
ヨ
bod
梯
▁НАТО
相当
ред
▁Tara
技巧
erade
▁kerül
▁avoid
▁స్ట
መራ
LIK
▁парк
▁tša
เหมือน
PN
▁phạm
▁spørgsmål
▁société
▁partea
▁ની
LT
▁väg
▁አበባ
▁teisės
▁fight
ASE
▁katso
ían
▁אדם
dw
▁SIM
▁Sommer
▁Rec
▁당신
nese
▁ș
PDF
▁vielen
植物
▁rapid
▁Tol
ąd
သြား
▁सुरु
▁rekening
▁края
eɣ
▁ତା
惡
dite
▁Đăng
▁rộng
nụ
दि
▁voda
▁faith
▁отдел
▁қил
DEN
▁отыр
▁Với
▁Rp
▁kohe
▁karte
ești
▁communication
enzi
мент
▁мог
upp
лива
▁Donna
token
▁tih
▁మీద
▁XVI
ሆኑ
▁ਬਿ
▁ieu
概
▁मो
▁Victor
▁இட
▁albo
▁hiszen
علامه
▁Type
▁Bush
ingar
玄
藝術
abe
kole
吻
▁որոնք
▁экан
▁coffee
trans
▁naš
ovan
▁شریک
▁obat
▁klima
▁tiada
▁مخالف
▁филм
ටම
oyo
▁nasa
ක්ෂ
dige
▁Ј
▁ach
▁Mora
ագր
▁بەر
▁financial
▁Eye
▁Fle
▁Buy
▁factor
meter
▁ish
▁правило
suka
▁ডি
▁Because
的手
お客様
ised
▁فال
acion
啟
폰
▁სულ
▁Hollywood
▁jaren
▁एका
וט
▁windows
utilisation
гаар
▁Bell
▁genera
感受
שת
▁plats
▁nebe
opa
▁peale
▁ubu
▁Filip
тик
ਨੇ
拆
▁Nutzung
ssel
▁QU
▁ជ
▁حکم
▁үед
▁Kak
nz
▁ተመ
න්ද
▁地址
▁крем
قی
autor
▁Moment
▁경제
▁قول
▁ਸਰ
imbo
▁테
▁Ket
lă
ుల
犬
Ћ
成长
▁czasu
▁Yet
.30
▁(2017)
▁그러
▁contribu
dera
▁Finans
▁baja
▁ଧ
▁Αυτή
▁lack
▁दल
▁vital
▁interesa
▁cash
▁sujet
▁වල
▁সব
Ř
ᓕᐅ
disable
▁있으나
▁ง
▁اختیار
▁վար
nf
▁Skriv
ាំ
াম
ጥር
▁UAB
▁hey
uste
▁Kaikki
▁Datenschutz
▁1969
▁Wah
▁වෙ
▁ዳ
南京
▁Luft
▁ilin
ДУ
▁דו
慎
▁Nick
īm
提醒
muş
▁dead
理想
央
电脑
▁Kis
▁جمله
▁გაი
▁rand
▁lyrics
ibwa
▁seminar
▁Bes
asis
จิต
▁第二
ທາງ
기관
▁sisse
▁fenomen
启动
BD
ож
▁опыт
Chi
itan
▁шлях
khon
▁Kate
таж
抑
▁Ξενοδοχεία
สิ่ง
▁Tačiau
АС
▁ثابت
▁install
rije
▁napa
▁അത
▁primul
▁rare
kili
▁잡
▁başqa
▁ಎಲ್ಲ
markt
對於
aaaa
对方
▁Norges
▁environment
▁skor
▁ʼ
▁нив
ాలి
氛
▁सहयोग
▁όλες
▁स्वास्थ्य
еле
▁لگا
MR
▁زا
▁noin
лена
▁kannst
▁susu
▁Gambar
▁Action
▁minimal
עים
▁kopen
▁ورد
ЕМ
អា
▁Mot
ψη
ነው
تاب
IOS
▁protože
▁בס
▁Laura
▁Once
qar
▁webcam
▁koop
▁ມ
▁להי
▁Şe
▁beginning
▁ajuda
▁görüş
נד
šanai
për
kṣ
ປີ
▁enkel
呀
äó
▁rein
▁ούτε
كردنی
▁ਗੁਰੂ
ROS
бен
نان
পা
▁तह
十八
anse
مبر
经常
▁method
▁seksual
īga
缘
設備
▁рамках
▁NEW
}}
jena
fn
▁GR
ðir
hut
▁Class
▁filtr
ēr
悩
▁1930
▁دارای
▁noastre
▁الاست
追求
▁Bok
▁Αθήνα
画像
dale
▁מכ
ulan
ชัย
тата
▁область
dagen
▁ምር
име
各種
քը
명의
效率
戒
▁İlham
ਸ਼ਨ
▁mají
▁ngwa
▁praktik
จีน
▁Negara
▁nyo
▁অনু
▁ता
▁Sistem
▁這
ഷ്
áil
▁درمان
град
▁choix
日の
合法
▁փոխ
漢
▁poste
▁mại
▁일반
来看
ائر
▁ата
▁intim
兩個
▁meaning
uca
ĩĩ
▁ني
▁باب
sión
▁odbor
▁Владимир
▁küll
zí
▁فن
dne
ಕಿ
枪
▁त्यस
ξ
▁Chan
hes
What
OJ
▁bada
bung
▁yɔ
ТЕ
▁dugo
▁활동
кий
▁Cada
▁रे
▁Space
ですか
▁histori
utus
เล็ก
▁sige
▁кезде
▁matin
óþ
▁اج
▁홍
ėje
▁Weitere
dó
感情
▁ISBN
▁زیاد
4]
▁جانے
大人
IDA
▁bono
▁Awọn
▁prent
▁function
▁kawasan
▁vende
いました
▁abu
▁América
buka
りました
▁您
成長
▁ан
▁warga
слав
etes
▁Culture
▁håper
▁사이트
▁जग
▁хал
▁Oru
▁atom
தே
▁चाहिए
▁ረ
▁guida
▁iemand
车辆
ಮ್ಮ
几乎
▁নতুন
褲
सर
kultur
▁لگ
▁Kos
ેટ
▁lewe
west
▁ذكر
▁swoje
▁3,5
▁Teri
▁πολλά
lík
▁символ
▁фактор
ማት
説明
▁neuro
▁kiek
▁tíma
үн
כים
▁Tren
tív
ΙΟ
▁plate
▁ኦ
rong
ଟ୍
▁gemacht
તું
จังหวัด
손
奸
▁тар
oor
▁طول
▁Ці
сия
phone
china
▁Llan
пат
▁ଉପ
▁znak
න්නේ
rė
▁قدم
uten
▁trovare
▁Four
黎
慮
殖
Ͳ
ではない
▁putin
ņ
ပြု
balik
▁millions
▁januari
ᑦᑐ
ಎಸ್
▁gái
ックス
لے
▁нового
▁façon
▁nummer
ാന
▁बीच
欧洲
▁(20
▁στοιχεία
رون
▁lisäksi
▁један
▁спор
版本
▁škod
りに
▁හද
sinde
▁principi
▁ikut
哪里
bru
້ອງ
▁Sti
움
ojmë
▁వై
▁dame
▁Fragen
闻
▁trup
▁Wales
cd
重庆
▁خواب
IER
▁imati
▁roi
▁hapa
▁කිය
▁ши
▁екі
जि
öv
ိုး
▁чак
ሉን
nac
▁ikon
▁ջ
▁Nye
▁ALL
▁تمامی
▁మీరు
▁hãy
nö
ымен
ādi
팔
๕
girl
▁Irak
▁olivat
vaa
▁갈
▁ความ
▁орон
▁बताए
fet
▁arbets
▁migliori
projekt
▁لیک
iyê
uhan
DN
留下
ดํา
▁Xu
▁podczas
▁dvije
▁буд
tei
ுக்கு
パン
▁ด
▁moments
TOS
ємо
ară
bụ
▁construction
▁pral
妻子
sé
szem
▁ум
▁اوز
ুল
▁فقد
ච
▁Matt
▁відповідно
его
lau
▁بھر
Har
▁qenë
▁ɖ
▁vaka
▁gana
工作的
▁ομάδα
位于
▁يعني
▁besoin
▁Beispiel
本次
▁תל
▁Pam
má
ದ್ದು
ኬ
▁Angel
ages
▁verwendet
‬‬
▁responsable
▁vá
▁musica
şa
ھن
▁ሰባት
▁trouve
▁кө
▁disc
男女
elsen
gali
maks
365
▁tinggal
敌
をご
▁평가하기
ars
గు
▁olnud
εύ
▁рух
▁resposta
▁elkaar
حب
वास
ではなく
160
▁става
▁speak
天下
ltä
▁Suku
LES
▁tiện
▁lab
tene
▁فعل
▁fapt
VV
හු
iranja
▁беларускай
▁passion
పా
▁تحقیق
▁море
▁návrh
现实
RD
თვის
▁szóló
▁sư
ቤት
▁sommes
/2011
▁Kini
▁kere
▁فلم
▁khona
yana
≤
▁Chelsea
▁possível
ිත
▁ලැබ
▁biznes
▁любой
وات
推广
▁Эл
▁tentu
skou
▁watching
▁નહીં
▁ಇದು
▁vue
▁설치
▁KH
▁فرق
енных
loop
▁прямо
वार
ýë
حدث
amaan
臭
ຽນ
ต้องการ
▁કામ
лак
▁acolo
▁gim
▁Obat
▁правил
ን፣
▁ህዝብ
▁роль
案件
▁Kama
严格
▁Scarpe
▁dip
zima
▁effort
خانه
軽
ማር
▁quia
▁Hul
全体
ƒe
▁ਮਿਲ
▁उपयोग
ମି
uacute
ология
▁करून
▁atra
raw
▁juego
▁têm
▁alter
ຕິ
ТЫ
▁Rok
കര
▁אותה
▁prípade
▁ஐ
เรือ
colo
▁কো
عمل
▁Cher
ದೇ
мун
▁labi
▁esas
▁چوخ
기업
进行了
▁իմ
▁ಸಮ
▁модел
▁Ziel
▁لەو
采取
BT
▁reach
警察
▁Başkanı
ตอน
▁теперь
▁sezon
▁Krist
gari
▁privacy
▁کمی
▁všetko
▁πρώτο
▁hayo
公司的
▁VAL
▁currently
ಘ
▁байланысты
▁population
▁którzy
bong
▁տեղ
ίνα
▁fed
spar
▁Berita
他の
▁Може
fia
▁Energie
▁Zur
▁ż
▁lisä
sť
બા
tiri
▁ශ
▁tarif
▁Leg
▁افزار
▁môi
▁میلیون
▁sprawie
很快
▁ώρα
▁laiku
▁spraw
▁remont
itos
▁mál
▁علیہ
▁nazaj
▁Sus
ຢ
▁olma
giri
▁wear
人口
ਕਾਰ
▁najbolj
渐
誌
▁पाठ
▁Support
▁биш
▁kote
▁ministra
▁موارد
▁тепло
更好
▁Trang
▁toiminta
▁электро
ᓯᒪ
▁ಹೊಸ
lerinden
身體
▁ең
▁kamo
টে
▁109
▁prawa
rde
イル
▁flera
▁alın
▁VS
▁+1
▁domingo
ÚÓ
▁yakho
ór
攝
▁wikitext
▁daerah
ланган
▁biển
▁Hello
မာ
▁nilai
nada
▁kautta
▁Sveriges
▁شک
год
▁компьютер
▁hund
nol
ಕ್ಕ
▁فرهنگ
ସ୍ତ
▁Taj
▁larg
れない
▁condition
tī
kovi
▁sna
▁רש
▁etdi
▁acid
▁stick
的一个
mik
cept
▁Herren
▁gua
▁эмас
ວັນ
ály
▁поля
いつも
▁PIXNET
▁tree
iak
▁тебя
▁chì
指定
▁ජන
МИ
▁jugak
▁වෙලා
▁faptul
취
тів
レス
▁друго
▁ilay
rato
вол
vila
▁দি
旨
ổ
▁이야기
죄
▁पुलिस
住宅
▁Michel
▁منتشر
▁debut
▁голос
▁speciale
▁ചില
▁tuaj
▁copia
нал
သည္
▁quick
ුම්
▁છો
enye
نم
▁된
▁ഇത
ÄÄ
▁vlada
安心
陸
lauf
ことが
▁완
흥
▁έχουμε
▁ყველაზე
▁درخواست
سال
โรค
▁շ
wane
▁perc
▁ние
▁مربوط
ন্ড
▁уст
统
▁pärast
ពេល
ാര്
መድ
▁Kurs
▁राष्ट्र
шин
▁ስም
след
▁আল
EGO
sın
▁Board
共有
▁challenge
▁удар
▁эту
▁Student
▁Tir
мак
▁Oleh
▁letto
facebook
클
alne
▁سابق
▁SAN
▁adam
▁आम
றி
▁χρόνο
ជាតិ
▁khỏe
धा
ኾ
▁свој
ИЛ
▁pull
▁வந்த
ដី
ủ
▁نن
▁پروژه
▁חשוב
фе
▁вз
▁اولین
▁maan
▁Й
▁talaga
sav
▁vaig
lę
atha
mera
μη
▁Heb
▁hét
▁Golden
▁ପ୍ରତି
▁нес
▁previous
ฉัน
▁súa
먼
▁विभिन्न
▁VAN
▁Respublikasının
nok
科技有限公司
וח
▁роман
▁anim
▁Иван
▁০
▁dizajn
ція
Op
version
ÁS
▁Zem
▁Seks
▁აქ
▁Machine
天然
Ŷű
بە
▁günü
▁ամ
IST
▁måtte
▁прогноз
▁Kale
moto
面前
imeve
▁කු
hā
OH
▁orta
▁پار
▁शिक्षा
▁käyttää
▁magazine
▁ഇന്ത്യ
あまり
▁tabi
اته
▁зуб
ERI
费用
▁benda
▁gyermek
獲
▁Nav
▁tett
ларига
▁grond
ининг
ƅ
▁beach
▁vùng
▁mænd
探索
දු
▁ап
ନ୍ତି
▁kabul
▁رشته
โครงการ
ич
зер
▁Wars
▁Vita
▁Loo
▁Abraham
▁yılında
athu
▁vej
илась
னர்
ією
而言
稍
▁majú
乃
▁maand
iman
应当
▁Ше
▁ຄົນ
னா
▁slab
責任
ához
ปัญหา
▁sigui
ਆ
ូរ
սի
교육
▁rê
maj
šli
▁internationale
▁diferente
污染
杭州
総
iņu
▁Vilniaus
▁خانواده
▁кое
江苏
ηλ
▁property
මත්
ტა
LERİ
▁bzw
▁پای
มากกว่า
▁usu
jot
▁رشد
▁informace
▁дур
▁дан
▁Mano
aide
▁Và
▁gyn
▁გე
▁személy
▁precios
camp
戲
▁addition
▁item
▁realiza
/2014
ալի
▁vídeo
▁XP
▁γι
▁Република
▁Мі
▁گردد
▁respekt
іс
сіз
▁культур
柳
疼
査定
▁گفته
▁optim
にして
▁ран
▁가능한
▁types
▁Però
能夠
の中で
aÉÉ
▁ikka
▁groups
ipi
這裡
测试
▁حج
셨
▁प्रतिशत
▁Polsce
dic
भाव
มหา
เย
映画
tors
▁frågor
ife
нні
uses
▁۱۹
▁android
ením
úl
टे
绿色
▁système
בל
経験
수정
▁انهن
▁néhány
▁עמ
▁gros
▁CP
▁souvent
▁napad
▁thotë
▁zawsze
▁چگونه
▁wiki
▁pessoa
บ้าง
라이
▁pede
▁Cast
▁Αρ
nija
▁nép
▁regard
tý
▁Gang
▁solar
▁independent
▁परिवार
▁блог
▁gula
ക്കുന്ന
▁competi
чай
あなた
▁трэба
ается
گری
buy
بين
LG
▁अनेक
▁moze
▁상황
▁Urdu
vind
▁şer
▁vaak
▁situación
▁živi
▁Mungu
atud
▁арт
▁которое
▁Además
▁شہر
▁shqiptare
▁യു
▁Mən
▁chút
▁juste
inden
▁ਵਾ
▁ແມ່ນ
ิว
▁retour
▁Earth
رين
高速
ᐠ
▁інформації
▁usług
▁різних
▁famille
▁plastik
▁sek
jja
▁ding
▁ultima
▁:(
Lİ
▁भो
politik
скай
▁Erik
涵
▁اوس
into
▁También
▁стане
▁مما
▁tenho
▁Style
▁(13)
▁doel
▁óra
ลม
rini
상을
的时间
▁seves
▁ludzi
閱讀
May
AVE
看了
▁срещу
▁позволяет
の中
▁تومان
กุ
▁risiko
▁данни
▁ditu
▁условиях
▁Tutti
mies
▁której
▁llevar
▁irra
ᒫ
KM
▁tijdens
▁ਸਮ
影音
俄罗斯
▁zda
ᑎᒃ
▁програми
gaard
滋
▁svog
ไล
▁Wolf
▁sker
▁يجب
▁आय
美容
ాల్లో
▁тал
▁játék
▁وما
eran
闭
▁ජාතික
json
▁ίδιο
፧
▁Wednesday
▁bhfuil
ghị
▁kereta
▁ferie
xÉ
▁mooie
▁اوچون
▁Nhưng
▁плат
▁сын
เขียน
▁zeker
▁reasons
▁lapho
ьте
ပညာ
▁বল
▁Ке
ification
ULA
▁maro
▁involved
▁જા
▁nigo
њ
▁bych
▁കൈ
éről
▁شر
ison
債
/2013
▁UV
ήθηκε
▁тү
íä
زا
ราย
▁actividades
haan
ические
▁HIV
▁САД
ิด
可能性
siniz
▁része
▁Jay
▁دەر
vier
▁бөгөөд
윤
மு
▁обл
aquest
été
▁cuma
▁ίδια
▁sant
▁انہوں
▁kombin
▁locale
ქართულად
▁អាច
▁키
pok
▁případě
盈
污
▁116
ેશ
▁valmis
ទាំង
つの
▁의미
▁Sale
баев
▁možnost
▁نيز
▁akhirnya
▁fila
บอล
애
▁velike
onga
ālā
▁simples
▁сло
стра
谋
▁Pier
▁ون
nant
Like
▁iphone
▁hatt
▁pene
ۆ
▁155
▁learned
cano
▁ਦ
ুর
角度
違い
▁सरकारले
▁1971
tk
▁feb
▁ဆ
eco
▁njegove
▁varje
్యం
▁aumento
ുന്നത്
▁okkar
typ
▁ಬರ
▁burada
ELI
пор
ԻՆ
▁faa
▁በላይ
キャ
▁literatura
ამდე
▁менее
▁vốn
ārā
在一起
▁Kina
FOTO
لف
▁използва
책
▁pamoja
▁মধ্যে
èéí
ఖ
ायला
▁geniş
▁FB
▁unseren
સ્ત
▁quý
zul
▁мали
▁hely
Ť
▁Sind
▁yüksek
ndar
다가
▁농
▁ഐ
ปั
▁vlak
▁чита
ğı
зор
villa
нка
ගෙන්
kaṃ
▁حفظ
rè
太多
▁egyes
▁posti
dua
▁faj
▁jawab
河北
▁πολυ
▁പല
ንን
вай
▁Lebih
Por
▁ମୋ
îé
TAR
▁долго
ស៊ី
design
ಡು
CZ
▁විද්
▁আমার
▁uang
مين
▁vienu
▁organizacije
▁noite
▁கால
▁papir
ໆ
▁necessary
▁확대
▁garden
▁няколко
▁كنت
ικός
▁شکن
學校
▁surface
▁veci
▁ائد
сна
▁Kang
言葉
▁сім
ەدا
▁இல்லை
사업
気が
▁Ո
도록
▁بما
▁päeva
▁Поэтому
▁perioada
▁zemalja
див
▁gikan
分别
ปาก
建議
▁جار
▁potpuno
▁축
▁Điều
▁ചെയ്യ
▁људи
▁edo
▁hef
ှ
▁ED
▁Body
with
▁evolu
▁restoran
▁Rap
OV
ಬ್ಬ
▁Ξ
▁hefyd
资格
▁매우
▁കണ്ട
▁parasites
▁legyen
color
▁boss
▁fari
▁Монголын
▁הספר
full
▁French
hole
▁soovi
cookies
▁pob
ΜΕ
▁오늘
両
▁завод
▁Marina
૩
▁pension
▁jord
意思
▁చె
になり
▁seng
▁၃
▁Batu
▁Kart
ffa
▁знак
▁počet
有所
▁የም
юк
▁Bai
▁Cinema
▁ନାହିଁ
▁sábado
资本
▁خدمت
Kon
ћа
▁sinn
ንቀ
ער
▁újra
த்தின்
дік
ures
▁שלכם
luq
▁רוצה
特に
्यू
▁Rome
▁vanaf
ດີ
▁magic
өн
ปรสิต
▁počas
ධ
▁Ő
▁quer
μένα
▁stvar
ページ
kade
▁εισ
سون
▁Low
mk
▁забезпечення
少年
▁situs
%2
asca
ĞŶ
▁cold
▁Mustafa
stof
рем
යක
▁yao
▁Sada
▁tard
lings
ጾ
▁hitta
▁três
eq
▁зелен
▁memilih
ᔪᖅ
▁שאני
▁ณ
sht
▁tran
▁نگاه
חת
▁dator
▁neden
wek
▁opiniones
.1.
voz
▁אנשים
▁Kari
ଣ୍ଟ
▁putih
lez
討
闲
▁الدين
▁Ге
▁ኩሉ
▁época
▁작성된
meg
▁pwo
发展的
▁몇
ując
څ
dım
▁använda
blo
▁هند
▁FREE
▁Jó
▁druh
▁juta
▁Tad
▁Pai
▁язык
广大
楽し
ացի
▁CEO
▁slow
вой
▁vina
ZI
ᑌ
▁вместе
▁өдөр
▁svojo
ळा
▁cases
▁bû
▁ספר
▁ті
▁продукт
▁Herr
されています
ários
▁언
▁предмет
베
▁fitness
▁дво
▁месяц
▁kosa
▁Mä
veri
▁høy
▁Απο
viet
اوی
▁dute
illon
แต่ง
▁Kurdistanê
solo
บริการ
ULU
▁Thái
▁simbol
ታው
▁۸
nts
ტის
营销
▁бал
für
▁رابطه
ವ್
▁utilizza
ыңыз
▁wasu
naya
▁хотя
疫
▁awesome
კ
▁मुझे
▁azok
▁ראש
nten
ଅ
ливо
だろう
lius
▁شوی
ально
pito
▁chết
lade
▁sembra
▁ҳа
गर
▁поле
▁siap
▁potencial
▁hizmet
▁Tat
▁mening
▁kasino
bati
sod
▁եք
ሺ
▁gärna
avu
▁İl
”?
▁Ihren
▁ddee
និង
▁לצ
▁ties
ЕК
▁캐
▁mtu
▁тие
ŝŶ
▁ciutat
▁allo
▁blogs
▁pristup
▁soud
کې
▁Cabdi
พี่
▁Bereich
вам
혀
ρά
▁willen
vite
ИЙ
▁knows
ivu
▁Prince
ීමට
内部
ምና
ክት
▁عم
▁Gracias
のような
валі
ાવ
▁별
ОЙ
elser
▁Ու
ardo
ਤਿ
▁njegov
ेज
▁اقدام
ించి
▁شە
άλ
▁rẻ
ester
istic
▁možnosti
▁ئەوەی
▁төв
▁recente
בי
keskus
▁សម្រាប់
เดียว
▁kaasa
▁Official
แค
▁oshi
ጠር
夺
▁yango
ΑΝ
UJ
ታወ
▁während
▁सार्वजनिक
▁Türkçe
دين
▁בישראל
بن
▁quân
它的
eň
▁aastat
▁yadda
וע
▁კო
▁linea
▁topp
▁möchte
ኣት
▁مج
▁įsi
▁kil
▁erinde
ತಾ
▁cra
兽
лата
▁আমাদের
juma
াঁ
laya
自我
▁دنبال
ੋਟ
▁kone
дек
▁రూ
att
▁Venezuela
สะ
ွယ်
▁вариант
▁meeste
ട്ട്
лардың
▁sabi
増
▁Professor
▁career
▁دیکھ
▁талаар
▁тұр
パー
▁Tera
▁seeing
▁sep
โปร
လိုက်
ëî
ร่วม
▁Új
etto
▁Finland
▁structure
泊
▁живе
3000
benar
▁easily
▁קשר
▁flat
▁rid
▁중입니다
tatt
▁kutsi
▁Svi
പ്ര
▁dobra
▁프로그램
וּ
່ນ
▁nuovi
▁sterk
▁drum
▁නැ
ตัวเอง
▁पै
seng
tze
ându
▁XL
例如
ઃ
kina
▁ainult
NIA
▁Jackson
▁deset
▁سمجھ
▁Polski
▁aid
▁الشيخ
ຢ່າງ
▁helse
▁dành
▁లే
▁mela
വര
▁века
▁йўл
uks
zbek
umbi
ండ్
ഫ്
繼續
▁Notre
▁эх
▁trạng
▁Posts
▁nudi
▁verdade
强调
▁perder
▁middle
▁Три
▁ተጠ
▁tepat
▁dros
toj
ÃO
mı
▁dî
▁Vær
独立
▁воды
cción
▁신청
▁dikkat
法院
があった
▁części
эх
▁علمی
▁menyebabkan
ক্ষ
▁කොට
óc
තු
▁ΤΗΣ
终于
▁тело
ŭũ
rgi
ĝ
azi
新しい
tza
▁лв
▁seul
ירות
තුරු
▁ಪಾ
▁जिल्ला
驗
▁준비
aš
▁eyi
)))
煮
▁uomini
▁dance
vista
▁bly
▁lâu
▁αφού
CU
▁village
vula
▁ilgi
แก
▁honest
▁éve
▁Kauf
▁Timo
ბი
нице
יום
▁feet
▁akhir
▁anna
兄弟
ıp
▁dobrze
асць
交換
ione
▁народа
▁крас
▁Κα
▁مرکزی
▁carro
ներում
周年
୪
▁opsie
ようです
▁Čo
▁həyata
ුව
▁jelent
小学
▁diha
▁rival
▁도움
昔
▁glass
յա
▁उनके
Im
予約
다면
əl
▁barna
gina
▁bietet
РЕ
▁aru
gono
▁fou
▁kola
зда
▁meus
▁меж
さんが
あり
▁hav
▁luk
▁ዝብል
▁kérdés
经历
▁Dhi
▁cca
▁Vr
▁ብር
кай
ρι
▁بیماری
▁සිට
▁구매
▁ocupa
▁formation
айте
▁todėl
方は
▁Fal
äå
▁සමග
▁hemma
▁demand
▁mať
ലാ
牧
▁waiting
erar
▁წელს
髮
аб
тя
лас
▁కల
▁viaje
▁Schul
▁বলে
▁rog
laan
▁passage
RW
▁related
▁Seiten
ילה
▁bahkan
▁lice
ията
▁calcul
▁राष्ट्रिय
Па
▁فلا
浦
▁edilir
ffer
▁(18+)
ирование
▁particolare
▁توانید
yes
cce
ық
Ber
ћ
アプリ
▁slike
▁ec
èk
▁vận
▁анализ
▁Latin
▁ними
evo
▁గురించి
দা
▁Licht
▁všech
▁spr
▁wet
තර
냐
▁Қа
▁něco
▁машина
成员
oki
▁saga
▁sele
naan
ttua
▁këto
▁Hain
▁ჩემი
lga
のです
▁धन
్యా
▁uomo
than
ЛЬ
▁higher
隻
好好
▁gri
▁Only
▁yetu
▁peri
èò
▁Iza
▁ਰਹੇ
git
тэн
▁iso
seid
▁стара
▁niz
odh
сар
▁ทําให้
▁kant
שי
раб
▁σκοπό
▁unu
▁features
▁அவ
▁uvijek
愈
덕
VM
▁나타
ൃ
▁ابو
作業
あと
▁wissen
▁요금
ವರ
▁אנו
gong
▁NEWS
சு
▁Johnson
▁Бол
▁haku
jl
▁2010,
▁makin
Omonene
ište
ҮЙ
后的
дол
▁incon
恐怖
▁paggamot
▁Пи
ਟਰ
place
రణ
▁gym
தை
▁регистрации
ìà
त्या
▁మి
hia
▁lleva
▁груп
혼
·¤
▁approach
毎
гийг
▁znam
ică
鍋
藍
Ŝ
▁резерв
▁አሁን
▁каза
▁എം
▁страница
▁arc
▁यांच्या
▁sung
前往
▁todella
分鐘
▁suk
▁planeta
lij
โดน
wng
▁ଯେ
▁organis
▁mód
▁Second
溪
pio
llisen
асан
業務
訳
誘
▁nava
▁గు
便宜
加盟
▁iste
▁Nicht
▁Nije
ಬಿ
buri
▁ועוד
▁קל
ళ్ల
ציה
▁expand
▁cell
▁hiç
▁isa
▁mundial
▁bieten
▁Thị
ANG
▁있고
戻
寝
ikin
▁XXI
ጐ
▁퀄리티
般
ǀĞ
▁Evrope
dent
主持
▁ráð
▁қала
sında
نٹ
▁údaje
数量
▁podría
lav
▁drag
dho
▁सूचना
polis
▁seconds
▁Andrea
▁그런
▁eya
ēšanas
ลี
▁◊
▁støtte
▁kalba
▁الموقع
那麼
നും
▁varētu
▁nguy
iw
▁Bata
แท
▁회사
seb
mıştır
▁حرف
▁laiko
特朗普
▁verdad
▁वाली
MET
해주셔서
▁ሥራ
isering
▁disso
▁Siz
كو
▁Detta
▁Ass
▁yaxın
▁необхідно
▁inkább
▁côté
▁gold
▁ekero
▁LES
туу
▁milioni
▁taraf
ഗ്
сини
▁умов
▁จึง
จะมี
沖
켜
USA
▁ўжо
▁సమ
קל
▁60%
▁trening
ਗੀ
ګر
력을
▁hry
▁inicial
▁kraja
▁kuda
▁નિ
ांत
▁18-
eus
坊
ᒃᑯ
▁viszont
▁ਪੰ
▁꞉
▁/>
ările
▁Fed
▁ordin
тели
▁किन
▁әр
▁bagus
EV
▁Keep
▁takođe
దీ
▁താ
▁كی
日常
況
▁Cine
▁жу
ଓ
טים
▁ਪੈ
▁անգամ
妈
辅
▁potrebbe
갑
▁lands
夕
▁eftersom
ssy
▁traffic
ranje
▁حرکت
евич
Det
āꞌ
▁пі
ባር
иқ
▁ország
▁точки
▁média
▁sikkert
辺
▁dje
▁insieme
java
▁영어로
иран
vica
▁ගැ
koa
▁crisis
-23
click
▁২০১৮
▁сада
tino
▁Beh
▁женщин
▁perfekte
▁projekti
sou
▁hennes
付き
ির
▁Labels
▁сказал
ENS
יקה
▁25-
▁نماز
▁(14
▁पूर्ण
▁годзе
▁طی
UB
ijas
kada
▁2014,
ᑐᑦ
კო
misa
▁Bud
ियां
劳动
▁Пу
▁රති
▁။
важ
ที่ดี
佐
≥
▁ᐃᓚ
▁ห
▁회원
▁❤
ește
▁Spirit
▁mondta
기가
▁Nah
వీ
▁ಜಾ
▁blind
สุขภาพ
▁यू
mağa
▁kundër
▁ար
▁dejar
▁isti
стор
▁Donec
Sal
▁.‬
ುವುದು
яват
▁jumlah
▁μπορούν
Adresse
▁distance
▁መንግስት
▁ľudí
ƚŽ
▁viện
▁menge
аться
▁Dim
lod
▁passé
▁tī
家人
tap
ΕΛ
rki
EB
เครื่องคอมพิวเต
▁Gam
▁szükséges
▁attack
▁අවශ්
▁نفت
ത്ര
▁Brazil
▁Hoy
▁pitanja
ներն
▁cuisine
veni
▁асоб
üb
ît
גו
▁ਗਈ
▁Qur
▁Plaza
▁nettet
CIÓN
▁julle
埃
イベント
▁märk
▁Attribution
▁período
োৱা
▁ചെയ്ത
▁langs
▁Mall
▁Scott
hood
מא
增强
əcək
miştir
▁vais
▁mulighed
▁notice
琴
▁ဒါ
▁scu
▁स्थान
ટા
▁бўл
insta
▁ក្រុម
ዘጋ
ŮŻ
▁ABO
(2)
حق
▁Rei
ств
▁dise
▁판매
▁נת
民主
▁стало
浓
績
ใกล้
ื้อ
▁bald
▁Российской
▁nito
▁לס
能源
ปิ
▁valid
աս
チャ
▁wam
▁Disse
weza
പ്പെട്ട
kler
▁مثال
▁formas
ומים
▁Dann
aigh
ျဖ
▁Dá
▁hê
ڄ
គ្នា
▁sogar
▁wis
rob
动力
▁Մի
ภูมิ
information
soma
ลุ
чил
▁Pablo
▁WE
▁гэтага
زو
▁subjekt
▁menye
очка
▁اردو
胃
Ấ
ڊ
▁Dream
ETE
that
రో
▁aktivitet
▁لار
▁جهانی
▁dưỡng
▁Stop
▁новые
બર
▁স্ব
рав
▁classic
ෘ
▁Ху
医生
halo
▁นาย
ğa
▁hồi
炒
ųũ
▁πρόγραμμα
อยาก
uci
gera
soo
ندي
▁אף
থা
▁phù
▁ڪيو
▁amici
ън
▁menja
raad
▁kurios
▁hta
▁İlk
▁YANG
olt
▁Doch
▁jste
▁ಕೊ
▁질
▁معلومات
▁եթե
యా
▁शुरू
▁koordin
▁केला
▁reli
></
▁Gå
ији
▁있기를
▁medida
▁surtout
▁लग
▁başladı
nw
եկ
енные
先进
▁jūsų
ədə
▁corps
▁முதல்
▁مجموعه
▁langis
▁brother
▁vég
▁odio
▁belli
人都
▁Kamu
何か
ਵੇਂ
▁ü
▁λόγω
▁ñe
▁زیادی
OKO
ທິ
▁انت
IY
▁являются
▁Java
▁kept
tawa
▁ਲਾ
▁如果
▁момента
ший
▁although
της
ická
▁తమ
уч
▁պահ
不敢
▁gem
ーム
▁prac
▁Metal
▁Karena
pte
▁nuit
ót
చి
▁Bisa
เต็ม
▁සිංහල
▁loop
▁Тут
▁certains
▁මං
郵
▁استخدام
▁መል
jde
▁бага
ических
▁masing
▁يقول
cate
altro
▁skriva
յանի
▁budete
▁лидер
하거나
▁Age
ធ្វើ
▁бий
aksi
πα
▁priv
▁серед
▁Að
▁respond
結構
▁жүзеге
bund
声明
▁pies
▁ნი
taki
▁ДО
▁terminal
▁daxil
íûå
▁сайн
нім
db
買い
▁spôsob
▁협
▁hår
اپ
▁üzerinde
▁kojim
▁polu
▁arma
牢
▁բաց
arti
▁ଛ
承担
SET
ᓂᕐᒧᑦ
▁akken
▁etiam
ંદ
رن
▁ਹੋਣ
▁Trading
▁bermain
ႀကီး
▁tenemos
ദ്ധ
vl
ವೆ
▁Ting
▁থাক
▁DS
ovací
vė
▁стр
▁состав
പ്പോള്
▁wid
▁Rasulullah
▁እንታይ
▁आरोप
▁maupun
จร
้อน
▁Ep
သည့်
▁received
飯店
▁Moon
▁smile
▁cama
ПА
▁kurā
İZ
▁వారి
bani
▁види
▁항
ปิด
▁албан
nės
cak
▁کور
▁doubt
▁Oto
saan
▁bualu
school
▁algumas
▁свої
▁പറഞ്ഞ
슈
▁Magic
距离
▁xəbər
qan
▁අහ
▁kyk
ရင်
▁ಹೇಳ
ந
▁βι
▁mú
▁참여
▁ಪರಿ
▁água
мс
▁мала
▁algún
▁serial
▁memoria
▁grill
ສາ
▁άλλη
▁Presiden
▁journey
▁цен
概念

▁نتیجه
德国
▁අත
▁الي
diri
ОТ
▁roj
▁Kl
▁ඉන්න
▁रख
alli
▁increase
反映
▁1965
!(
▁tira
чер
▁Latest
ଞ୍ଚ
▁niso
▁יהיה
▁ਮੰਤਰੀ
▁돌
▁eder
극
▁রা
աբ
ທ່ານ
▁నే
▁Kommune
▁koro
▁trò
▁μεγάλο
ටි
▁queste
লী
ИЯ
вин
ایا
ВА
▁MT
▁luku
帯
▁tuh
▁పెద్ద
▁შორის
sində
▁Select
্যা
▁март
▁zwar
▁Ví
▁neque
地區
VEN
▁дэ
▁planning
▁ල
▁دروست
以为
DG
事实
▁chocolate
کن
▁Asa
上面
ஞ
▁timo
▁mester
▁სამ
лэг
▁osobní
カード
nv
ņi
▁purpose
▁менш
▁companies
▁sorry
▁bain
EEN
▁DIN
เดินทาง
▁saúde
▁ఆమె
▁ریاست
óò
eso
▁sivu
eter
▁വന്ന
졌다
▁чад
▁دوای
▁milion
▁awa
▁beiden
▁Serie
▁sø
ప్పుడు
▁генерал
▁여성
▁රේ
ието
▁Haf
rã
▁پوء
でき
▁jazz
添
แฟน
▁dhan
рит
▁наши
所在
▁Such
വാ
▁kelas
▁její
▁Ple
ヴ
媽
▁Category
▁[2
▁varios
cular
นี่
▁gått
去了
▁Én
▁Rin
▁tvoj
suku
OUR
davo
▁постоянно
▁Mina
▁nọ
▁2019,
▁Новости
нес
▁210
▁కాదు
▁parc
▁prote
▁rive
▁얻
▁Lis
▁periode
▁critic
вање
▁احساس
▁Chal
▁arkadaş
मे
јата
▁viata
▁seguro
시키
▁назва
▁болса
▁ساڵی
▁assist
ยาก
OU
ຫຼາຍ
▁Δι
▁گونه
eki
▁njihove
▁мае
īgs
▁countries
nnut
ուշ
rach
▁Бор
▁Stefan
才是
▁Tài
▁אלו
▁nampak
▁الض
amy
▁hommes
▁Indi
త్త
ത്തി
▁нису
▁ورود
youtube
▁tshia
▁Rück
▁gama
άν
بوو
לו
▁வே
เคย
係
▁хийх
▁iman
▁нього
▁Madaxweynaha
▁Đức
▁Leon
▁бие
ែង
εκ
▁dvs
otta
▁קר
▁AH
▁내가
▁Zoom
▁Ndị
▁dona
▁changed
▁vizit
有很多
нию
ứ
дон
▁salg
▁Maja
▁Schwarz
▁നിര്
▁laatste
▁سوم
▁siapa
▁importa
tida
▁допомогою
เช
vig
hogy
▁Chinese
也会
toi
ったら
ჯი
▁hesab
ënë
▁Registr
证明
вір
▁ያስ
▁عبدال
▁अभि
uhu
▁ű
▁Copa
▁kiya
▁Dad
▁møte
▁Tablet
▁меѓу
ക്കും
▁2008,
▁često
ώσει
ಳೆ
▁нашем
▁ange
▁mili
▁část
arra
▁დრო
▁случай
▁৬
▁saba
大部分
▁masak
เอก
▁poslova
നു
▁közel
▁แ
▁صور
▁yeh
Ak
▁ماده
▁رمضان
▁diversi
نية
▁nation
▁gồm
▁ਵਲੋਂ
тро
▁mesi
▁рече
▁сп
▁վ
▁sklep
ແບບ
▁annunci
▁ସ୍
ப்பா
="/
stvu
▁ऑफ
θεί
▁ពេល
ርያ
▁nyelv
▁phim
▁rū
িম
μου
堆
▁Hassan
椅
▁MC
쉬
▁Чтобы
وري
OOD
▁ተወ
▁פו
îâ
Read
จอง
▁moving
QE
▁پڑ
▁taste
▁бүх
▁wys
▁feliz
▁онда
▁lib
platz
袭
goo
忆
▁Mom
▁Dre
▁업데이트
▁практически
▁correu
▁încă
▁pian
▁145
通信
▁elsker
անք
スレ
▁Ville
आई
nul
▁episode
▁dirección
▁niečo
ظهر
иялық
קו
kura
råd
▁eigentlich
▁хувь
▁misli
▁اصول
ук
ซึ่ง
▁другим
▁nàng
▁Record
▁numer
ranja
▁свобод
▁ဖြစ်
button
▁......
▁nen
ळी
▁පසු
ncia
形象
漫画
仍然
▁модели
ੜੀ
▁cad
▁slov
▁сайд
oloji
▁bino
▁dizer
▁izvor
▁ezin
▁bango
▁شعب
▁ovoj
siden
wd
▁elə
pina
▁zase
ස්ස
▁खान
êng
▁толкова
▁רב
եզ
၌
▁ጥያቄ
kje
▁totale
▁byt
部署
▁βγ
▁کنار
▁dvoj
▁rūp
▁XI
▁Dokument
▁skup
日前
сов
▁폭
▁Lä
▁каде
ือ
▁κυβέρνηση
▁consum
NES
žo
▁luat
လား
ಣೆ
тим
▁zdrav
▁Drive
bii
懷
скую
▁nemen
▁සිටි
▁dinner
发表
▁waye
ÌË
▁פעם
▁ც
%3
▁šis
▁않고
וי
▁ተገ
pack
▁Prix
luğu
▁kertaa
ɗa
▁mannen
בה
▁ย
▁gha
▁لری
▁Mange
▁रुपमा
▁föld
лін
▁konkret
▁mw
▁cauza
优化
▁भू
就算
▁처음
著名
▁SW
▁cs
óä
가지
同志
Ji
▁rain
mbang
佩
Mas
▁ehk
▁trzeba
▁σχέση
▁ज्यादा
父亲
▁환경
▁drop
▁الحقوق
dj
pont
jọ
EO
▁Elizabeth
▁leið
第四
▁Zato
天的
/15
ungan
▁lep
▁Vitamin
▁društva
▁kraft
暑
▁조금이나마
door
▁Međutim
▁නැත
▁truc
▁σύμφωνα
avoir
▁Ռ
ần
زع
▁гэр
▁proposta
adora
美好
▁үү
▁lisa
▁сигнал
▁계획에
▁jezik
ắt
▁Mua
tena
▁prevent
▁tanda
bereich
小時
▁styl
▁dood
angkan
ısı
▁Ovaj
එ
▁sukses
▁리뷰는
辉
采购
▁Koh
Ẹ
▁võimalik
▁GT
▁thiện
punt
▁pels
סט
▁ích
kwu
▁اړه
لیق
rát
leb
▁деди
▁TAR
మో
▁karne
▁emberek
່ງ
ेन
wanga
儿子
lerle
▁شار
▁ក៏
▁اع
▁oleva
ښت
▁환
ବାର
▁Bé
bwa
न्न
▁наук
▁merci
လုပ္
▁Aby
▁eile
ჯერ
rree
▁වඩා
xy
DVD
وء
评价
つか
▁saha
▁труб
▁pó
▁algunas
主动
▁야
▁ዝነበረ
▁Fernando
lant
ครั้ง
▁Jums
▁zahteva
▁ખા
ðið
▁питань
▁consumo
▁한국어로
▁Moldova
▁hä
еры
ЛО
▁rade
▁Fox
อั
circ
рай
ellen
のように
▁provided
▁hemos
▁vé
▁Markt
▁euch
▁Mati
▁pace
▁역
▁அவர்
ंज
▁plastic
▁trách
เดิม
▁understanding
▁dolazi
▁fant
▁Platz
▁noc
▁Roo
క్క
روز
เว็บ
رار
▁بودند
▁המת
▁მან
▁cantik
▁дори
▁सय
palvelu
▁tana
▁estis
▁навчання
▁전체
ають
huset
▁există
zhi
QUE
▁ganske
▁êtes
แทน
▁guna
▁ettei
lho
▁þau
asse
▁חדש
▁fler
粒
찰
▁ขาย
츠
▁생각하시나요
із
លោក
▁없이
▁camere
នាក់
שׁ
েন
ይን
▁Fol
▁żeby
▁предлага
աշ
thai
▁असा
bart
ደጋ
▁北京
▁Damen
ód
nius
挖
衝
蔡
මට
훈
▁juos
▁ABC
万円
▁المنتدى
মি
受け
▁propose
▁gratuito
enter
▁klimat
khulu
ዋል።
manya
▁surprise
者的
▁ນ
▁LCD
▁göster
▁2019:
யாக
▁baat
▁hareket
▁sold
▁maanta
kning
▁ክብ
▁pigment
▁Kab
▁ನೀವು
pali
વિ
▁jelen
ðu
nki
▁blanc
asjon
▁ega
▁siebie
ம்ப
Oh
▁1939
▁Банк
▁beide
▁celý
ەم
▁Mexico
▁سعودی
ነትን
ozi
ኖር
ovanja
ukku
削
▁Hart
▁scor
ኤል
▁результат
▁Haupt
raan
▁utilizar
loos
roll
採
绩
▁apps
இ
ಷ
▁seven
▁Yon
गल
ojen
ప్ప
▁Vaa
▁energije
skab
▁třeba
收到
▁ಮೂಲಕ
ట్టు
shu
▁رفت
▁2.5
▁wenig
▁мі
tve
▁numa
kz
anju
▁panas
▁දේ
чни
صاب
▁Bana
pik
ହୁ
▁nagyobb
▁Lista
जर
▁אותם
▁участь
llisesti
image
ታትን
▁aún
▁Werk
▁ჩვენი
▁ឈ
▁Kil
yaḥ
▁душ
▁rə
▁있었다
buru
▁håber
▁Lumpur
ህን
▁annen
▁želi
ΟΝ
▁dair
好きな
volu
શો
唯
高い
▁кот
пере
▁χώρο
▁ലോക
▁Universidad
ණි
▁ша
্ব
▁customer
▁Right
▁Tower
▁ausge
哲
娃
ését
▁យ
▁ਕਰੋ
▁babo
▁лег
▁그는
▁paid
デザイン
▁Helsinki
▁usko
▁отношения
▁जनता
▁använder
▁musim
▁Luka
▁बंद
▁हत्या
保存
▁komunik
▁ბ
▁დღეს
ərək
▁Marka
▁đội
▁nhu
▁earth
زن
▁Negeri
大概
οποίηση
▁skip
▁profile
Val
面的
▁არც
▁CHI
BN
▁pride
▁často
holo
URL
▁sih
▁adat
マイ
▁포함
ùn
▁mengalami
τυπ
▁сильно
▁кейін
▁31,
eck
▁مادر
很好
▁구성
▁Kerja
atlan
cup
▁Safari
▁भयो
▁Cá
▁бид
表演
ሣ
舰
cite
钟
året
▁olsa
▁Norte
▁soprattutto
▁गरि
ുകൾ
曾经
▁פשוט
▁നല്ല
▁않은
city
▁trebalo
▁ಈಗ
▁നാ
Star
топ
▁4000
▁Мин
▁pone
▁ባህ
▁πά
玻璃
氧
▁informations
▁esetén
▁CM
▁لاہور
рус
ູ່
▁urang
act
"،
▁어린이
▁জি
رین
▁noche
њето
▁navodi
▁sklad
▁bese
▁metais
▁хочу
▁hazır
เจอ
▁التعليقات
ája
凤
CY
יץ
빌
cela
niꞌ
▁మంచి
ంట
▁ទាំង
ဖြင့်
itud
▁koment
ettu
機會
▁भेट
ODA
▁pénz
▁instant
▁좀
▁umum
ြး
▁rich
ೃ
▁평가
▁Beauty
▁Юр
wid
mite
的故事
▁დი
▁pagkawala
▁oyun
▁정말
▁வெ
▁wajah
meri
èå
رج
▁Hải
▁mɔ
ój
▁ነዚ
zt
▁ngân
▁Xbox
中小
▁ddim
టర్
▁YOU
মে
▁Player
媽媽
▁KAR
▁recipe
▁రెండు
kora
▁godini
▁duduk
дары
▁அது
izzazione
▁Kum
▁autora
מית
/2015
GM
іна
చ్చ
停止
▁Champions
▁휴
▁юр
▁جد
▁glu
▁nji
書き
▁priča
ції
▁محیط
▁मृत्यु
▁કહ્યું
▁vent
▁žmonių
▁Slovenije
umą
▁balat
▁++
▁Федерации
▁derecho
でしょうか
▁isaanii
▁Comme
dica
aquesta
▁ўт
呈
hadi
▁walio
▁plante
博彩
▁ڈاکٹر
gens
yna
▁آي
mbar
▁உலக
▁duit
▁aikaa
तर
さらに
ầu
▁CHE
ಾಯ
肖
▁Gh
▁üzere
bɛ
透過
▁בדרך
▁15%
▁sty
▁จํากัด
ையும்
▁Usa
▁1900
zala
되지
▁Bukan
āciju
vim
ðà
žas
▁дуу
▁۲۰۱
ganda
▁알려
▁تبدیل
هن
▁Наш
gai
ৰণ
▁σπίτι
▁audience
▁helg
▁لینک
▁ನಾ
▁Etter
▁Sei
fell
ద్ద
▁informacji
▁yüz
ຫນ້າ
▁بشر
▁üç
▁Bond
▁ability
▁ette
▁zai
მდე
GER
▁Spor
▁113
苹果
lərdən
▁સ્વ
陣
電腦
▁ବୋଲି
UTA
▁gửi
的朋友
ሆ
angi
▁Petro
చ్
sada
yaw
▁muitas
▁fam
▁raison
▁penal
一款
▁ட
▁linna
▁produtos
pää
ంత
▁prior
▁Mut
▁मिळ
سة
▁प्रहरी
ახ
▁verseny
赔
tén
▁inca
▁svom
▁почему
arm
baru
▁pendidikan
母亲
▁Bondye
Ụ
▁Ves
▁dug
▁fez
یشن
▁gest
▁기록
▁ahaan
▁Фото
▁sever
▁باشید
▁እኔ
▁aujourd
opera
▁весь
▁dod
▁YO
▁wetu
▁siinä
▁temos
IES
iten
▁migliore
姑
▁tawo
潔
ической
▁Kort
意識
▁pueblo
ész
ന്നു
140
▁žal
สอบ
▁Liebe
▁militar
▁serious
abilir
ullah
ŷŪ
person
▁cheap
స్త
ਕਰ
▁registra
▁شئ
▁ተስፋ
쇼
ศึกษา
▁niini
▁ᐃᓄ
см
▁یہاں
▁produ
▁devo
ศรี
тно
ismus
rī
▁Junior
ধান
▁Cách
iyi
▁pô
▁thus
▁pored
▁lähe
▁Tempat
AX
zina
련
130
▁نت
▁produkty
cet
▁Ezek
सो
▁кај
イト
▁fantastic
▁geo
▁tagged
▁taon
▁Mine
▁Self
释
mission
▁பி
ishwa
тся
Źũ
▁darauf
ይና
laa
一旦
자를
▁ከመ
▁completamente
▁καλύτερη
รอย
▁эта
▁trattamento
ৃ
yim
ப்பட்ட
▁Mundial
hte
ode
▁imao
ய்
▁stem
йл
กด
▁rencontres
▁وان
ukka
▁šal
vem
ÁR
▁Eb
▁তিনি
▁низ
▁luce
成都
▁118
▁პრო
▁Stil
åíèÿ
▁▲
îr
▁பொ
▁ajuns
▁있었
▁Avropa
▁ત્યારે
▁welcome
tern
特点
সে
KER
tów
անդ
tapi
▁Bella
ด์
▁maneira
▁richtig
íûõ
私は
same
鸟
▁కొత్త
чета
組織
ၚ
▁Hrvatske
popover
▁riêng
нести
▁Merk
irwe
▁peace
怎样
▁Direct
▁megfelelő
مار
ตุ
▁Üniversitesi
jeti
▁nationale
▁ਸਿੱਖ
lî
もし
▁дав
▁Sb
▁MIN
▁статті
τον
▁kapital
▁canal
▁Things
▁kroppen
▁दूर
▁проекта
ادة
ķ
▁السعودية
▁spørsmål
▁ዋ
▁ສໍາລັບ
▁එහි
孤
▁Toate
▁buurt
كرد
▁នាក់
shë
ඳු
ន់
▁ਕੀ
それは
▁Waar
▁ბა
▁વે
▁Shar
▁برس
客戶
▁nekā
schi
▁peab
▁iray
знач
募
▁nep
▁viens
▁BH
▁musta
Azərbaycan
▁ઝ
Ce
▁انتقال
ร้อง
▁жой
▁beta
▁Kabupaten
▁сәйкес
ったり
▁Lama
▁төрийн
ице
▁رود
▁Koko
▁Touch
▁አባ
▁Kann
时期
你們
▁getur
▁টাকা
່າຍ
หนอน
▁নাম
▁అన్న
出席
▁pse
▁ប្រទេស
cf
▁Status
▁καλά
................
iPhone
าย
▁Respublikası
廉
骑
EMA
pc
▁Bütün
▁syö
▁Tras
▁ഡി
▁데이터
reo
ischer
▁Қазақ
▁dó
▁spesso
5]
▁evident
▁strana
arinnar
▁tikrai
違う
▁ጀ
▁اندازه
▁Mundo
മുള്ള
adresse
dź
世纪
нт
▁dê
▁управления
▁అను
▁фестивал
mmen
▁moguće
edo
▁gef
▁flo
▁Diego
▁ምድ
▁magnet
▁jaoks
▁dez
▁sponsor
▁Ông
▁Dead
▁ඩ
▁Πώς
▁ddi
▁εκεί
장을
эс
▁abge
淫
ဴ
尘
▁പ്രതി
nám
▁त्यो
пад
apu
▁szín
ຸກ
▁پوست
Ɛƚ
▁actions
▁cikk
▁Μια
▁всю
▁KR
▁قم
▁өте
2001
▁apr
▁Valley
मि
▁знаю
▁áo
ngwe
▁puhu
▁قائم
▁-->
웨
▁avem
ர்கள்
လုံး
▁дете
ugo
フォ
돼
▁αποτελεί
▁організації
ଥିଲା
▁defensa
▁punct
อาจจะ
HY
▁депутат
ɨn
▁quedar
▁但
带着
▁کیمی
PY
▁trade
dagi
Her
UV
vak
ugh
▁waarde
なくて
МО
どんな
▁sais
оор
গা
▁съд
▁CAN
CHI
ois
mum
蓋
▁완벽하지
basa
▁izgleda
▁malah
▁적용
▁თუმცა
▁Aki
▁бўлади
▁Alles
▁MY
▁знам
:1
主人
が出
▁feature
baya
▁longo
ደራ
iyar
▁kuul
▁vseh
aɣ
ADI
▁সঙ্গে
▁estou
ຸ
济
奉
▁människor
▁Plat
จากนักท่องเที่ยว
▁नागरिक
▁ndu
▁منابع
▁번역입니다
▁نورو
▁bazı
នី
▁őket
▁коментар
▁ғана
ພິ
▁ৰ
▁систему
ирует
▁santé
եռ
▁φιλ
▁enviar
▁період
単
▁статус
▁kaut
▁CL
▁ABD
▁190
անում
▁naha
iraju
లీ
▁ngoba
궁
▁piln
▁يق
amaa
▁גדול
päivä
▁advice
▁εγ
▁сүй
▁автомат
▁දැන
▁allowed
***
▁تماس
▁разбира
▁Ame
Up
גים
ското
音樂
▁جمهور
▁käi
整合
base
ᑑ
▁المست
下降
cini
hhh
ëþ
လို႔
▁DD
▁Thor
▁آش
▁mood
▁Grupo
▁infra
▁Thủ
▁Kod
▁کرتا
▁Ihe
емся
ሉት
鉴
拖
▁déc
▁kaffe
laq
▁yox
▁گیری
彼女
pred
ΛΗ
mų
▁shqiptar
▁dage
▁denen
တီႈ
▁Ola
landı
nais
▁arbeids
اث
fle
▁시스템
▁ax
脫
検索
▁camino
izma
▁مک
▁Isten
▁Kle
▁olmayan
▁regn
ег
ジュ
ström
gare
▁شرح
▁වෙත
▁pikeun
▁đau
هایی
llar
▁ape
▁hud
▁говори
hap
▁buiten
日に
אם
lici
▁تە
▁शिव
▁एन
▁POL
▁nekem
ÚÂ
▁хий
▁(„
တို႔
ເຂົ້າ
▁acestui
àÿ
▁Гар
ល់
表情
▁ඔය
wari
בן
ុក
RJ
▁sidste
▁bulunan
▁szív
▁науки
▁Pré
ড়ে
▁nto
▁yek
▁ਜੇ
两人
జా
▁mengetahui
▁참여해주셔서
▁партнер
のに
jąc
▁niiden
ÖR
▁pregled
▁કરવામાં
OTA
▁Ketua
▁자료
下來
▁Koi
૨
▁hjälp
▁kese
▁štát
ച
▁demo
▁میل
▁ష
vih
雜
▁هزینه
▁μέρος
▁ছ
▁могли
ฏ
▁heat
▁sac
▁البحث
klas
הן
წ
เตอร์
▁tohoto
▁samtidig
▁журнал
训练
▁osta
▁Anal
ылған
▁taxi
uese
固定
▁мүмкін
▁아닌
入れ
▁développement
ପ୍
ãî
▁πολιτική
álne
课程
erings
▁பட
пол
ισε
▁línea
▁près
lē
▁안전
▁ගිය
▁pieni
▁תש
ишга
PER
୩
اؤ
▁delen
noc
挥
▁قومی
家长
▁cargo
▁kona
劲
▁veröffentlicht
יך
▁яхши
▁gestion
તાં
▁шинэ
ាន់
▁dú
▁μεγαλύτερο
▁kartą
▁своїх
ഇ
删除
時期
▁krvi
▁tipa
▁(14)
IMI
خط
rena
▁ෆ
ዎችን
òû
▁implement
▁honom
▁जु
▁Id
地图
図
ˇ
뜻
▁उन्होंने
▁Ман
▁Murah
▁Doctor
ებას
▁skills
▁petits
▁കഴിഞ്ഞ
▁истории
gá
▁ΑΠΟ
vom
lita
プレ
ề
▁bën
▁lager
갈
नु
▁accident
▁upravo
▁செய்த
URA
现象
▁Mass
рос
ऽ
▁فیصلہ
tora
▁கொண்ட
▁المر
大阪
lát
▁maximum
elő
ични
▁normale
▁egentlig
▁WI
▁масло
▁වෙන්න
に出
▁αντ
▁Amor
sida
▁mire
▁нашей
流行
▁zelen
უმ
玲
▁나쁨
▁되는
▁계속
▁acceso
▁успех
misi
▁quelli
אר
IAN
માંથી
▁ബാ
iae
▁అది
▁оч
rud
▁сили
▁turut
▁запис
▁منتدى
▁somos
▁যায়
▁intern
ଣା
ஸ
ковић
▁Eller
▁potrebe
▁بھارت
0]
▁brief
挑战
”:
▁label
▁FE
علم
▁meningkatkan
▁koleg
ƌĂ
▁ᑕ
▁करोड
ÁN
▁структур
流程
▁Ĩ
▁אלה
▁شنبه
▁τελευταία
บริษัท
▁типа
ASA
hren
bê
▁lét
ási
liselt
▁цу
▁збор
ДЕ
▁geval
KP
▁fragment
▁ತಮ್ಮ
ദി
НІ
স্ত
▁Timur
በረ
▁ambayo
dani
▁1964
पत्र
ሩን
▁produse
党员
▁Rim
▁կազմակերպ
tores
▁rura
▁dibuat
▁числе
▁keli
적이
▁شماره
漂亮
▁perusahaan
▁هنگام
▁Δείτε
▁केन्द्र
▁නොව
endur
dür
ರೇ
ERS
▁puntos
ología
pare
ကြား
▁chyba
▁послуг
້າ
▁coin
АЗ
▁Aman
ዩ።
elik
▁هوا
▁நா
ไหม
ينا
▁arvo
▁nori
ncer
▁ሆነ
▁atención
▁ብዛዕባ
一段
linga
▁osobe
▁herë
很多人
iling
りたい
ڕ
hlo
▁लाभ
ュー
ŷŻ
▁пакет
▁Wel
▁znám
▁висок
よりも
malla
▁Folk
未來
▁ند
▁moka
უნ
▁ട
❤
比例
Ђ
戸
绝对
▁okwe
ンス
xin
kry
往往
▁රහ
检测
▁Major
▁bek
▁цены
▁segera
▁goo
▁منبع
▁Ÿŷ
▁(9
ANT
କ୍ଷ
stock
▁가족
ANE
▁diferencia
▁corso
▁bilang
ларын
raum
▁침
ᓛ
ቪ
ấn
▁الط
▁дейін
ovu
ንድ
lić
▁strand
▁Len
▁1948
▁internetu
бал
▁Unit
▁kezd
▁மன
▁திரு
ások
ฐาน
▁naslov
▁nabi
▁દ્વારા
连续
आर
bian
▁برنامج
▁тіл
ளை
Ai
ffen
ంచ
▁أفضل
▁Look
▁MED
مون
▁ait
▁بیل
▁בלי
▁nuevos
amus
▁skrev
▁maju
▁hampir
▁rahat
年轻
ಟರ್
ेंगे
ນີ
▁kooli
АЛ
烤
黄金
▁seemed
ATE
▁Menu
申し
soft
ജ്
▁ورزش
bw
▁ማስ
▁daughter
▁цих
ющий
▁minutter
仓
所有的
▁Май
▁ຈາກ
lette
ολ
▁Patrick
▁درد
ლე
▁Council
▁semmi
▁Moh
รส
▁belül
▁Ful
▁infatti
ondo
וש
ư
▁Jong
RX
▁esempio
တယ္
ỏ
▁какие
ENE
seen
▁kojih
▁Mohammed
▁114
kkal
▁veni
्यात
مپ
sider
▁livello
▁मार
eyi
▁فرمان
итель
▁Queen
▁ගත
▁האתר
▁Event
ирования
▁ovih
ટર
目標
观点
▁życia
iner
▁Fla
▁செ
▁oral
▁sne
tanga
▁salva
▁ግብ
▁ఎలా
lein
▁Save
ᓪᓕ
▁zero
เซีย
人に
spre
▁위치
csi
▁Dance
▁necesita
тир
▁слаб
정보
rangan
▁عامل
▁Закон
▁raf
▁чер
▁açık
:6
▁මි
肝
呵
▁دہشت
▁دفتر
▁genere
โด
تهم
ᐃᐧ
▁ìå
TN
tatu
▁blod
▁عشر
▁выход
DAN
▁мэт
امی
▁خیال
▁Haar
▁кре
身边
መስ
stilling
私の
▁شکست
▁карт
ώνει
▁κατάσταση
▁Oma
фор
paka
允
▁биле
leen
jska
▁ішінде
ፋት
▁fent
▁Loe
0000
яць
iseen
▁kalian
▁ขอ
ශ
tím
▁tutki
Cor
▁Alan
տի
▁aktual
▁Kaya
GY
ระหว่าง
ိုင်း
▁command
▁କିଛି
▁경험
優惠
▁sinu
ถาม
İK
▁mó
▁Toto
aith
وض
ĂƐ
íîãî
▁우리는
ැ
ඩු
சை
的那
▁ਦੋ
តាម
▁රම
▁كر
▁Nic
▁bangsa
▁ᓄᓇᓕ
▁lica
ÛÛ
zad
▁ayam
endum
ետ
▁დროს
izo
ondi
んだけど
Av
στα
▁mật
▁prepara
▁workshop
▁healthy
警方
▁좋음
ikko
▁возможно
lhe
ுவ
ập
हर
▁ikinci
ਪੁਰ
▁sagte
慶
▁progetto
▁खबर
2005
▁tenen
တင္
▁thuế
▁унинг
▁falar
收藏
方が
▁Guy
▁;-)
вели
▁સે
fed
מל
űŰ
ยุ
▁dạng
muna
аваць
▁(15)
▁Cultural
До
▁якого
▁qoy
▁laki
même
িব
▁ٿو
trip
בית
▁moved
▁Жи
Hõ
▁talál
やり
คร
▁Oni
心里
tën
下午
▁prve
▁Lib
ЈЕ
▁وكان
▁ᓄ
▁gagn
પી
▁labāk
▁роботу
▁lav
дав
jp
▁elektrik
Ả
――
▁ребенка
▁цієї
NR
ಂಬ
▁вели
หาก
▁ciddi
점을
落ち
▁שכ
šel
▁lave
▁завжди
rasa
ntis
▁ଖ
0,00
▁Hack
▁Luna
プリ
▁이러한
öd
▁አዲስ
るのは
▁rapide
▁menunjukkan
ambu
▁kutsu
英語
一场
diyi
▁Another
нев
▁rud
▁Џ
▁Bun
▁molti
站在
▁جامع
▁Lub
LR
▁diberikan
jis
WD
▁Chicago
▁ସବୁ
chem
▁мире
etik
▁ᓴ
onia
▁친
tako
▁aveva
ɣa
▁players
ŴŮ
▁vahel
ണ്ണ
લિ
▁strip
濃
▁blowjob
شتی
▁Србија
น้อง
▁encuentra
▁سندھ
▁Giá
ಿಸಲು
ปรับ
人妻
▁ایمیل
▁Kok
▁Studi
▁tool
▁نم
vision
IJ
▁Doc
atı
▁oan
Ѓ
▁đấu
▁dzięki
עות
▁ազատ
▁inspiration
▁budi
▁가지고
download
▁voce
▁olevan
▁الوقت
▁پیام
джа
▁ruo
руч
جة
▁Ҳа
▁riigi
▁cabo
▁spol
▁дугаар
▁맛
昆
▁obr
夫妻
uden
▁ଯ
▁bagay
ICA
ukas
▁ឬ
왔
高中
微博
роқ
▁২০
tische
▁ért
▁Zdrav
▁περιοχή
▁þó
▁pirms
åå
езд
んな
▁jäi
məsi
pere
凭
ตะ
▁әлеуметтік
▁lees
▁umuntu
▁ér
▁သင်
oge
▁এখন
▁Hamburg
▁cuatro
▁Vladimir
жал
වීම
▁образование
▁köpa
jeva
▁ЕУ
▁حر
막
▁Base
也很
成分
▁ملا
AF
▁شاهد
▁olunur
▁Too
▁rétt
ላዊ
▁happens
▁Sarajevo
리고
TÖ
გი
manda
▁నుండి
ðî
▁besi
▁sepse
姓
绑
ETI
▁τέλος
▁شيء
▁όλους
▁ਖ਼
▁Rou
▁Jerusalem
ALL
▁новости
ací
OF
▁poter
▁üye
▁Index
▁totalmente
nç
▁Dani
▁හැම
▁여행자
一份
▁регион
ML
▁yayi
glia
친
▁دم
▁osv
ည
વામાં
jom
▁Pad
▁ਸਰਕਾਰ
kpɔ
▁보호
▁138
▁막
▁24-
▁ចូល
▁napi
tünk
ELO
▁Security
ném
▁Ndi
▁lava
策略
厦
੧
▁ہمارے
NIK
ÿò
თო
र्ड
▁minus
▁Privat
在我
语言
dating
▁سرمایه
▁חו
▁homem
▁וכ
▁kite
▁പെ
▁ብሎ
▁dru
▁νε
▁buon
▁Бир
gå
▁იგი
▁máme
koro
▁jotain
▁rayon
▁څو
壮
▁ନା
ǎ
Ē
▁onderzoek
▁altså
▁offers
▁finish
bug
日报
▁hubungan
ìû
laus
▁dager
▁Shir
kaya
▁வா
tien
▁WiFi
一致
▁gl
!...
รุ่น
▁vrste
▁fos
▁nero
▁Iraq
алі
▁ವಾ
ÁL
偿
ását
状況
▁sexo
▁Gün
ებულ
व्य
ாத
▁समझ
ตฺต
lozi
▁chin
▁네
ទេ
▁북
▁niko
▁Beg
▁ኮይኑ
вяз
TX
oin
▁kò
▁usted
▁uống
通り
▁spilleautomater
▁tev
▁կատար
▁zorg
ılması
čia
あります
▁Edward
КУ
ımı
▁бед
运输
▁ასევე
▁псориазис
秘密
▁117
vc
TED
▁terakhir
ባይ
▁પે
▁Every
▁అన
▁חיים
▁aanlyn
ðum
▁termine
▁Kanada
yay
▁cantidad
нки
▁centrale
▁gadā
▁Bod
mizi
▁අනු
ိတ်
▁řízení
▁mots
▁Ade
عب
body
▁ଲ
▁najbolje
phu
▁jį
歡迎
૯
atus
සා
▁seinem
ética
▁bomba
পুর
▁cila
kone
ției
માન
▁16-
▁Pit
▁szól
NB
zɩ
▁pronto
▁korak
▁وطن
гин
撃
老公
▁最近
▁muligvis
▁bebe
▁변화
总统
▁yoga
▁Durante
йт
team
▁простор
▁bah
▁kosten
各位
▁loss
▁felé
σεις
xon
userid
▁రాజ
▁postoje
災
ერი
गो
atul
▁böyle
ਗਾ
▁έκ
▁Madaxweyne
▁právo
▁जाते
▁Ari
ນໍາ
原本
താണ്
▁socio
▁తెలంగాణ
▁руки
bc
▁व्यवस्था
▁заказ
▁ዜና
▁Öl
是一种
▁Sok
▁Wali
▁projeto
ihii
ᒻᒥ
▁Pyar
▁ЕС
cii
eld
▁Kamera
زر
enge
▁ця
tero
fach
حه
ोर
感覺
▁теж
วิธี
▁cég
eba
▁calor
laꞌ
uḥ
IRE
ਸਤ
▁købe
▁HubPages
▁полностью
bû
▁justice
其它
▁четири
тери
▁SL
▁iawn
roka
▁medi
▁بش
асці
ksa
001
▁barre
ИС
▁wegen
▁password
▁आले
就不
▁memory
▁καρ
▁Colombia
▁svensk
նչ
emme
慕
灭
ۀ
ลับ
▁Để
▁nový
ชนิด
▁እቶም
▁usta
▁bilen
▁Singapore
▁ministre
传播
▁NGA
▁کسب
當然
ශ්
スク
زي
ikke
▁nossos
▁etwa
▁sco
▁Хар
OVA
▁ښ
▁cai
▁انداز
љу
▁busy
▁Syria
lɔ
2020
▁stå
ուց
▁inlägg
▁Ό
▁bước
ただ
▁KAN
▁Jūsų
gde
▁Magyarország
▁lovely
▁проф
Ә
▁Је
atore
used
▁cân
▁вопросы
kamp
▁Skal
▁материалы
垃圾
中华
▁qur
▁praw
द्ध
▁ಅನು
▁งาน
maat
bn
ርና
▁ٿا
▁diferite
ଘ
▁Më
தாக
▁метал
▁кандидат
ወቅ
ОВ
▁rue
▁डो
▁statistik
wald
gena
▁njima
vida
▁10:00
ພັກ
▁جائیں
▁sza
▁wood
▁maca
▁vál
プラ
났
收集
ża
graf
▁sür
▁forget
СП
▁محفوظة
ROM
▁rab
دیم
aje
▁nivo
▁etapa
▁soc
▁bilik
▁раздел
スの
▁الثاني
ਣੀ
▁acabar
悠
싱
૪
▁کیفیت
▁کوشش
▁puntu
뉴스
▁боку
▁score
▁okul
ຕົວ
jir
ออ
▁ਹੋਰ
▁citu
▁tuu
action
нути
व्ह
গুলো
ABA
▁ერთად
▁بهره
/2016
æå
radio
রের
▁қилиб
▁penger
ั่น
わり
▁kiếm
sburg
把握
▁itd
ත්වය
των
定期
해주
▁қўй
(1
▁Bắc
▁gue
▁XII
▁دینے
▁gai
▁zullen
ળી
▁Số
▁එහෙම
▁દિવસ
▁peaks
အောင်
▁hvilket
▁אב
toma
▁behar
100%
დო
tē
▁הרב
仰
▁اح
▁entonces
헤
▁კიდევ
▁ଆଜି
▁daytoy
▁właśnie
황
▁عمومی
▁وزیراعظم
いたします
▁৮
▁Wu
-2015
bbe
▁ρ
beg
▁tillbaka
▁газрын
▁hafta
▁ಪ್ರತಿ
hli
tapa
▁czym
XX
▁ବର୍ଷ
▁بالم
ዋል፡፡
▁træ
▁sollten
▁kuti
chal
ابة
不安
彈
हो
▁تنظیم
▁1944
▁hiểm
▁ऐसे
ái
▁krem
ലെ
十三
oire
▁Ingen
▁deň
▁Alta
▁integral
skem
▁Запад
▁Vali
▁ડ
▁בעל
čný
▁king
▁парламент
ហើយ
▁gbe
▁Made
▁جای
▁wszystkim
▁टीम
▁ਵਾਲੇ
外国
стой
▁철
▁가지
▁þessu
zir
▁pok
▁TS
ému
▁voyage
▁ار
▁yun
мей
tej
▁ختم
▁stel
▁operator
▁Aka
▁nasi
赫
raṃ
▁Mb
喊
▁Norway
▁నాకు
áš
天天
▁즉
上述
▁پہنچ
時候
▁physical
▁μεταφράστηκ
ლად
емо
ပွဲ
ള്ള
▁Deep
ЧИ
▁User
▁vaš
▁ሆ
zos
▁incident
ип
▁krijgen
▁ከአ
ことは
▁espacio
▁Hir
ələ
驾驶
make
НД
▁tête
▁feedback
ผลิต
▁تان
▁carbon
keit
cera
▁tanya
STA
▁bonsi
▁tiro
▁effects
ається
▁そして
▁Conta
家具
▁نمود
▁classes
▁Giardia
▁dà
ደን
яр
Book
▁bác
וד
ВО
▁names
▁Жан
▁ထို
▁modeli
BP
▁книга
▁сар
最好的
▁১৯
▁اطلاع
ないので
पन
alı
▁Cool
配置
▁select
NF
▁같
кур
▁прво
響
অ
osos
ãè
mpah
变成
▁ى
▁분석
▁valaki
ເລ
ely
▁Santos
▁woon
簡單
▁tidigare
▁Україна
▁સરકાર
▁आयोग
做的
zig
swa
ற்று
xxxxx
▁naši
tier
▁zeigt
îm
▁bande
▁Simple
▁Ана
▁норм
khu
▁죽
▁anime
ква
▁tsara
▁impa
▁tujuan
▁ሌላ
心情
▁जल
सि
▁meant
lija
▁Господ
naꞌ
▁ਰੋ
塗
▁siyasi
驱
丸
นฺ
▁tincidunt
▁ABŞ
▁troch
▁condiciones
▁វិ
мол
▁ዝኾነ
▁swa
▁Дан
Ph
leta
▁atrás
▁adik
▁flow
▁Parc
ssé
▁സ്വ
дать
▁کەس
▁universal
▁artículo
फ़
▁rug
Խ
▁ipak
увчи
pole
▁wielu
▁ट्र
▁revela
ंब
▁əvvəl
UTC
▁plen
શી
柱
▁βρίσκεται
▁доктор
▁analiza
▁Ase
▁아래
janje
ウェ
▁Gall
pta
bari
▁돌아
發表
druk
▁મને
▁sii
▁استاد
KW
jön
vira
▁Mí
▁weather
▁روشن
▁affect
タン
▁tornar
▁ਦਰ
▁הפר
ಅ
ေသ
mysl
▁sellest
▁പൊ
AZI
▁Trend
wed
ષ્
rva
▁हुन्
rmi
▁غذا
▁aho
▁қой
▁pair
▁finder
▁چهار
kör
stig
નિ
▁considered
▁ماشین
▁Sound
hani
▁contar
▁Sobre
▁따
▁Ψ
▁visus
▁गे
▁nieuw
▁možda
▁laget
ወጣ
კა
▁தா
òå
▁మో
▁അറിയ
場合は
▁gati
روس
有什么
袖
кт
正是
▁найбільш
▁ederiz
▁कुमार
▁kisi
▁රැ
動画
▁odst
▁Nang
ყ
ԱԿ
ະ
సారి
▁bomb
▁raka
▁reh
▁ᕿ
▁Кан
ably
▁???
▁olar
▁Пан
他人
▁ਮਨ
▁Pac
læg
▁Deine
पूर
陶
▁amu
戀
▁Analytics
▁grâce
▁అయితే
واد
▁mercato
▁करण्यात
גר
▁પડ
▁პა
lagen
▁Bridge
▁Pani
▁seulement
▁તા
ාගෙන
siin
▁reserva
舞台
▁зміни
▁گذاری
▁valuta
▁промени
▁бош
▁kaas
▁Люб
▁çıkar
▁meiner
▁Arm
▁Þetta
▁marriage
▁Šta
stal
▁participa
▁kể
ходу
▁telefonu
▁wong
▁jobs
▁Vet
很大
▁setmana
▁neem
▁Bah
▁عز
▁kari
ndũ
▁Aziz
люб
▁कमी
▁provides
ရင္
▁kid
▁рада
▁poet
papa
▁Jetzt
”“
▁vjet
▁نیوز
noo
ላለ
▁prend
▁DIY
▁yma
▁मध्ये
sika
ffi
ობს
भा
▁4-5
頻
▁읽
▁Jazz
▁Dok
сты
къ
কের
prak
▁خه
▁Holland
▁termék
탈
▁Trade
妳
chia
▁taal
▁Eğitim
▁થ
▁преку
司法
lĩ
▁eigenen
পে
▁aza
▁fuori
յալ
▁بسته
▁1956
▁Camera
▁сектор
▁пес
nast
▁düş
▁अधिकारी
▁พระ
রু
ضع
čić
hī
èç
▁sahibi
誠
▁beyond
快乐
擁有
taba
ণ্ড
▁своими
▁ле
ให้กับ
ebilir
είας
▁مكان
▁ማን
ará
▁totally
hri
▁guarda
内的
liya
▁Banyak
▁फ़
をする
เหตุ
盾
▁hombres
▁używa
诸
▁Тэр
▁Lid
▁فرم
▁دعا
▁revista
dist
▁سنة
▁ajuta
▁reng
▁lộ
▁ΓΙΑ
符
言う
και
פתח
ਵਾਂ
▁sax
房子
▁Egypt
гай
▁kaq
▁kwam
▁pasal
ばかり
続き
▁ଜା
▁nka
▁tür
统计
Žƌ
▁belakang
Ajuntament
體驗
íó
▁African
ဇာ
gers
▁မိ
▁مشخص
ટો
čné
▁उच्च
kord
iller
▁prodotto
ซั
▁modifica
▁Suche
obe
▁gene
іл
▁Նա
ავ
▁같이
▁gba
▁қайта
gren
▁EC
ităţii
ტან
▁sos
▁arrive
fam
Os
ᔮ
▁Yr
▁ऐसा
еть
▁Andrew
▁Đây
英语
▁όλοι
▁parking
▁üzerine
▁decidi
▁Petra
suu
зем
▁semper
▁ვარ
▁GET
▁cake
▁Après
▁hoo
▁vàng
/2009
ኞች
ilt
▁පිට
▁көз
▁rig
られ
▁ორი
▁Silver
ላማ
虫
▁Suomi
▁Dou
▁humano
▁الث
脂
安徽
raga
▁Beat
▁miljø
▁Area
▁locul
hwa
▁мя
▁이를
фт
лау
രം
▁بيان
▁Esse
rait
lijke
ทาน
inka
opo
▁shared
▁эт
ithi
▁brz
▁plán
▁SER
▁zapis
ศาสตร์
▁grupos
▁račun
▁cloud
▁Besar
▁Scha
חו
simi
buya
ோம்
▁API
dud
енный
ใช้งาน
YL
▁insa
▁방문
▁Vien
▁સો
▁dul
ière
多くの
▁форму
▁ćemo
▁давно
舌
▁பெண்
▁Tage
ーション
▁öl
энд
▁должна
жив
斷
▁Ав
▁قطر
▁Naan
fus
▁trag
υν
nça
▁Hold
dej
▁treat
▁данас
▁खोज
ോട്
▁biasanya
▁großen
පා
▁ઘ
በለ
▁DIS
middel
党的
ány
初めて
▁Than
ιος
vět
▁comune
▁Agar
meye
ალ
ect
锦
▁Bluetooth
▁kolor
▁ਗੁ
株
saya
▁млрд
ವಾಗ
ເສ
▁भाषा
▁dieną
ayat
▁овог
ША
▁gotovo
▁Season
▁verme
ᖃᕐ
նա
▁Merkel
ಮಾನ
onder
▁1966
▁Sistema
ания
โรงแรม
irani
▁Hver
ics
三年
▁gras
▁galite
▁رده
3/
▁rule
ƌŝ
▁bhu
ไร
уна
▁Force
▁ສາ
▁స్వ
▁Asi
ძ
▁kwaliteit
trag
ኹም
kių
partner
ذكر
ଥିବା
▁اد
nąć
▁commercial
▁ове
ères
▁आयोजना
яй
MAS
资讯
▁እዋን
表面
นอน
▁prae
tán
นั่ง
▁etmek
▁ಬಿಜೆಪಿ
▁पहिलो
▁कह
▁bidang
week
뷰
김
สัก
▁chữa
国民
ᑦᑎ
最低
▁Schi
tanda
就有
読み
ION
▁লি
的不
▁nuevas
ŶŮ
▁раст
▁Gali
isë
▁കൂടി
▁anden
ıl
▁Pela
有着
▁дамыту
rija
▁1941
이었다
ینده
нга
不想
▁අධ්
▁boca
▁ول
łą
▁хийж
ຮູ້
▁partes
ड़ी
▁brat
▁Nina
▁straight
ΑΡ
▁олиш
raha
▁pomaga
huma
▁viime
သို့
ास
▁dí
طار
▁Fen
llum
erunt
▁ապա
▁egne
邀
shirt
ický
▁користи
čiau
▁adresu
▁hittar
éé
▁شاید
υγ
▁хүний
▁trú
原来
ensis
▁palabras
▁λίγο
لس
aaa
▁الرئيس
ችል
▁lhe
vd
▁cest
▁kepala
▁контроль
▁২০১৯
▁trái
▁middel
盗
▁اعظم
ắn
▁ኣብዚ
rọ
ПК
▁EV
▁nutzen
▁CF
▁orgán
▁prezzo
▁ני
sjonen
▁CAAC
)(
ಗು
还要
ELL
▁begge
本网
▁ሆኖ
▁hynny
цін
▁이해
▁Rest
▁wang
▁전문
kn
dorf
inci
▁پژوهش
▁Nigeria
▁ngoại
▁شورای
דים
画面
sman
▁Алматы
funa
▁ኣምላኽ
క్స్
▁uchun
fak
▁termina
▁ዓመታት
▁बढी
每次
కో
▁Tony
▁гал
白色
▁combina
▁EA
지고
誕
หนังสือ
▁деле
▁кажа
▁ngwenyi
UC
▁pita
ണി
▁فشار
வன்
ਪੀ
ieron
多个
▁رس
▁okay
データ
▁Hak
roni
YD
▁1914
▁دفع
▁ponto
žan
▁Emma
μον
▁sounds
高的
▁budou
距
ஜி
schap
شو
▁Cas
▁Iar
ということ
▁roka
ହା
жиг
贷款
▁λοιπόν
▁qanun
▁sposob
▁mh
வது
▁medlem
▁माहिती
改造
▁jar
▁termo
選手
加大
▁يح
▁Saa
üz
▁bella
шим
▁berke
▁mandi
▁Artist
▁kori
▁davon
▁ସି
▁kurd
ajām
נס
ለም
▁anggota
烦
曜
▁۱۳۹
▁chip
banga
▁κρατ
▁Esto
▁gé
▁Bosni
件事
▁hoofd
▁hvorfor
halten
▁daß
▁ភ្នំពេញ
ยอด
▁Từ
▁عشق
سب
▁koulu
▁Hàn
▁Jä
会有
बे
eed
▁context
▁ኣለ
niti
▁khỏi
dą
▁medium
ապես
▁realize
ЕВ
▁resources
▁blå
ræn
▁vendar
ool
ąc
ấu
▁سود
ମାନ
▁역사
eyn
tna
▁mahal
:4
iei
mọ
ردو
kwi
▁Konu
▁entrevista
وح
อบ
лади
▁අනුව
▁حس
▁senti
とき
▁ਹੋਏ
▁ຕໍ່
ੁੱ
▁Ils
ATU
dava
▁собі
▁Suomessa
▁đoạn
tys
▁обязательно
▁HAR
▁lauk
▁Bahasa
▁รุ่น
:9
▁месте
ខ
▁mënyrë
▁መንግስቲ
ЕД
▁button
tolo
扩
▁ಹೊ
▁female
▁хотел
▁innlegg
plica
▁उसे
ога
ዳር
డానికి
▁افزود
▁шанс
▁Avrupa
▁sukker
só
mız
▁Janeiro
買取
มีความ
▁trobar
▁Farm
דת
▁vakar
▁creo
landi
▁pêş
ტე
və
▁कल
คอ
GU
▁李
▁õigus
▁speel
▁2009,
▁خلق
▁lower
ussa
ieri
▁សុ
éré
翼
enu
ōō
ନୀ
▁మధ్య
หย
aris
តា
▁말했다
aggi
▁ډ
▁שלה
십
▁diritti
ಷ್ಟು
▁disponibles
AVA
볼
loko
tín
此外
▁fonction
まず
▁qay
บรร
▁ÛÛ
▁poh
▁లా
biti
▁finnes
▁1963
▁закона
多的
भि
▁iku
▁हमारे
▁gioco
راء
▁infantil
ద్ర
▁مجھے
шан
עם
rā
ាំង
▁മെ
เรียก
▁자신의
ضر
出会い
ᑎᑦ
▁FR
▁hurt
▁szervezet
лез
EUR
מר
kuha
▁ști
▁Мне
▁Franco
公众
▁generale
▁Sila
▁traje
鳥
包装
▁diabetes
▁गीत
▁enjoyed
▁でも
▁rhan
▁edil
קר
ała
بحث
▁usuarios
歷
▁constant
▁igaz
▁throughout
▁вул
ìî
的位置
الي
ျမ
▁Scho
▁Фа
/2010
ဖြ
▁statt
▁guard
tui
▁관계
niem
ově
▁первый
▁সাথে
▁Cy
マー
▁vývoj
▁انہیں
▁pretože
pọ
▁7)
ටත්
rilor
sbe
рка
ျခင္း
▁dekh
▁گرم
зан
▁Parte
▁మంది
ພັນ
▁hinter
▁ਬਣ
ĩkĩ
▁zajedno
▁Тому
母親
▁сети
họ
▁redan
ээд
▁ful
▁nata
▁thuê
▁Money
▁دادن
เข้าไป
อากาศ
▁गांधी
叔
▁ändå
▁Сол
▁bolig
Sam
endra
▁ήδη
firma
enga
cje
▁ure
ην
▁guerre
▁redigera
راج
rain
áló
▁маз
dila
जे
招生
▁امن
▁Spiele
▁conce
しております
▁säga
indən
▁stjórn
▁təhsil
ión
gung
▁creative
mura
..!!
▁notes
埋
▁ମି
地位
▁තවත්
▁nền
kost
▁ignor
▁excited
রণ
▁Gegen
تنا
ấp
▁самом
บี
goed
más
육
▁bam
▁maana
▁आवश्यक
봉
ਜੇ
▁heim
▁قل
QA
▁آقای
▁बाल
нын
σχ
▁waxaana
-35
よね
▁kuo
▁ume
عود
▁Evropi
博士
▁תו
llë
스토
ære
▁Bene
FK
κι
▁дахь
ruar
▁summa
トル
▁기본
▁proizvoda
▁וש
หรือไม่
ወት
▁Hoàng
▁града
▁الخاصة
รัฐ
ないと
▁тол
കള
ड़ा
няя
engo
▁وضعیت
性感
▁بې
▁Ihrer
▁Wahl
atin
ାସ
▁לקבל
▁naan
▁سزا
▁kohë
いている
▁أبي
ເຂດ
▁เ
▁қал
ším
▁Tribunal
ପୁର
塊
蘇
ికి
АТА
uş
geri
များကို
▁included
▁lệ
是个
imen
оч
▁nâng
▁Waziri
ggy
▁ਗੁਰ
▁manière
np
ради
ыў
fika
▁хората
▁nyi
stas
bhu
▁تێ
▁हु
adii
שים
▁Tartu
▁contenido
▁fredag
畢
困难
zona
有点
▁yako
மே
▁nüüd
EI
ություններ
▁filmi
▁tästä
▁جھ
▁Ị
▁pud
klik
ალური
mü
▁Maison
GL
▁Delta
▁Ũ
▁websites
▁бра
▁неу
▁Editor
▁techniques
利率
``
ጌ
ÎÂ
رع
▁oikea
▁zonke
ိပ်
ìí
ჰ
umbu
▁serait
后来
′′
▁besonders
▁እንጂ
▁σχετικά
▁бонус
▁Нај
▁13-
▁автобус
արար
SY
ewe
esen
▁kiu
enna
突出
LQ
▁hög
ுடன்
arsi
书记
▁Rady
▁gikk
Don
▁ธ
wedd
ੜੇ
會員
打开
іцца
▁زه
▁Tea
▁enää
▁заради
rý
øg
▁dấu
▁СА
ಿತ
▁Rem
▁ode
▁trailer
現場
▁जिस
▁ਜਿਸ
МІ
▁дев
▁ёки
自信
▁teaching
كن
▁प्रो
▁खु
▁хэрэгтэй
αφ
▁يه
ẹn
▁दिल
▁kolla
Ռ
▁وإ
▁реклам
ാവ
USD
jeve
▁femei
▁((
▁рук
ارة
▁పో
▁lug
▁kaniya
▁ርእ
েল
ОМ
女儿
▁입력
▁الدولة
▁ðå
▁plano
도로
lka
▁gjerne
▁konu
ZU
▁Badan
▁mukana
통신
▁Să
▁rie
▁значи
▁Ҳ
▁Nature
▁minor
тинг
ול
篮
ይት
ᔪᑦ
tuse
▁ഏറ്റവും
តិ
▁quelque
▁अमेरिका
▁처리
▁дараа
▁mogao
мур
▁خاصة
אני
▁passo
ซู
хай
នោះ
▁защит
сал
▁بسیاری
▁ow
문화
হে
▁poput
▁받아
ukat
于是
ણા
祥
▁своим
▁활용
ovú
▁любов
▁bizi
▁Gara
地球
▁самым
что
▁sma
▁ندی
▁كبير
▁coach
▁rub
िर
▁Hope
相对
みんな
▁jornada
▁sjá
zzo
まる
ovania
▁èç
కుండా
▁MW
▁mű
‭
▁República
▁உங்கள்
АП
▁statut
防止
ɗɗ
▁Jal
인지
▁cont
▁трав
▁accord
▁lev
▁રહી
▁Hilfe
▁həmin
▁dome
گیر
▁თე
▁وهذا
▁Cô
ýý
ГИ
▁مق
▁هەیە
黑色
▁ทั้ง
壞
▁sake
▁vald
路上
ernes
▁LIVE
▁אצל
Live
▁పెట్ట
▁এটা
▁nedir
ტო
▁Zna
▁budú
▁你
▁GP
itur
ស្រ
设施
▁سیم
▁filmu
язку
▁قه
▁lyst
MV
的情
eš
rbi
েট
▁тў
腦
赴
▁haga
ngen
ホテル
▁unrhyw
▁διάρκεια
▁Prozent
▁produs
連絡
llis
pani
IU
▁Carol
▁tą
ขาว
▁сказать
▁ula
▁ᐃᓕᓐᓂᐊ
▁shugaban
gruppen
قي
▁торгов
キー
品質
РО
▁โ
▁malee
▁كي
▁essay
▁ኣሎ
▁siguiente
▁عزیز
▁ngam
▁magam
▁ಕಾಂಗ್ರೆಸ್
ɑ
orient
จะได้
ΙΑΣ
wand
BM
▁жилийн
ています
kɔ
made
▁გამ
kih
Cu
▁Legal
▁кад
yini
▁laeng
▁ат
........
ပေ
▁عندما
なんか
iter
mong
くなる
▁մտ
חוץ
טל
▁Stone
▁باغ
측
dav
▁aplik
▁кас
▁afge
chte
▁mici
黒
ຄໍາ
▁mambo
ᖢ
▁έγινε
▁Jobs
▁Gua
▁generic
▁пл
▁ube
▁ਫ਼
▁ёс
▁رفع
▁setting
▁alder
▁پھ
▁డి
ān
fast
լի
▁qof
lde
▁школе
▁czasie
▁извор
මක්
▁pom
▁Таким
▁Pus
▁хоча
YU
ന്ന്
විය
讨论
販
āti
▁Све
▁πληροφορίες
▁nëse
▁روابط
Ŵ
▁اروپا
ιμ
▁Кроме
作出
▁forces
▁ಕಾರಣ
ierten
یج
æð
▁فرهنگی
ಎ
ᖏᓐᓂᒃ
களின்
ệt
▁doba
▁Prem
▁dagar
ił
▁ਸਨ
▁FIFA
▁נפ
ショ
▁Lí
▁pregunta
LING
▁आए
▁jedne
회의
ობ
▁olacak
ΛΑ
année
▁බවට
▁هنر
▁dades
▁उसके
▁pelbagai
▁keenya
▁kitchen
▁moder
▁človek
访问
ፓ
кара
ắm
▁Hag
צר
▁testi
让你
▁Fran
▁חברת
▁왜
rla
dada
▁малко
bey
▁사람들
▁Spar
▁sicurezza
좌
脱毛
▁laika
▁ёстой
▁चाल
▁Buenos
ady
股票
시설
हरुको
▁salari
▁Gir
หาย
▁барлық
▁boven
▁λα
▁хабар
▁Dana
▁libros
▁mica
▁aɖe
ข้าว
▁IX
▁ولم
▁સિ
ọrọ
▁eme
▁Premi
shire
▁любим
кал
▁واضح
▁እነ
ಯೂ
rako
ภัย
▁అవ
▁Antoni
▁motiva
沢
炮
テレビ
經驗
▁qualsiasi
waan
▁stanje
▁vitin
▁1962
store
6]
ovaná
AY
▁Stro
限定
▁benefit
iyey
cialis
▁fydd
суд
▁ör
▁Коли
▁suara
▁проста
西安
▁heures
IRI
▁2005.
▁آس
र्थ
sett
办公室
▁सामाजिक
大小
▁feu
▁చేసి
▁(2015)
▁pä
▁Ста
cinta
jila
▁최대
éra
▁الأم
FD
แดง
▁aplikasi
▁seri
▁значение
▁danda
▁Access
▁chạy
▁eba
ניות
▁cheese
識
▁Prin
כך
▁coa
рик
▁eneste
rito
跃
픽
เย็ด
▁attend
▁pengalaman
▁ost
▁Bà
▁одну
▁invita
iṃ
第五
▁Luci
ỉ
ėjimo
▁rota
নী
▁গো
▁떠
אה
fru
ош
350
tex
itus
▁novos
▁bya
▁መንገድ
▁ഇനി
▁atat
▁kent
まり
▁מז
랜
▁lòt
悔
腾
縮
สังคม
▁bazi
▁είπε
ļi
▁СССР
感謝
▁مشاهده
sken
▁sécurité
▁İslam
▁teema
ሎች
▁шир
▁mentioned
▁праці
ász
naw
▁rambut
가는
委員
ISO
tón
ڼ
▁Geschichte
▁číslo
یدا
搭配
▁क्रिकेट
▁famiglia
▁6:
itve
▁зохион
▁kufanya
မြို့
Ag
ince
شم
▁gat
▁театр
公園
▁posla
▁слово
ọc
શા
▁বলেন
▁built
ԵՐ
▁Hola
▁қажет
▁Cash
▁Roy
▁इन्
品质
▁
▁catre
▁공개
▁consiste
▁problème
лек
▁ezer
▁ана
▁بلند
▁কৰক
▁ποτέ
ಿದ್ದು
▁bổ
▁temperature
òó
▁settimana
▁VO
▁사이
lula
▁dohod
▁uporabo
▁artıq
熟女
OX
▁Бул
なぁ
งค์
eche
לב
jate
▁৭
tla
▁izmantot
fwa
md
odo
owanych
دانی
▁št
ωμα
▁vises
gbọ
դի
альный
міт
਼
▁ช
っていた
▁parent
valu
▁činnosti
▁Awards
▁Beitrag
▁contrat
▁paš
▁матеріалів
▁chắc
▁مركز
▁تین
▁نحو
▁yena
malı
▁opening
ಕು
ለች
ገኙ
▁फोन
▁ਕੁ
▁چنین
▁tvar
▁ezzel
▁senere
rige
▁bone
▁врати
빈
core
▁lässt
masing
▁impression
▁එක්ක
тиш
▁onge
▁ТА
▁үе
▁គឺ
▁درج
▁kaup
▁harmoni
▁hogyan
away
▁manam
住房
▁Ord
▁දෙයක්
十五
▁vergi
▁qabu
ligi
öm
▁cuanto
▁Nice
бата
▁страни
▁děti
球队
interno
уса
▁usein
▁ብሓ
avanje
ація
▁ervaring
▁kete
▁ngon
▁म्हणजे
كة
raš
▁정보를
▁müəyyən
ุ่ม
ТУ
▁ทํา
▁банка
▁Brexit
ευση
▁Cost
▁носи
▁৯
▁мені
funda
▁대학
▁गरेर
ብራ
▁înainte
财政
▁хүмүүс
▁cải
▁студент
▁מל
▁mach
୍ମ
▁poolt
▁nghiên
▁आर
ವಾರ
▁බොහෝ
▁ನಾನು
▁စာ
endő
▁interne
▁ɣef
▁होगी
▁Instituto
уючи
▁Στ
▁venir
▁realidad
▁пита
▁తా
▁odnosi
rice
▁millioner
点击
都要
▁рек
fræði
▁yabo
▁لأ
▁أر
өл
▁meisten
CIA
辆
مع
ඨ
▁davvero
delen
קי
▁Hierdie
▁Vale
ᑏᑦ
▁karto
変更
▁kube
ຮຽນ
ใช่
овані
ሩት
haya
▁könyv
▁обычно
▁තිබේ
سین
▁ruta
▁slav
จริงๆ
▁국민
▁venda
۰۰
▁čita
riti
渠道
歴
▁hardcore
胖
▁соответствии
▁ਕੋਈ
▁IZ
▁lata
Jehova
vii
kab
見た
▁cộng
▁УИХ
yas
ान
規定
จะเป็น
▁шиг
▁మరో
▁februari
▁tzv
לך
▁Báo
▁emas
▁były
▁Bran
▁mə
▁それ
▁еңбек
▁tudom
ube
▁(16)
ÉS
neho
stelle
PRO
▁политика
▁Бал
▁ajudar
▁پاکستانی
jim
际
重视
7]
▁ලංකාවේ
▁endring
▁zama
▁Rusia
▁Nota
▁ала
▁Александр
▁ኣብቲ
▁בח
▁Fitness
あった
▁dahulu
▁nesi
ЭЭ
▁122
Ŵũ
▁Theme
मत
אן
ાઓ
ించే
ずに
λή
▁Netflix
▁warto
컬
裙
lɩ
▁Oromiyaa
▁berjalan
▁rozhod
▁hé
ач
▁pratique
ట్ట
▁121
алы
▁Datuk
liza
▁Kft
junk
ėja
VER
این
▁pane
wis
shqa
ແຕ່
/16
кра
istan
▁بج
ätt
▁gek
tva
▁Corte
▁lyd
▁Januari
ඥ
▁কিন্তু
īn
▁մենք
▁پارٹی
▁Ela
▁HER
▁ayah
▁Inte
▁мл
しよう
TAN
▁Francis
ดวง
▁marrë
jaga
针
View
ərə
ڵی
▁férfi
န့်
tavad
▁pengar
▁Talk
▁العربي
သည္။
▁อิ
ီး
ፈር
▁նախ
mān
beh
Der
▁olema
▁ජය
▁ఒక్క
ива
▁Sv
ዮም
▁decat
&#23
rib
▁ರಾಜ್ಯ
wagen
િયા
▁ništa
▁Dragon
uję
直到
▁یی
▁opere
▁altra
аты
▁ترک
▁tək
lege
糕
ички
▁موو
▁اہم
▁Essa
就會
jela
▁مز
stur
▁Αγ
▁127
буд
▁aren
chos
▁dés
बि
▁غرب
▁Vul
▁vrea
甚
贷
▁Palm
▁vidare
▁olid
cah
ᙱ
▁Jaya
▁Nagar
▁түс
тардың
▁Tran
▁Kraj
▁alisema
ตั้งแต่
にて
▁Xiaomi
▁पोस्ट
▁semasa
▁Spin
▁ngủ
ុះ
▁бет
▁dní
,5%
nų
▁Над
▁
εύει
▁Silva
▁sain
ëå
▁голов
▁Arsenal
־
▁Србији
▁maintenant
랜드
▁adı
ΠΑ
▁Baca
装修
▁serviços
ONI
▁समिति
▁ਏ
▁نج
▁רבים
▁exp
▁inni
siu
யம்
▁nisam
▁iespējams
▁viņu
▁sizin
▁tac
▁Vat
cast
ᓪᓚ
▁permalink
▁दुनिया
▁vize
▁hã
पाल
▁lõ
▁prvom
ᔭᐅ
▁Cari
сті
のご
漫畫
▁Сен
åí
jati
صدق
▁gid
▁տարի
▁پذیر
▁admit
▁тук
▁Hitler
▁edes
▁супер
▁gall
▁iban
▁olet
▁Hang
萌
芝
ekî
▁ട്ര
▁मेरे
▁vonatkozó
ฝ่าย
▁производство
▁نص
▁exercise
さま
тым
ראה
ደው
▁Roll
пон
▁გაუ
▁রে
moc
▁ordine
▁Bydd
▁mówi
▁traditional
▁অনেক
▁viņš
ents
▁combat
9]
cida
YK
имиз
ាល់
vart
gaa
▁sitter
Թ
▁pina
▁محصولات
授权
▁District
ΤΑ
▁pago
▁played
▁территории
ювати
แม
ματα
▁করার
маган
ครบ
ነቱ
▁Haut
▁پاش
ファン
都能
▁prov
ಿಕೆ
ุ่น
▁Pack
▁Seg
SEL
ုိ႔
yoka
▁ዘለ
cznych
趋势
୍ୟା
᙮
▁Հայ
итися
起了
kunde
IJA
หนัง
▁especialmente
ပို
▁catch
ᐊᐧ
▁ادا
əyə
▁Wang
...!
▁Ketika
▁komfort
cial
ត្រូវ
▁vieta
коў
kten
note
▁bela
Click
▁Paz
▁ưu
ځ
稅
てる
麽
原则
▁opet
ука
▁различных
▁Rahman
担当
▁található
олог
▁ур
▁Ел
▁tall
▁운
▁বু
▁apare
▁igre
▁Ihrem
mino
▁hôm
▁pełn
▁preciso
及其
▁Universitat
▁роки
▁kvinne
นะคะ
▁هێز
▁Nahi
বী
▁Produkte
美丽
нде
科研
▁Anders
ites
olta
तन
▁gau
▁यदि
休息
▁ہوگا
sdóttir
感谢
▁Paar
▁몸
▁мяне
▁tướng
▁측
▁Government
▁persoon
▁Professional
ٹا
ေဆာင္
坐在
▁تصاویر
allah
AGE
▁analysis
▁Bakıda
에서도
▁imp
heten
heti
▁عوامل
òà
▁врач
▁Olu
нски
▁propio
ስና
volle
▁Vu
ωση
贫
▁java
▁뿐
弗
殿
▁výrob
▁월
딩
όν
ද්ද
在此
をして
penda
SER
▁nhớ
▁злочин
RAN
كت
▁heraus
▁MAG
▁골
▁Upp
สู่
▁МА
tayo
Ed
▁suda
하시
lud
▁Regel
AMA
▁Emp
▁භ
ፈት
▁बर
▁желез
خوان
▁למה
חה
▁чалавек
лъ
valla
▁asian
doro
ОШ
▁ABS
ật
▁світ
▁figur
ībā
▁welke
▁прием
▁lihat
▁1961
らか
▁tape
rico
ائية
URU
نون
▁पड
▁hod
▁1947
▁ಮನ
ੱਟ
▁ጭ
続け
▁качество
▁сон
tete
▁benim
द्
▁הכ
▁шарт
▁देखि
并没有
อื่นๆ
▁pagamento
▁primit
ตลอด
▁KWA
తీ
▁temperatur
▁времена
▁bumi
▁тај
лина
HC
риф
باب
▁ಸ್ವ
▁vastaan
握
▁Видео
ร้อน
sının
תן
ړي
▁valores
▁demikian
▁notamment
▁수정하기
Porn
▁Đồng
▁whose
▁Noor
ház
▁segir
யே
▁principalmente
พ่อ
ORE
▁Пар
▁бўлди
มีการ
די
▁آلمان
▁ihnen
▁куни
▁چک
بات
聊天
▁ഇത്
ekben
本文
oꞌ
િટ
▁limite
ტ
cola
▁bör
▁UNI
腾讯
ataa
▁совсем
▁ház
▁pitanju
रु
▁företag
วันที่
ñó
ុយ
aidh
▁Rud
▁insurance
رض
▁ضروری
▁Gri
uge
보험
Mon
بەر
强化
▁helyi
▁datingside
▁gəl
▁دکتر
ıyla
zọ
吊
▁società
▁اپنا
▁krye
▁îşi
สําคัญ
lė
HET
▁iska
▁lớp
▁pagpa
▁tama
gruppe
▁prom
▁gegevens
ќа
▁আগে
▁зас
yki
▁veći
▁growing
▁betale
▁держав
▁추천
ژن
儀
▁patron
倾
▁oito
▁تازه
▁Địa
▁viva
▁denuncia
▁INTER
▁стен
▁αποτέλεσμα
でお
▁offentlig
▁imagen
▁babu
▁ផ្
宝宝
▁Kino
▁společnosti
▁culpa
▁šī
▁तयार
▁ij
▁eğitim
在这里
▁màn
▁웹사이트
ює
▁abre
▁surat
▁Quan
ўр
▁Challenge
tiden
כות
▁conjunto
▁گھ
▁tải
èÿ
▁kursus
译
▁صدا
▁funny
▁1.1
مس
▁күні
vum
▁patient
র্
▁jopa
ัส
▁donner
▁моя
▁kanila
gehen
mistä
▁잠
▁SY
శ్
▁Mittel
▁informací
ûr
eef
▁kõ
▁dues
.10.
īs
▁minyak
নার
iyaa
කම්
▁Путин
▁κάνουν
▁مسجد
▁Šo
▁تج
修改
▁شام
úc
▁Zimmer
▁песни
不可能
▁nikdy
▁փորձ
▁kül
dato
າກ
▁Profil
它们
stellung
▁insanlar
游客
енні
üd
▁Apo
▁தி
▁edasi
сны
▁metros
ağı
्नु
队伍
▁Гр
焼
▁qualsevol
jän
▁official
▁epä
▁kuta
▁أمام
▁piti
▁année
▁শুরু
라인
zom
μό
▁१२
maha
正确
رش
▁умовах
hta
合い
ケット
▁olacaq
وست
גז
리스
final
▁Know
unci
▁нима
▁वाढ
akka
▁njegova
Ծ
▁مك
tës
▁pobl
ồng
▁jardin
kšt
ítő
▁яке
ŮŹ
šla
▁अधिकार
▁Agus
▁물론
▁offerte
▁ध्यान
▁громадян
▁kellett
▁Республикасы
▁fully
simo
नगर
▁၂၀၁
▁Буд
▁односно
ራል
▁শেষ
▁Τρ
ीकरण
▁thread
让我
▁>>>
jene
▁feit
▁Ida
פו
▁ping
KR
ól
lės
▁starp
نەوە
良好的
▁huvi
▁حين
ເງິນ
ланд
تصل
▁Quận
芳
▁تف
ոց
▁nepre
▁spis
▁sortir
▁darbu
▁пасля
▁sue
əş
▁ᑎ
▁kəs
สมัย
▁круг
▁ಹೊರ
abad
▁رهبر
▁qualidade
▁TIL
▁वर
AMI
▁suspend
▁தோ
▁investiga
:8
▁Rö
▁deine
湾
รุ
åíèå
geld
▁ዝበ
伙伴
▁blogu
▁Thursday
泳
▁የእ
Part
чных
▁Ένα
੍
საც
šić
▁అంత
▁koriste
हे
▁Ronaldo
▁створення
ذهب
▁Vida
▁meme
▁patent
リング
This
сак
RAM
▁سین
▁smrti
▁piir
∑§
▁وزن
体现
▁качества
▁enne
髪
掲載
▁Ori
kannya
▁Санкт
▁зэрэг
▁İran
衡
▁eher
▁зробити
эг
▁یەک
▁فتح
▁conserva
▁रंग
▁אתר
▁мај
▁huy
▁fortsatt
ᖕᓂ
▁טו
▁okoli
变得
▁tp
epe
▁köp
▁Satana
えない
▁протест
тър
채
ξι
動物
▁كن
▁zaštite
dakı
▁Pana
▁disebut
广泛
бур
UMA
剤
▁१५
บุคคล
atta
▁velika
▁ਜਾਂ
▁pă
▁എസ്
▁Qi
▁schi
▁хэрэг
▁anyway
▁кр
▁କଲେ
ιστεί
▁ዝም
нення
▁жоғары
ular
▁livs
▁ඔයා
▁vrai
▁komand
▁ፀ
▁infrastruktur
▁kích
IQ
шко
▁Fara
▁విజయ
▁بوون
ทุกคน
만원
erà
小孩
什
労
▁שימוש
慈
▁teljesen
Ế
මය
Ма
▁انصاف
▁Liste
▁้
▁العراق
овым
▁slots
月份
ತನ
▁ہوتی
hús
成熟
▁presa
適合
▁jakie
AIN
cale
▁lze
▁طا
▁فارسی
▁า
▁bate
▁повтор
▁храм
▁dòng
▁삶
▁lines
喷
▁ملاقات
▁తర్వాత
しても
ימות
▁grafik
నూ
ນະ
各类
▁disciplina
▁Tuesday
▁például
一边
▁ölkə
▁xét
▁vatu
▁fish
▁650
่น
▁conversation
TÄ
▁ხარ
பு
▁dys
▁ඇය
Allah
▁انسانی
cili
▁βάση
▁vendita
▁спец
ína
▁Siri
▁natuurlijk
gile
▁session
▁roh
▁تعليق
DZ
ြဲ
▁magas
ରୀ
▁dienas
9)
轨
ָה
▁खर्च
▁endre
▁predsednik
pili
▁اصلاح
idea
ಬಹುದು
QUI
ーン
▁noor
hane
lies
▁demi
▁ተፈ
▁Kuna
▁напад
▁Taman
WS
析
▁elektron
нете
वत
▁Seu
▁Deg
▁फोटो
NER
ovaných
圓
抬
▁ιστορία
촉
GK
▁قی
▁potrzeb
▁पूरा
だけど
▁kasnije
زال
▁kuenda
▁hoop
▁суду
▁난
▁Stock
образ
▁Ծ
予定
يمي
▁imamo
▁nonya
▁leicht
▁Kids
▁fille
MY
▁ifade
▁ചു
▁ਰਿਹਾ
eeritud
жил
▁Пет
▁baš
▁Ци
咱
೨
ЭЛ
ที่เป็น
த்தி
▁ਅੱਜ
▁ასე
▁পি
▁nuove
名前
▁spi
ણે
ေခ
融资
ŷŭ
▁Mbo
gati
是不
nění
ግብ
▁самого
▁برد
▁Stat
lose
▁מקום
▁ڕە
টু
▁қў
វា
▁상태
组成
ປະເທດ
YM
uus
▁ಕಿ
իա
证券
となる
辰
▁طو
▁происходит
▁гарант
▁Lig
▁området
▁prilikom
▁fus
▁senso
▁podatke
▁pump
▁sağ
▁Riz
▁bole
Tİ
▁большой
▁lãnh
▁hör
бой
▁эффект
బ్బ
talet
▁earlier
▁betyder
τσι
▁Solar
boro
▁Ngi
Ang
ํา
vés
在这
бел
kuma
おすすめ
▁fəaliyyət
ፁ
▁матч
▁ଆଉ
▁플
lių
што
▁Só
▁Стар
ดร
ปรา
baga
ëm
డా
コメント
ළි
▁deci
òü
ેશન
▁ຍ
▁tenía
רוב
▁geta
▁255
jít
▁Pink
iñ
вме
▁ΜΕ
נק
เสริม
▁glavni
УП
悟
ENG
尝
▁legend
wor
▁Lund
eixen
▁cucina
ांक
▁bergen
▁সম্পাদক
خان
▁Также
▁څه
▁peti
▁جلد
▁arab
▁สามารถ
kani
homme
▁проблемы
▁plas
म्ब
▁సె
▁statement
▁음
▁Merkezi
▁principio
▁fais
▁помощи
▁kt
▁Cela
kurs
rings
ᐁ
rqan
鋼
▁ભારત
ění
ደት
สัน
▁serikali
ētu
шчы
▁relação
oke
tzea
▁davant
▁Congress
RR
ೊಂದು
▁कार
ంది
▁ಉಪ
▁ᐊᑐ
▁معنا
▁нашите
做了
▁गर्नु
▁चौ
IKE
▁کابل
▁industria
rje
▁iako
▁труда
janja
master
ünü
matic
▁광고
榮
FU
桂
▁නමුත්
▁Mia
登录
▁որպես
▁պետական
sjoner
ваў
▁ଦା
ाव
▁Оп
▁дава
▁mjesto
▁Că
▁ск
▁Zin
▁bö
▁Commission
▁personali
▁pui
ทะเล
גע
▁उन
▁Хи
ร่
▁سون
ក់
杆
ባብ
ässä
ፍት
▁उठ
OZ
ចិត្ត
▁তো
▁החברה
При
ிடம்
zama
上下
គេ
도를
อะ
aqa
ন্দ
▁cú
▁разі
▁이제
▁tienes
▁mín
นะครับ
▁formul
▁таны
▁Channel
▁хи
▁vesi
aat
▁solutions
▁ОТ
一件
IYA
jou
润
abili
贡献
▁маршрут
▁fui
▁הזכויות
▁mayo
▁თქვენი
тни
そうな
▁fisk
▁نمونه
▁όλο
▁želite
זר
▁oblast
▁fro
▁Nó
ሰማ
▁අත්
▁teacher
یلی
▁uM
▁pressure
ัย
▁bunga
▁forse
▁qə
wh
▁bons
ήσεων
歷史
▁Teen
▁سياسي
▁Logo
▁bygge
▁marad
.[
▁മോ
▁Napoli
▁РЕ
siko
燥
vány
▁информацию
დე
▁posso
▁ಕೈ
▁Philippines
▁انتشار
▁Categories
▁zid
▁stemmer
▁VM
▁אינ
glu
▁तु
▁складу
▁ټول
ṭa
ability
▁Кур
تە
▁rim
▁bras
chter
->
▁вос
ตาย
ەیە
px
将在
走了
Ľ
waa
рч
▁პირველი
▁рет
▁ಡ
었
▁uvek
töö
多次
▁centar
ലോ
άκη
tės
сний
▁دؤ
Eò
ece
▁dobi
▁sarva
یری
mei
ीको
▁commission
▁Lokal
▁rece
▁task
▁voltak
កម្ពុជា
崎
▁Καλ
種類
▁घोषणा
▁خش
▁پارتی
ைப்
стве
רון
▁tällä
▁ব্যবহার
▁memba
▁unserem
▁celé
▁stroj
▁YE
Ζ
▁בג
хад
▁kiss
があり
▁október
liko
quote
▁elektronik
พัก
UY
õl
▁fru
шил
▁joita
മോ
НУ
цов
堡
nari
▁بری
Շ
▁చి
▁влада
▁Taylor
uddin
වලට
▁સર
▁транс
▁هڪ
sf
ési
▁שלהם
▁Ró
කම
▁metri
txt
▁období
wé
▁subscribe
람
战斗
▁varias
▁сэтгэл
▁henkilö
▁כולל
▁Така
män
▁njalo
▁hvað
▁ਸੋ
Éå
▁ovim
odu
▁antaa
іла
▁deras
กําหนด
gd
jf
ທະ
契約
寧
▁ಸುದ್ದಿ
맥
ωθεί
▁تجارت
▁Stories
row
▁lina
▁tipi
▁מידע
番号
kore
▁karna
▁kredi
οποι
åãî
▁ואת
▁prek
stol
▁Aquesta
▁העיר
▁භා
▁کرے
▁Desa
▁Kuva
▁registro
ლ
▁tě
▁leider
goro
▁sarta
▁ಕೆಲಸ
ņem
دہ
슨
▁Entwicklung
▁सकती
▁그래서
▁Poly
▁IQ
▁ისე
▁ਦਿਨ
▁steder
▁Crne
เย็น
▁gosto
▁plata
▁puţin
▁ਦੁ
алар
▁пыта
▁tol
Ali
▁lift
▁ڕۆژ
相比
▁Div
▁אלי
rry
Ci
▁Canon
▁yleis
▁Mada
▁लाइ
▁fizik
旅遊
▁suure
▁Главная
icos
▁계획
▁शर्मा
պես
▁Според
▁нават
ರೂ
ଳି
特别是
ajte
▁модель
ੀਰ
laha
我在
дері
一種
▁aktiviteter
▁feito
ຮັບ
უს
▁linn
能量
▁BL
ぁ
▁expected
▁lép
ழு
▁uporablja
▁активно
àng
▁تھے۔
▁præ
▁owa
ናዊ
▁Sloveniji
▁merah
▁Fred
필
;;
àò
▁спів
青春
▁கொ
arne
▁nəfər
तात
minister
▁plac
▁voy
סת
gne
▁Medien
▁ሳይ
▁Mila
▁dang
efa
▁स्ट
▁chambre
▁näin
eten
ache
kê
▁اعتبار
▁walang
ጥን
精彩
▁응
▁Hou
ҕ
▁ağır
dies
▁byly
വരെ
▁تعلیم
▁priekš
▁పని
bine
▁Nú
忧
▁건강
帅
勞
体験
▁giống
▁slo
▁íü
▁troppo
▁,‬
▁arah
새
τερ
google
àæ
▁nech
obh
▁котором
▁ә
▁bekommen
▁krijgt
▁Oil
▁tuoi
▁fred
AIS
يري
▁աղ
စီး
េង
▁اخ
▁çalış
▁Tah
দি
nze
▁Več
øå
짜
▁гре
▁Nis
▁Köz
▁फा
saf
▁Tə
▁خر
▁berjaya
▁vilja
альная
动作
▁dak
IMO
▁жир
▁mutat
▁آثار
stående
▁conflict
▁handler
կի
▁программ
▁લાગ
▁körül
に関する
▁hl
بيع
▁сая
▁Boo
ею
▁gruppo
▁রো
畅
▁mesure
masa
▁çık
▁login
▁держави
ໃຊ້
▁nő
uld
▁qan
▁ling
▁giản
TW
▁เรื่อง
▁Garten
▁Нови
▁месца
▁financ
まとめ
▁streaming
uš
▁চি
▁Plant
▁Jau
त्व
▁Osa
学会
革命
lasi
թի
▁силу
▁findet
▁metoda
▁jí
RSS
▁birthday
▁тыс
▁veg
一体
たち
▁පුළුවන්
▁selain
িয়া
▁crema
▁FL
▁läsa
▁자리
ୀଙ୍କ
▁změn
▁умови
▁smag
based
▁patru
▁prenos
loga
▁puo
▁blandt
▁Slots
▁4.0
雑
燕
勿
劉
▁наиболее
▁უკვე
ิล
▁informácie
▁Nasional
▁guvern
▁2004.
▁tö
▁sorg
dja
▁वाट
pila
tuma
الله
▁مف
Jan
УБ
▁СЕ
יפה
演出
▁nhé
іння
あの
تین
FP
▁Sigur
ington
▁Kristus
sert
999
મત
▁Rein
▁bunun
▁fato
▁আগ
ദാ
ेन्द्र
ÈÎ
▁sayı
▁bueno
▁ଅନୁ
लर
▁houden
と思って
▁가능
▁vody
▁varme
▁Buna
▁LOS
ایت
▁PEN
▁systému
▁ibn
ВИДЕО
▁११
ciju
▁៤
ိုင်
▁حب
▁1943
ेड
▁Ген
▁panna
▁Maya
▁엄
였
▁måneder
eris
्रो
工艺
▁북한
▁Tây
▁Гол
dyn
▁قار
ično
▁izango
ទៀត
▁maž
▁aplica
▁بینی
來的
-50
yć
شار
习惯
▁кількість
認識
%,
ify
ᖅᑕᐅ
ασ
▁pros
teurs
▁Jual
▁dags
amma
っち
▁воде
zol
▁కే
▁будуть
nima
ikki
▁pista
▁Λα
▁περισσότερο
べき
▁čeka
ыт
daya
▁fee
δο
▁zemlji
▁mwana
tuan
▁bó
ijoje
trā
нымі
tuna
ଵ
теля
▁Kou
▁今年
▁totiž
▁đọc
チェック
forma
▁BN
لای
▁деган
▁trener
▁бан
▁підприємства
▁hoor
▁tecnología
ຂຶ້ນ
▁protect
▁kava
검
▁diseño
▁òî
มากขึ้น
▁Lars
▁Bern
▁Idag
ಂಟ
Watch
gale
▁Arena
▁126
▁Mand
rima
리아
▁conto
аль
▁compara
纠
លេខ
▁tl
nieku
▁హా
檔
▁हूँ
▁wĩ
▁کش
▁아니오
الی
үй
▁sähkö
uyu
▁икки
ضح
:7
vī
ටු
-01
▁etti
휴
없이
▁systems
mɛ
▁gilt
što
yh
▁madhe
gård
เช่น
▁ayrı
▁Fru
▁පරි
▁საქართველოში
▁ქალ
cula
loma
žno
▁Size
▁यस्तो
▁tradu
▁можливість
ቀት
สว
ワイ
ዎቹ
▁pogled
▁iştirak
ÓÔ
▁форми
▁Fro
▁وە
▁filma
קול
bisa
▁задач
▁klasse
уют
usti
▁Selbst
▁בנ
ყოფ
▁prva
ไฟฟ้า
▁mieste
न्ड
іі
▁Browser
حسن
iii
vt
βολ
лап
▁transporte
ਮਾਂ
箭
ално
▁doda
建築
涂
▁مکمل
φορ
ങ്ങളെ
lərində
ទឹក
▁circuit
▁rules
θεση
vič
▁وح
▁Training
ອອກ
▁Hav
▁SEM
MER
▁dic
ήλ
なし
konna
▁පෙ
报名
ານ
汽
▁viv
めた
▁прос
鎮
ște
▁vọng
んだよ
▁تعالی
▁dimana
श्
tú
▁proprie
▁sugar
▁העולם
▁نێوان
mers
▁фе
дра
▁vér
▁секс
▁груд
一生
ljenje
roh
▁स्
ኃ
වූ
▁גי
ეთის
▁count
▁ног
▁diploma
▁chegar
▁skapa
▁aivan
8]
▁visitar
料金
▁pria
▁ет
▁ห้อง
▁subito
▁Foi
▁Clinton
ၾ
法国
▁ընտր
▁יצ
▁citi
λά
ŽŶ
▁ikaw
■
ಧಿ
▁ಕೂಡ
为主
▁עבודה
▁국제
▁Museo
hung
▁vær
▁einge
`)
▁تصویر
▁имат
▁राह
جز
onen
▁bobl
▁vlast
вет
▁Größe
▁Liv
嫁
▁rela
▁라
XO
vili
▁đứng
ыз
▁সেই
▁Dina
ICI
也要
▁spiller
ാൽ
▁երկու
τικά
িল
▁states
veli
也就是
ssu
▁Senior
АД
▁semaine
▁вод
▁rah
чар
kori
丰富
舊
▁dali
😍
▁ү
▁रोक
чет
▁nima
▁życie
▁commodo
▁feil
тина
▁управление
▁sentiment
▁محصول
កែ
оци
▁ehkä
▁ataupun
▁техника
tjie
▁esperienza
▁septembra
eita
ítés
▁ಸಹ
▁યુ
▁nákup
дя
▁رفتار
bai
▁Gör
ρο
izam
hf
すること
▁Iako
▁exemplu
बर
▁हामी
敦
工作人员
קות
壇
▁මේක
▁buli
ık
▁նրանց
深刻
▁Bek
▁તમારા
yaꞌ
▁ÌÂ
▁AU
▁XVIII
▁enten
会员
เท่า
▁military
一个人
느
▁copil
▁ekip
▁neben
iber
onto
中の
OI
となります
ŋa
িউ
мп
യുള്ള
▁marta
▁lungo
▁okanye
follow
▁છ
edda
ድል
新型
▁reda
िता
▁impossible
▁उन्हें
▁людзей
▁bho
▁сбор
▁Lov
▁이것은
▁oven
▁xứ
▁violence
▁Muh
▁ampak
▁šajā
▁semula
▁رکھ
▁Pasi
tük
ŷū
▁kiire
ημάτων
▁csoport
▁займа
▁университет
fica
ṣā
▁direito
ล์
haha
▁pelas
▁კ
adha
▁continu
ಕಾರ
사회
▁ស្រ
zka
▁Aqua
жин
▁ድሕሪ
まった
사가
▁unless
▁MK
扱
anyi
在線觀看
သင်
▁Girls
などを
▁kohtu
வர
niya
▁absolutely
▁kuras
؟!
ෙහි
素材
▁tịch
▁temp
▁təmin
▁кем
▁hatten
ώσεις
▁Cod
▁zim
dens
잡
▁اعت
▁Kosten
▁filtre
▁تحقيق
দী
▁DW
ƚĞ
▁phản
▁είτε
υτ
▁пазар
▁کافی
▁ክርስቲያን
usten
▁мың
နား
▁loob
▁мөн
▁pili
▁érdekében
ปกติ
▁Vam
майди
▁усе
包含
τό
会上
byt
ՈՒՄ
▁अज
▁выбар
▁propor
▁کړ
RF
▁Σας
izado
▁kple
▁sò
wick
▁osho
ĂŶ
▁бус
▁Pau
▁tota
geben
▁dů
kien
лоо
▁гэты
▁реч
▁Petr
▁sóc
toni
▁nhw
သုံး
无人
▁nuestras
毎日
කාර
▁ovi
▁جە
▁giác
▁ray
▁vyuma
▁Hej
の人
unni
▁◆
▁తప్ప
▁Ги
ต่อไป
ถ่าย
▁Labor
▁આજે
ybės
▁доби
겠다
▁Aires
şti
مە
▁страны
หนัก
▁기능
▁documents
▁ār
▁సై
▁Ost
从而
خرج
လည္း
▁длин
ᄏ
▁middag
ڈی
▁Tala
▁शरीर
sort
▁təşkil
▁القرآن
▁impos
ירת
▁គេ
ផ្
▁ابتدا
ርብ
sena
みたいな
cele
okban
▁отырып
יבה
▁valla
▁ద్వారా
əli
▁90-
▁дей
тап
▁୪
bera
有哪些
▁yakın
ÛÙ
▁téma
▁politici
▁dile
▁мат
▁merge
зар
▁રાખ
▁සා
ჟ
▁जोड
əri
扮
лим
▁yê
有多
▁narra
▁ਇੰ
立ち
ፒ
▁Sebagai
▁sohbet
ดิน
▁Gallery
▁имеют
Та
▁sosyal
▁ýòî
▁శి
▁labo
▁어려
▁მეორე
▁effekt
ДС
group
▁ahogy
▁prosent
иле
▁hole
ымі
▁ofrece
ንደ
▁мој
▁kvalit
▁lank
▁πι
小心
▁maks
ත්ත
véd
ktu
▁inf
एन
▁muerte
овано
dyr
▁લે
▁кафе
▁أهل
ימים
ţilor
ဳ
.+
してお
▁Sexy
▁nën
egu
пі
ÿí
ipu
ျပ
tics
▁Welcome
یٹ
tatud
sper
小编
కర
▁maku
▁Stephen
▁Chay
taꞌ
▁közül
тера
ခ်က္
▁trenutno
umā
▁Boa
atif
ရိ
▁nouvelles
တွေကို
全身
▁ਕਿਹਾ
▁casual
▁이메일
▁vole
ەكان
kud
▁yihiin
▁lex
▁Juda
▁Planet
大力
▁italiana
▁teknoloji
▁został
cla
▁диплом
▁erio
▁formato
தம்
ضي
合格
ੱਲ
書いて
▁नई
不斷
ყო
▁registr
▁AY
دخل
肃
enja
▁području
▁vielleicht
ორი
▁किस
▁しかし
ᒻᒪ
▁തല
راب
▁tayo
LN
▁campaign
▁Mitä
arios
يدي
iña
▁গা
▁jur
▁pray
▁אותי
▁ambao
▁propre
daw
υμ
產業
▁Award
lci
▁자신
υπ
nicu
ront
▁Bayern
▁।।
▁масс
▁ആദ്യ
πι
▁توليد
imų
нікі
▁አላ
▁Кі
▁walking
▁device
ና።
ử
ਪਰ
heng
▁pā
JK
▁Bookmark
▁უფლება
lif
▁байж
▁alcohol
▁პო
vani
ობით
▁hasi
▁টি
▁Leh
▁octubre
▁cw
ılır
▁Bü
ゼ
▁перевод
妝
▁તેના
гө
▁немає
စဉ်
ует
ايا
▁המשפט
▁lọ
▁działa
▁schwer
▁kož
▁muitos
เรีย
▁ក្រ
▁բարձր
▁смотреть
らし
ກວ່າ
▁biće
▁Před
▁Apakah
óg
▁poner
▁ля
▁président
ाएको
ニー
セット
푸
▁ਗਏ
▁소개
▁نقد
▁(30
▁crianças
▁hodnot
▁Cina
▁Üye
▁parties
бора
▁SEN
rep
▁tuần
目の
▁ዲ
čkih
ଧ
nymi
▁яку
▁มิ
▁wajib
ndir
▁सौ
APA
Kur
راف
▁cā
दान
ورد
▁Poz
mile
انەی
▁ڪي
▁electronic
▁Eks
-40
▁marché
үр
奧
▁страда
άκια
BH
пай
面临
ලු
來說
▁ଉପରେ
▁bora
▁kapab
▁늘
bẹ
▁тела
VÉ
пред
▁Pare
ᖃᑦᑕ
▁prese
رے
GV
ൊക്കെ
ìå
्यु
ELLE
▁Dh
ရပ်
▁Pap
▁Pře
issement
uve
▁ženy
-000
jung
▁ENG
▁творч
▁ज्ञान
愿意
濕
▁conteúdo
▁diciembre
▁σύστημα
▁ஆனால்
▁معروف
▁Photos
মন
ክር
ðè
дох
load
າມ
▁širok
▁معرفی
▁esp
ांचा
▁Entertainment
▁eating
▁gondol
yate
▁hui
ुवा
▁ඔවුන්
דר
aali
▁трудно
താ
▁работает
▁dama
luh
ranno
porn
tsiooni
กิ
▁ચાલ
toare
▁चर्चा
▁પી
▁hosszú
▁mjög
eł
娱乐城
▁assez
изации
▁ngươi
▁Бай
▁anne
วันนี้
იმ
▁Xo
▁valori
▁কোনো
の方が
hasa
лів
▁intens
▁Both
дыр
▁detto
áme
見て
gard
▁sn
▁گیرد
▁میزان
▁બોલ
▁වසර
▁коло
▁ilg
▁جم
▁suất
▁किंवा
武汉
քան
▁ilalim
oknak
ở
חים
▁२०७५
▁Haa
ՈՐ
mok
▁aeg
▁필요한
▁заедно
▁totul
장은
λες
tiku
НК
لون
γα
тара
іңіз
すぐ
▁fotografie
ioù
yka
▁reise
lna
▁Osman
ək
קט
▁gerek
▁kje
無い
▁Син
ۆن
photo
lke
सहित
▁Περι
kład
▁ezen
▁users
δη
▁سپ
聴
▁rigtig
▁Asn
▁Serikali
姨
▁šport
▁مدير
▁Location
▁cười
▁نرخ
▁Recht
urg
全文
جاز
▁സൂ
▁руками
▁poster
VB
يده
СЕ
▁stream
LIS
▁говорит
sá
▁العامة
▁sửa
алық
灣
▁jeune
위원회
ોમાં
áva
▁kenapa
▁বাংলা
▁lady
▁ዋና
▁Srpske
▁Нова
▁časti
▁Kore
欺
▁mümkün
ሃል
وند
▁उहाँ
▁औ
नल
ốc
ПУ
▁سکتا
▁Summer
ক্ত
▁anyi
▁trafik
▁Gott
太阳
▁nejak
▁Ст
▁17-
чилик
▁crede
বাদ
овски
▁ulko
HAT
▁brutal
quí
▁þr
也能
▁pensi
▁Lage
Tech
ידה
▁junior
▁percaya
▁الأمر
▁ਡ
čkog
▁vyp
▁סו
izing
걸
揮
ања
학교
▁όλων
各项
▁possibilità
▁activ
▁فوج
▁effective
gw
дна
ること
▁evening
חות
come
easca
لن
▁faktiskt
▁Всі
▁sister
دید
▁München
▁torn
ਅਰ
▁assume
▁sumar
▁ھە
▁رخ
▁Dies
طر
▁୫
ጁ
▁građana
兄
▁hó
▁Bert
▁khas
▁پست
▁పొ
▁Description
ดูแล
▁našem
▁звук
▁იქნება
▁Country
لب
▁põhi
гаа
جان
▁writer
▁Lands
âåð
rën
▁ᓯ
lati
人在
▁কর
يكي
▁activities
▁кат
▁καν
気に
▁ති
▁Kö
▁گا۔
▁tunne
▁ڏي
▁gui
铺
▁Tetapi
▁Slovenskej
▁utili
нин
▁እት
▁oria
ald
▁ᐃᓕ
▁kies
ίζονται
UAN
▁тұ
▁ओली
▁برق
なのか
▁المع
▁Tekst
ودی
▁Lim
пит
▁Kevin
▁ዜ
▁اپ
▁pelle
tvor
▁CT
▁ዝመ
organ
▁hadi
▁Nobel
▁मराठी
Ny
▁χωρ
mluv
▁протягом
យក
▁Bw
ቀው
లోకి
իայի
▁Ё
▁procura
▁14-
guru
▁weit
▁fjalë
▁puoi
▁kitų
▁quase
▁Ω
kene
▁Livre
▁medlemmer
▁språk
▁കി
▁gerai
▁awan
▁məlumat
▁mnoho
▁posting
KG
▁między
▁contoh
roy
▁ሲሆን
▁patri
▁coi
bouw
▁Hava
ฟ้า
▁በቀ
liye
owski
ilay
面积
ወስ
titi
▁SF
teria
▁sembla
▁Πα
▁prijs
▁cakap
ਖ਼
▁ramach
▁anual
ண்டு
▁bună
boð
▁صد
▁alusta
οφ
gres
▁qadın
▁dolar
▁weniger
▁ต้อง
▁dobu
▁노력
="1"
▁වෙනස්
▁naturale
▁Bl
cole
砂
ahi
▁답변
amh
RG
▁гэх
sége
σι
цем
lili
pika
▁Eò
▁ਲੋਕ
▁රධාන
▁werde
▁ខ្លួន
bale
tə
▁Klima
▁جذب
▁név
▁біз
良好
anao
▁crise
မျိုး
ására
etin
▁ihrem
▁vozila
▁מפ
▁relativ
annu
▁hægt
▁didi
▁تست
loven
တယ်
沃
äà
ฟิ
ญี่ปุ่น
usz
▁genoeg
▁gäller
▁zatim
▁banke
good
▁Inform
ාව
▁Цвет
たま
最多
▁사용자
▁Vice
▁основ
▁inicia
▁permit
uomo
▁धा
SSA
▁lamang
▁wiem
观众
▁durum
▁insist
ālo
zis
ppet
毕业
▁absurd
▁կը
▁bloque
▁сьогодні
▁spy
sberg
▁geeft
攻击
掃
▁rizik
໌
▁enklere
▁maysa
diga
ينه
uche
▁necessario
作為
日起
▁estoy
▁lugares
▁അനു
使得
▁Можно
muni
द्य
▁EST
▁පමණ
▁NASA
▁بإ
ATION
大事
षण
广东
▁dicho
rys
shed
▁oras
▁сур
nɩ
▁nemlig
anın
▁recommend
▁choses
ìè
[...]
